{
  "!": 5,
  "!!": 2214,
  "!!!": 5145,
  "!!!!": 12924,
  "!!!!!!!!": 44858,
  "!\"": 5713,
  "!\",": 26350,
  "!\".": 19681,
  "!)": 11933,
  "!),": 27113,
  "!).": 26803,
  "!-": 30427,
  "!..": 4273,
  "!...": 42672,
  "!..Â»": 44660,
  "!?": 32225,
  "!Â»": 4271,
  "!Â»,": 24450,
  "!Â».": 22558,
  "!âĢ¦": 46775,
  "\"": 6,
  "\"!": 18850,
  "\"\"": 28263,
  "\"(": 46059,
  "\")": 6460,
  "\"),": 10395,
  "\").": 9571,
  "\",": 903,
  "\"-": 26578,
  "\".": 926,
  "\"...": 18056,
  "\":": 10757,
  "\";": 13431,
  "\">": 11298,
  "\"?": 12203,
  "\"[": 32718,
  "#": 7,
  "$": 8,
  "%": 9,
  "%)": 18314,
  "%),": 21327,
  "%).": 21956,
  "%,": 7418,
  "%.": 5999,
  "&": 10,
  "'": 11,
  "',": 22493,
  "'.": 25261,
  "'s": 1564,
  "'t": 16221,
  "(": 12,
  "((": 19879,
  ")": 13,
  ")\"": 28913,
  ")\",": 45773,
  ")\".": 44914,
  "))": 3745,
  ")))": 11907,
  "))))": 19484,
  "),": 934,
  ")-": 48105,
  ").": 814,
  ").]": 48859,
  "):": 7817,
  ");": 5102,
  ")?": 30818,
  ")[": 40920,
  "*": 14,
  "**": 4677,
  "***": 24633,
  "****": 13262,
  "********": 30930,
  "*.": 44712,
  "+": 15,
  "++": 22789,
  "++++": 48042,
  ",": 16,
  ",\"": 15629,
  ",,": 36938,
  ",-": 8574,
  ",--": 42894,
  ",...": 25030,
  ",[": 37150,
  ",âĢĵ": 48378,
  ",âĢĶ": 23369,
  "-": 17,
  "-\"": 44210,
  "-)": 38148,
  "-,": 38576,
  "--": 2884,
  "----": 6027,
  "--------": 11136,
  "----------------": 22418,
  ".": 18,
  ".\"": 4796,
  ".(": 36349,
  ".)": 3406,
  ".),": 9761,
  ".).": 6185,
  ".);": 38379,
  ".,": 2211,
  ".-": 6162,
  "..": 498,
  "...": 723,
  "...\"": 9401,
  "...\".": 34630,
  "...)": 30003,
  "...,": 38853,
  "...-": 41697,
  "....": 3901,
  ".....": 29706,
  "......": 36068,
  "........": 13478,
  "................": 28871,
  "...>": 31199,
  "...]": 15288,
  "...Â»": 28834,
  "...âľĤ": 6008,
  "./": 22811,
  ".:": 6060,
  ".;": 20443,
  ".<": 32456,
  ".[": 13160,
  ".]": 7516,
  ".],": 26441,
  ".].": 10409,
  ".Â»": 24137,
  ".âĢĵ": 44450,
  ".âĢĶ": 25714,
  ".âĢĿ": 41736,
  "/": 19,
  "/.": 12900,
  "/...âľĤ": 8592,
  "//": 4943,
  "0": 20,
  "00": 646,
  "000": 2562,
  "0000": 34929,
  "01": 754,
  "02": 7675,
  "03": 8696,
  "04": 8979,
  "05": 8365,
  "06": 8760,
  "07": 8492,
  "08": 8771,
  "09": 8174,
  "1": 21,
  "10": 2479,
  "100": 10590,
  "1000": 39055,
  "101": 37923,
  "105": 47113,
  "109": 47678,
  "11": 3572,
  "110": 37992,
  "111": 50014,
  "112": 37291,
  "115": 49229,
  "12": 2783,
  "120": 34238,
  "13": 4234,
  "130": 39775,
  "14": 3940,
  "15": 3114,
  "150": 27154,
  "16": 3902,
  "160": 46504,
  "17": 3420,
  "18": 2692,
  "180": 48573,
  "19": 1618,
  "1941": 46884,
  "1944": 45724,
  "1945": 31380,
  "1970": 44987,
  "198": 10335,
  "1980": 42653,
  "1989": 47942,
  "199": 8172,
  "1990": 38156,
  "1991": 41860,
  "1992": 44652,
  "1993": 45729,
  "1994": 45037,
  "1995": 43350,
  "1996": 41769,
  "1997": 43026,
  "1998": 39068,
  "1999": 39894,
  "2": 22,
  "20": 2932,
  "200": 4003,
  "2000": 22899,
  "2001": 31400,
  "2002": 32260,
  "2003": 28914,
  "2004": 28428,
  "2005": 29041,
  "2006": 21027,
  "2007": 20195,
  "2008": 18777,
  "2009": 18003,
  "201": 2225,
  "2010": 15853,
  "2011": 13733,
  "2012": 11622,
  "2013": 11276,
  "2014": 8157,
  "2015": 6488,
  "2016": 9989,
  "2017": 32008,
  "2018": 28028,
  "21": 6568,
  "22": 5759,
  "23": 6091,
  "24": 5493,
  "25": 4691,
  "250": 37168,
  "26": 6475,
  "27": 6462,
  "28": 6862,
  "29": 6894,
  "3": 23,
  "30": 3161,
  "300": 18442,
  "31": 8914,
  "32": 8976,
  "33": 7536,
  "34": 7751,
  "35": 6654,
  "36": 8066,
  "360": 46911,
  "37": 7703,
  "38": 8081,
  "39": 8799,
  "4": 24,
  "40": 5041,
  "400": 24342,
  "41": 10176,
  "42": 9869,
  "43": 10164,
  "44": 8400,
  "45": 6427,
  "46": 9348,
  "47": 9247,
  "48": 8725,
  "49": 6837,
  "495": 19239,
  "499": 49517,
  "5": 25,
  "50": 3324,
  "500": 16041,
  "51": 12086,
  "52": 11275,
  "53": 11629,
  "54": 11498,
  "55": 8042,
  "56": 10207,
  "57": 11672,
  "58": 10670,
  "59": 10821,
  "6": 26,
  "60": 5584,
  "600": 30957,
  "61": 15620,
  "62": 13539,
  "63": 15009,
  "64": 12770,
  "65": 12695,
  "66": 11559,
  "67": 14746,
  "68": 12743,
  "69": 14184,
  "7": 27,
  "70": 6695,
  "700": 40756,
  "71": 12630,
  "72": 11327,
  "73": 13040,
  "74": 12281,
  "75": 8564,
  "76": 9965,
  "77": 8318,
  "78": 10272,
  "79": 11842,
  "8": 28,
  "80": 5737,
  "800": 23419,
  "81": 18637,
  "812": 47739,
  "82": 16497,
  "83": 17819,
  "84": 17212,
  "85": 13896,
  "86": 13944,
  "87": 17133,
  "88": 12979,
  "89": 14550,
  "9": 29,
  "90": 7181,
  "91": 17867,
  "92": 16299,
  "93": 17404,
  "94": 17430,
  "95": 12555,
  "96": 16184,
  "97": 16492,
  "98": 15118,
  "99": 10257,
  ":": 30,
  ":\"": 32197,
  ":)": 27645,
  ":-": 45493,
  "://": 5356,
  ";": 31,
  ";&": 15485,
  ";&#": 18754,
  ";,": 43274,
  ";.": 39095,
  ";;": 41572,
  "<": 32,
  "</s>": 2,
  "<mask>": 4,
  "<pad>": 0,
  "<s>": 1,
  "<unk>": 3,
  "=": 33,
  "=\"": 6990,
  "==": 6188,
  "====": 11370,
  "========": 21228,
  "================": 42736,
  ">": 34,
  ">>": 48321,
  "?": 35,
  "?!": 3487,
  "?\"": 8242,
  "?\",": 42291,
  "?\".": 30734,
  "?)": 20407,
  "?),": 45984,
  "?-": 24058,
  "?..": 5682,
  "??": 6634,
  "???": 24123,
  "????": 20433,
  "????????": 45014,
  "?Â»": 5433,
  "?Â»,": 42630,
  "?Â».": 35991,
  "?âĢ¦": 31737,
  "@": 36,
  "A": 37,
  "AB": 44576,
  "AC": 26393,
  "AD": 36615,
  "AF": 28894,
  "AL": 30496,
  "AM": 29775,
  "AN": 28823,
  "AP": 29032,
  "AR": 19789,
  "AS": 12059,
  "AT": 24764,
  "Ab": 49966,
  "According": 39702,
  "Ad": 28519,
  "After": 17680,
  "Al": 14880,
  "All": 29189,
  "Although": 49360,
  "Am": 35651,
  "Americ": 28222,
  "American": 32690,
  "An": 17242,
  "And": 39295,
  "App": 50245,
  "Ar": 19448,
  "As": 17785,
  "At": 23314,
  "B": 38,
  "BA": 20989,
  "BC": 11539,
  "BI": 49236,
  "BO": 40344,
  "BS": 22471,
  "Be": 32890,
  "Bill": 43216,
  "Bl": 24949,
  "Born": 45932,
  "By": 38178,
  "C": 39,
  "CA": 14592,
  "CC": 29761,
  "CD": 43841,
  "CH": 36746,
  "CO": 36852,
  "CS": 49859,
  "Ch": 12293,
  "Cl": 24830,
  "Co": 47740,
  "Col": 42204,
  "Com": 26704,
  "Con": 41641,
  "D": 40,
  "DA": 18040,
  "DR": 47378,
  "DS": 33595,
  "De": 35516,
  "Don": 33909,
  "Dr": 43566,
  "During": 26477,
  "E": 41,
  "EA": 44186,
  "EC": 23004,
  "ED": 30640,
  "EE": 34928,
  "EG": 46425,
  "EL": 28289,
  "EM": 42365,
  "EN": 33676,
  "EO": 20291,
  "ER": 11595,
  "ES": 21452,
  "ET": 23743,
  "EX": 24980,
  "Ed": 41864,
  "El": 39011,
  "En": 25203,
  "Enter": 33052,
  "Ex": 33910,
  "F": 42,
  "FA": 16155,
  "FAX": 31765,
  "FC": 25431,
  "FL": 27404,
  "FM": 48631,
  "Fi": 31978,
  "Following": 49531,
  "For": 24077,
  "Fran": 49329,
  "From": 35492,
  "G": 43,
  "GA": 40980,
  "GN": 22856,
  "GNUM": 27686,
  "Ge": 41075,
  "Go": 46989,
  "Gu": 49304,
  "H": 44,
  "HL": 42216,
  "HS": 49730,
  "He": 10331,
  "His": 35922,
  "I": 45,
  "IA": 20114,
  "IC": 23620,
  "ID": 23459,
  "IF": 30756,
  "IG": 32754,
  "II": 2747,
  "III": 7538,
  "IL": 35814,
  "IM": 28599,
  "IN": 16961,
  "IP": 27479,
  "IR": 22955,
  "IS": 16977,
  "IT": 24220,
  "IV": 22197,
  "IX": 32228,
  "In": 3680,
  "Ind": 47703,
  "Is": 42166,
  "It": 16496,
  "J": 46,
  "Jo": 27821,
  "John": 32443,
  "K": 47,
  "L": 48,
  "LA": 22479,
  "LC": 40666,
  "LE": 45025,
  "LS": 39982,
  "La": 32311,
  "Le": 24703,
  "M": 49,
  "MA": 16124,
  "MI": 47055,
  "MP": 43842,
  "MS": 15856,
  "Man": 41704,
  "Mar": 36779,
  "Mon": 41340,
  "My": 48649,
  "N": 50,
  "NA": 21423,
  "NS": 25387,
  "NT": 19761,
  "NTER": 29133,
  "Ne": 36772,
  "New": 25691,
  "News": 35472,
  "No": 28551,
  "O": 51,
  "OC": 39463,
  "OD": 49305,
  "OL": 31693,
  "OM": 25833,
  "ON": 18689,
  "OP": 42212,
  "OR": 20524,
  "OS": 14882,
  "On": 10019,
  "One": 33864,
  "Or": 47792,
  "P": 52,
  "PA": 21745,
  "PC": 40241,
  "PG": 48063,
  "PR": 33538,
  "PS": 17511,
  "Ph": 15753,
  "Phone": 22326,
  "Pl": 30958,
  "Pr": 41737,
  "Pro": 26112,
  "Q": 53,
  "Qu": 40533,
  "R": 54,
  "RA": 14480,
  "RT": 42268,
  "RU": 16453,
  "Re": 40135,
  "Ru": 8381,
  "S": 55,
  "SA": 38492,
  "SM": 38669,
  "SP": 36643,
  "SS": 18227,
  "Sc": 15098,
  "Script": 27123,
  "Sh": 20084,
  "She": 28795,
  "Since": 46004,
  "Sm": 48093,
  "Some": 47278,
  "Sp": 24473,
  "St": 9333,
  "Star": 48104,
  "T": 56,
  "TA": 15319,
  "TC": 27071,
  "TE": 20414,
  "TI": 38493,
  "TM": 26242,
  "TML": 45472,
  "TO": 47897,
  "TP": 35612,
  "TR": 38821,
  "TS": 31064,
  "TV": 17915,
  "Th": 11813,
  "The": 1955,
  "There": 25346,
  "This": 21206,
  "To": 45769,
  "Tube": 28264,
  "U": 57,
  "UM": 22580,
  "UR": 33659,
  "URA": 46615,
  "US": 20564,
  "Un": 25043,
  "V": 58,
  "VD": 23238,
  "VI": 38711,
  "W": 59,
  "WS": 7189,
  "We": 39289,
  "Wh": 21560,
  "When": 34303,
  "While": 46507,
  "Will": 43916,
  "With": 37603,
  "X": 60,
  "XV": 26496,
  "XX": 30414,
  "Y": 61,
  "You": 42065,
  "Z": 62,
  "[": 63,
  "\\": 64,
  "]": 65,
  "],": 9142,
  "].": 3925,
  "][": 25502,
  "^": 66,
  "_": 67,
  "__": 2192,
  "____": 3830,
  "________": 7172,
  "________________": 14911,
  "________________________________": 39320,
  "`": 68,
  "a": 69,
  "ab": 1913,
  "aba": 46411,
  "abb": 37368,
  "abeth": 38808,
  "ability": 25064,
  "able": 4904,
  "ables": 40021,
  "ably": 18597,
  "abor": 16403,
  "aby": 37645,
  "ac": 946,
  "ace": 3166,
  "acebook": 9825,
  "aced": 10871,
  "acement": 42589,
  "aces": 15982,
  "ach": 3618,
  "ache": 40143,
  "ached": 16158,
  "achel": 42345,
  "aches": 33484,
  "aching": 24143,
  "achus": 41443,
  "achusetts": 43565,
  "acing": 21753,
  "ack": 2718,
  "acks": 42841,
  "act": 3520,
  "acter": 48510,
  "action": 29227,
  "active": 49593,
  "acy": 17093,
  "ad": 974,
  "ada": 11651,
  "add": 32476,
  "ade": 4113,
  "adel": 37490,
  "adelphia": 44123,
  "adem": 14063,
  "ades": 24072,
  "adian": 20903,
  "adio": 13975,
  "adium": 26305,
  "ado": 25271,
  "ador": 37734,
  "ady": 26983,
  "ae": 10402,
  "ael": 19043,
  "af": 9845,
  "aff": 15674,
  "ag": 1366,
  "aga": 36031,
  "agan": 48711,
  "age": 3104,
  "aged": 18142,
  "agen": 28330,
  "ager": 43070,
  "ages": 10281,
  "aging": 35737,
  "agn": 38209,
  "ago": 18355,
  "agon": 22781,
  "agram": 32424,
  "agu": 47186,
  "ague": 8512,
  "ah": 5477,
  "aha": 44490,
  "ai": 7463,
  "aid": 8395,
  "aign": 19246,
  "ail": 3242,
  "aily": 20527,
  "aim": 12265,
  "ain": 1729,
  "aine": 32640,
  "ained": 8763,
  "aining": 18298,
  "ains": 10396,
  "aint": 16206,
  "air": 6504,
  "airman": 31449,
  "airs": 23537,
  "ais": 33173,
  "aith": 40331,
  "aj": 6481,
  "ajor": 9641,
  "ak": 2007,
  "aka": 36196,
  "ake": 5518,
  "aken": 16758,
  "aker": 20826,
  "akers": 37542,
  "akes": 13439,
  "akh": 41614,
  "aki": 48956,
  "aking": 9696,
  "aks": 27954,
  "al": 565,
  "ala": 21668,
  "ald": 13163,
  "ale": 7324,
  "aled": 27347,
  "ales": 12245,
  "alf": 13935,
  "ali": 29932,
  "aling": 45707,
  "alion": 43700,
  "ality": 11978,
  "alk": 13301,
  "all": 1959,
  "alle": 35729,
  "alled": 27209,
  "alls": 22143,
  "ally": 3959,
  "alo": 41512,
  "als": 6659,
  "also": 49860,
  "alt": 14338,
  "alth": 12637,
  "am": 866,
  "ama": 16636,
  "amb": 11632,
  "amber": 42824,
  "ame": 2475,
  "amed": 8924,
  "ament": 16519,
  "ames": 6857,
  "ami": 42854,
  "amily": 37429,
  "amin": 43822,
  "aming": 41594,
  "amm": 43796,
  "amp": 3886,
  "ampion": 32596,
  "ampions": 10571,
  "ampionship": 11938,
  "ample": 16796,
  "ams": 14547,
  "amsung": 30270,
  "an": 517,
  "ana": 12224,
  "anc": 5062,
  "ance": 4865,
  "anced": 25386,
  "ances": 18312,
  "anche": 36191,
  "anchester": 49041,
  "ancial": 23138,
  "ancing": 44111,
  "ancy": 38469,
  "and": 1346,
  "anda": 30041,
  "anded": 23391,
  "ander": 15494,
  "andex": 48135,
  "anding": 21402,
  "ando": 49186,
  "ands": 25211,
  "andy": 46528,
  "ane": 11067,
  "ang": 3669,
  "ange": 9673,
  "anger": 46295,
  "angu": 12738,
  "ani": 22900,
  "ania": 19116,
  "anish": 19653,
  "ank": 5763,
  "anks": 35137,
  "ann": 6445,
  "anna": 45888,
  "annel": 23404,
  "ano": 21846,
  "ans": 5105,
  "ansas": 42857,
  "ansion": 44309,
  "ant": 2186,
  "anta": 24840,
  "antasy": 47061,
  "ante": 41234,
  "anted": 20621,
  "anth": 49583,
  "antic": 27951,
  "antly": 48279,
  "antry": 36169,
  "ants": 10094,
  "any": 6303,
  "ao": 46200,
  "ap": 2051,
  "apan": 13618,
  "ape": 15548,
  "aped": 40774,
  "aper": 18278,
  "apers": 37453,
  "apore": 45717,
  "app": 16001,
  "appy": 46972,
  "aps": 21718,
  "apt": 22916,
  "ar": 559,
  "ara": 13855,
  "arch": 24371,
  "ard": 1950,
  "arden": 32282,
  "ards": 13266,
  "are": 3659,
  "ared": 9120,
  "aren": 38328,
  "arent": 17830,
  "ares": 33483,
  "aret": 45251,
  "arg": 6855,
  "arge": 11323,
  "ari": 15219,
  "aria": 32182,
  "arian": 22041,
  "aries": 23881,
  "arily": 25137,
  "aring": 30445,
  "ario": 31035,
  "aris": 44196,
  "ark": 3777,
  "arl": 8179,
  "arliam": 20977,
  "arliament": 21229,
  "arly": 44882,
  "arm": 8917,
  "arn": 10141,
  "aro": 41635,
  "arp": 34945,
  "arri": 8529,
  "arriage": 31979,
  "arried": 13239,
  "arry": 43189,
  "ars": 7436,
  "art": 1813,
  "arter": 21697,
  "arters": 34315,
  "arth": 23929,
  "artment": 15271,
  "ary": 2448,
  "as": 633,
  "asc": 21715,
  "ase": 5206,
  "ased": 4584,
  "ases": 16000,
  "ash": 6108,
  "ashington": 18730,
  "ashion": 35171,
  "asing": 22504,
  "asion": 28097,
  "ask": 19972,
  "ason": 5789,
  "asons": 22798,
  "ass": 3144,
  "ast": 2488,
  "aster": 10622,
  "astern": 16756,
  "astic": 35918,
  "asty": 48354,
  "asy": 25161,
  "at": 532,
  "ata": 10238,
  "atal": 24933,
  "atch": 15725,
  "ate": 1899,
  "ated": 2194,
  "ateg": 21516,
  "ately": 11332,
  "ater": 3549,
  "aters": 37489,
  "ates": 4306,
  "atform": 31351,
  "ath": 4919,
  "athan": 48130,
  "ather": 8298,
  "ati": 29634,
  "atic": 11530,
  "atin": 24147,
  "ating": 7028,
  "ation": 1096,
  "ational": 3691,
  "ations": 3825,
  "ative": 6628,
  "atively": 33273,
  "atives": 24594,
  "ato": 26599,
  "ator": 9812,
  "ators": 20519,
  "atory": 21386,
  "atre": 22925,
  "ats": 11396,
  "att": 6719,
  "atter": 19365,
  "attle": 15070,
  "atural": 21878,
  "ature": 12214,
  "atus": 48327,
  "au": 8958,
  "aug": 45821,
  "augh": 11266,
  "aught": 28225,
  "aughter": 19498,
  "aul": 14023,
  "ault": 28952,
  "aur": 19506,
  "aus": 12692,
  "ause": 8835,
  "aut": 16938,
  "av": 1667,
  "ava": 17496,
  "aval": 23525,
  "ave": 3185,
  "avel": 40962,
  "aven": 36240,
  "aver": 48204,
  "aves": 23058,
  "aving": 11068,
  "avy": 15876,
  "aw": 4020,
  "awa": 34574,
  "ax": 7156,
  "axy": 47308,
  "ay": 1201,
  "aya": 29370,
  "ayer": 41232,
  "aylor": 43760,
  "ays": 7943,
  "az": 5266,
  "aza": 48342,
  "azine": 20067,
  "azon": 49190,
  "azz": 26858,
  "b": 70,
  "ba": 27087,
  "back": 20851,
  "ball": 7830,
  "band": 28020,
  "bar": 44793,
  "based": 27786,
  "bass": 42960,
  "bat": 47056,
  "be": 15711,
  "bec": 46710,
  "bed": 42089,
  "ber": 1890,
  "berg": 14618,
  "bers": 31855,
  "bert": 22017,
  "bes": 36147,
  "bid": 39921,
  "bit": 28250,
  "bl": 19497,
  "ble": 9508,
  "bo": 38087,
  "board": 21024,
  "bon": 32437,
  "book": 8873,
  "bor": 18796,
  "born": 12481,
  "bour": 24481,
  "bourne": 45024,
  "box": 29165,
  "br": 12574,
  "bra": 45315,
  "bre": 31837,
  "bro": 40297,
  "bs": 30687,
  "bu": 37928,
  "bum": 7439,
  "bur": 31145,
  "burg": 20938,
  "burgh": 38283,
  "bury": 32475,
  "bus": 37661,
  "by": 8322,
  "c": 71,
  "ca": 27339,
  "can": 43311,
  "cast": 16350,
  "cc": 7138,
  "ccording": 19221,
  "ce": 1317,
  "cean": 36184,
  "ced": 12872,
  "cedes": 36608,
  "ceed": 20500,
  "cel": 27888,
  "cent": 12325,
  "century": 48808,
  "cept": 9430,
  "ces": 9385,
  "cess": 5553,
  "ch": 1200,
  "cha": 45281,
  "change": 28355,
  "che": 5758,
  "ched": 15682,
  "chen": 28862,
  "cher": 26187,
  "ches": 13080,
  "chestra": 45841,
  "chie": 20911,
  "chool": 4628,
  "ci": 36737,
  "cial": 22775,
  "cis": 21125,
  "ck": 9938,
  "cl": 3016,
  "claim": 43481,
  "class": 37211,
  "cle": 22611,
  "cles": 39276,
  "clud": 3912,
  "clus": 27540,
  "co": 8430,
  "col": 33602,
  "com": 3758,
  "come": 47916,
  "comm": 21016,
  "comp": 25412,
  "con": 21381,
  "cont": 40440,
  "cow": 34967,
  "craft": 20100,
  "ct": 1361,
  "ction": 5025,
  "ctions": 39631,
  "ctor": 24190,
  "cul": 39989,
  "cy": 21387,
  "d": 72,
  "da": 19970,
  "day": 12394,
  "de": 12739,
  "den": 22069,
  "der": 6872,
  "do": 34338,
  "dom": 17725,
  "down": 28213,
  "du": 5567,
  "duc": 6358,
  "duce": 41890,
  "duced": 9987,
  "duct": 15795,
  "duction": 25779,
  "e": 73,
  "ead": 15721,
  "eal": 20026,
  "ean": 21511,
  "ear": 2093,
  "earch": 11414,
  "ears": 37287,
  "eat": 5994,
  "eated": 26185,
  "eather": 43824,
  "eb": 4834,
  "eball": 34744,
  "ebru": 11865,
  "ebruary": 11912,
  "ec": 1006,
  "ecause": 39939,
  "ecess": 26874,
  "ech": 10497,
  "echan": 29070,
  "echn": 10446,
  "ecially": 25192,
  "eck": 23597,
  "ect": 2404,
  "ected": 13014,
  "ecting": 42928,
  "ection": 11522,
  "ections": 34217,
  "ective": 33685,
  "ector": 23454,
  "ects": 23681,
  "ecut": 15911,
  "ecutive": 21763,
  "ed": 527,
  "edd": 36214,
  "eder": 13035,
  "ederal": 21098,
  "ederation": 40245,
  "edia": 34198,
  "eding": 48998,
  "edom": 37939,
  "eds": 28859,
  "edy": 25827,
  "ee": 6350,
  "eek": 14150,
  "eeks": 31359,
  "een": 29648,
  "eep": 19949,
  "ees": 30294,
  "ef": 18114,
  "eff": 28851,
  "eg": 4353,
  "ega": 39087,
  "eh": 19635,
  "ein": 23677,
  "ek": 26418,
  "el": 863,
  "ela": 33616,
  "eld": 36443,
  "ele": 20655,
  "elebr": 29281,
  "elect": 48518,
  "eler": 50087,
  "elf": 7922,
  "ell": 2386,
  "ella": 25611,
  "elle": 37157,
  "elled": 27447,
  "eller": 41131,
  "ellig": 32599,
  "elligence": 41301,
  "elling": 21742,
  "ello": 42911,
  "ellow": 20715,
  "ells": 18208,
  "elly": 49481,
  "els": 9178,
  "elt": 22795,
  "ely": 4499,
  "em": 1238,
  "eman": 43135,
  "emb": 7228,
  "ember": 3668,
  "embers": 11085,
  "embly": 28251,
  "ement": 6483,
  "ements": 21235,
  "emet": 40234,
  "emetery": 43377,
  "emporary": 35905,
  "empt": 15339,
  "ems": 24237,
  "en": 534,
  "ena": 17880,
  "enc": 5506,
  "ence": 3644,
  "enced": 22152,
  "ences": 13162,
  "encies": 41065,
  "ency": 13358,
  "end": 2321,
  "ended": 10540,
  "ender": 24448,
  "ending": 18209,
  "ends": 27111,
  "ene": 9830,
  "ened": 29174,
  "ener": 5753,
  "eneral": 14345,
  "enes": 38859,
  "eng": 9003,
  "enge": 33855,
  "enger": 34903,
  "engers": 47508,
  "ength": 24180,
  "ening": 43465,
  "enn": 7728,
  "enna": 48674,
  "ennis": 40179,
  "ens": 3767,
  "ense": 14012,
  "ension": 26835,
  "ensive": 20078,
  "ensus": 28271,
  "ent": 815,
  "enta": 43556,
  "ental": 33817,
  "ented": 47549,
  "enth": 29946,
  "ential": 21568,
  "ention": 16818,
  "ently": 11737,
  "ents": 4494,
  "enty": 32500,
  "enz": 29905,
  "ep": 2740,
  "epend": 14266,
  "ependence": 39201,
  "ependent": 20180,
  "eph": 25131,
  "ept": 8178,
  "eptember": 10055,
  "er": 444,
  "era": 15157,
  "eral": 49010,
  "erc": 44647,
  "ere": 2372,
  "ered": 8167,
  "erem": 30656,
  "erg": 11519,
  "ergy": 27641,
  "eries": 7637,
  "ering": 14486,
  "erm": 6944,
  "erman": 7806,
  "ern": 7497,
  "ero": 21979,
  "erous": 22372,
  "err": 16664,
  "error": 38353,
  "erry": 26103,
  "ers": 1284,
  "ersey": 36320,
  "ership": 19648,
  "erson": 8983,
  "ert": 7464,
  "ertain": 20279,
  "erv": 3344,
  "erve": 27407,
  "ery": 10920,
  "es": 573,
  "esc": 18079,
  "ese": 13806,
  "esh": 37134,
  "esp": 14276,
  "espite": 32454,
  "ess": 2130,
  "ession": 33984,
  "est": 1597,
  "ested": 17489,
  "estern": 12931,
  "estic": 45332,
  "estival": 20294,
  "ests": 17377,
  "et": 980,
  "eta": 42362,
  "etball": 31857,
  "eter": 13393,
  "eth": 15677,
  "ether": 14116,
  "etic": 43770,
  "etime": 44434,
  "etro": 39415,
  "ets": 9316,
  "ett": 20077,
  "ette": 30659,
  "etts": 41589,
  "etwork": 15963,
  "ety": 12656,
  "ev": 5541,
  "ever": 5378,
  "everal": 47491,
  "ew": 1753,
  "ews": 13543,
  "ex": 4656,
  "ext": 11853,
  "ey": 3810,
  "ez": 38290,
  "f": 74,
  "face": 23299,
  "fe": 46155,
  "fect": 35313,
  "fer": 4219,
  "ference": 18844,
  "fess": 10221,
  "ff": 2960,
  "ffic": 34029,
  "fic": 21485,
  "ficult": 28550,
  "field": 17319,
  "fit": 27364,
  "fl": 8420,
  "flibusta": 41507,
  "for": 4169,
  "ford": 12756,
  "fore": 6512,
  "form": 5766,
  "forman": 16624,
  "formation": 16839,
  "former": 49678,
  "fort": 35878,
  "ft": 4268,
  "fter": 3373,
  "ful": 8962,
  "g": 75,
  "ga": 34482,
  "gan": 5253,
  "gar": 45804,
  "ge": 2316,
  "ged": 19628,
  "gen": 25959,
  "gent": 35083,
  "ger": 20469,
  "ges": 22911,
  "gest": 46692,
  "get": 32678,
  "gg": 45146,
  "gh": 2528,
  "gin": 20260,
  "ging": 37763,
  "gl": 27512,
  "gn": 39712,
  "go": 19135,
  "gor": 44053,
  "gr": 34626,
  "grad": 40951,
  "gram": 8516,
  "greg": 43930,
  "gress": 21651,
  "ground": 27575,
  "gt": 19106,
  "gu": 38262,
  "gy": 16942,
  "gypt": 37741,
  "h": 76,
  "ha": 14991,
  "hab": 27336,
  "ham": 10741,
  "han": 18897,
  "hat": 48026,
  "he": 398,
  "head": 22329,
  "heast": 31098,
  "hed": 3630,
  "hedral": 47672,
  "heim": 42293,
  "hel": 15327,
  "hem": 14483,
  "hemat": 41607,
  "hen": 6817,
  "hens": 40421,
  "her": 1308,
  "here": 18545,
  "hern": 16363,
  "hers": 20503,
  "hes": 10918,
  "hest": 24984,
  "het": 31670,
  "hew": 40498,
  "hi": 23961,
  "hib": 18565,
  "hing": 26000,
  "hip": 4908,
  "hist": 49847,
  "hn": 4578,
  "ho": 39725,
  "hod": 22242,
  "hol": 35656,
  "hold": 26009,
  "hood": 24588,
  "hor": 11390,
  "house": 28887,
  "hr": 43275,
  "ht": 30749,
  "html": 49120,
  "http": 25872,
  "i": 77,
  "ia": 1831,
  "iab": 41527,
  "iable": 45999,
  "ial": 2421,
  "ially": 9801,
  "iam": 7503,
  "ian": 2034,
  "iana": 32048,
  "iance": 29432,
  "iang": 44759,
  "iano": 34392,
  "ians": 11378,
  "iant": 32835,
  "ias": 30365,
  "iat": 33790,
  "iation": 23295,
  "ib": 3398,
  "iber": 14324,
  "ibility": 27863,
  "ible": 9682,
  "ibly": 43868,
  "ibr": 20453,
  "ibrary": 26298,
  "ibusta": 41452,
  "ic": 658,
  "ica": 13800,
  "ical": 2863,
  "ically": 10340,
  "ican": 32045,
  "icated": 25294,
  "ice": 3278,
  "iced": 47148,
  "ices": 10745,
  "ich": 2071,
  "ici": 44009,
  "icial": 45498,
  "ician": 27840,
  "icient": 37955,
  "icine": 41671,
  "ick": 5242,
  "icle": 20049,
  "icles": 24159,
  "ico": 17071,
  "icro": 13413,
  "ics": 5717,
  "ict": 5707,
  "icted": 38336,
  "iction": 21246,
  "ictor": 23499,
  "icture": 48873,
  "ictures": 45233,
  "icy": 22886,
  "id": 1052,
  "ida": 20937,
  "idae": 28102,
  "idd": 13691,
  "iddle": 19470,
  "ide": 3309,
  "ided": 10005,
  "idence": 19576,
  "ident": 6119,
  "idents": 28101,
  "ideo": 16262,
  "ider": 25151,
  "ides": 12263,
  "idi": 47954,
  "iding": 21281,
  "ids": 22483,
  "ie": 2751,
  "iec": 20338,
  "ied": 4595,
  "ief": 13218,
  "iel": 6098,
  "ield": 7567,
  "ien": 23465,
  "ience": 10210,
  "iences": 26364,
  "iens": 49693,
  "ient": 8986,
  "ients": 33323,
  "ier": 6224,
  "iers": 22382,
  "ies": 1971,
  "iest": 38934,
  "iet": 8906,
  "iety": 26504,
  "ieuten": 40491,
  "ieutenant": 41571,
  "iew": 7129,
  "if": 1843,
  "ife": 6685,
  "iff": 22999,
  "ific": 6865,
  "ifically": 48935,
  "ification": 21185,
  "ified": 12389,
  "iform": 46576,
  "iforn": 16855,
  "ifornia": 17160,
  "ift": 25532,
  "ify": 27627,
  "ifying": 40355,
  "ig": 1095,
  "iga": 35882,
  "igan": 31238,
  "igen": 44807,
  "iger": 35384,
  "igh": 2017,
  "ight": 2724,
  "ighter": 40377,
  "ighth": 48706,
  "ights": 11991,
  "igital": 27022,
  "ign": 3233,
  "igned": 21884,
  "igr": 41429,
  "ih": 29369,
  "ii": 28379,
  "ij": 18085,
  "ik": 3410,
  "ika": 36505,
  "ike": 7411,
  "ikh": 47174,
  "iki": 30151,
  "il": 787,
  "ila": 34096,
  "ilar": 15019,
  "ild": 4321,
  "ilding": 39695,
  "ile": 4058,
  "iled": 31142,
  "iles": 17056,
  "ili": 19594,
  "ilies": 30875,
  "iling": 45141,
  "ilit": 11406,
  "ilitary": 14588,
  "ilities": 22904,
  "ility": 9791,
  "ill": 1863,
  "illa": 24809,
  "ille": 13601,
  "illed": 36371,
  "iller": 48803,
  "illing": 49043,
  "illion": 11818,
  "ills": 18682,
  "illy": 39470,
  "ilm": 5647,
  "ils": 28100,
  "ilt": 10086,
  "ilton": 43431,
  "ily": 6124,
  "im": 1091,
  "ima": 27753,
  "imal": 41970,
  "imate": 25114,
  "imately": 18475,
  "imb": 29305,
  "ime": 3543,
  "iment": 17268,
  "imes": 7577,
  "ims": 38376,
  "imum": 32279,
  "in": 410,
  "ina": 6407,
  "inal": 5293,
  "inally": 49317,
  "inals": 35486,
  "inary": 29504,
  "inated": 35823,
  "ination": 17609,
  "inc": 8713,
  "ince": 5989,
  "incip": 22763,
  "includ": 41190,
  "inct": 30315,
  "ind": 3796,
  "inder": 42761,
  "indows": 11822,
  "ine": 2426,
  "ined": 7697,
  "inem": 36994,
  "inent": 26210,
  "ines": 7034,
  "inese": 23496,
  "iness": 10782,
  "inet": 31762,
  "inf": 25026,
  "info": 35239,
  "ing": 657,
  "inger": 35286,
  "ings": 5109,
  "ington": 12577,
  "ingu": 29663,
  "ini": 21262,
  "ining": 12624,
  "inity": 40008,
  "ink": 9341,
  "inn": 6916,
  "inner": 28125,
  "inning": 13884,
  "ino": 13227,
  "inois": 43738,
  "ins": 6109,
  "inson": 43889,
  "int": 4303,
  "inter": 40207,
  "inus": 43155,
  "iny": 40306,
  "io": 4390,
  "iod": 12583,
  "iol": 19852,
  "ion": 692,
  "ional": 7752,
  "ione": 36806,
  "ions": 2929,
  "ior": 9517,
  "ios": 22213,
  "iot": 37169,
  "ious": 5586,
  "ip": 2148,
  "ipe": 48304,
  "ipl": 35141,
  "iplom": 49143,
  "ipp": 19891,
  "ips": 30309,
  "iqu": 22746,
  "ique": 19087,
  "iques": 46127,
  "ir": 1106,
  "ira": 32047,
  "irc": 15564,
  "ird": 9083,
  "irds": 41584,
  "ire": 3172,
  "irect": 7184,
  "irection": 35444,
  "ired": 8687,
  "ires": 25723,
  "iring": 33481,
  "irit": 29385,
  "irl": 17008,
  "irm": 26299,
  "irmed": 42170,
  "iro": 27605,
  "iron": 17223,
  "irst": 3102,
  "irt": 29629,
  "irth": 26114,
  "irty": 44614,
  "is": 550,
  "isa": 33544,
  "isation": 33246,
  "isc": 14470,
  "ise": 7672,
  "ised": 10557,
  "iser": 41755,
  "ises": 27847,
  "ish": 2721,
  "ished": 5710,
  "isher": 36248,
  "ishes": 41712,
  "ishi": 48429,
  "ishing": 21153,
  "ishop": 26506,
  "ising": 18469,
  "ision": 6186,
  "isions": 30535,
  "isk": 28313,
  "isl": 21631,
  "ism": 7617,
  "ison": 13827,
  "iss": 4312,
  "issan": 43255,
  "ission": 9750,
  "ist": 1407,
  "ista": 41518,
  "istan": 26105,
  "istance": 41111,
  "isted": 40163,
  "ister": 9459,
  "istered": 42290,
  "isters": 39557,
  "istic": 20976,
  "istics": 36090,
  "istry": 26154,
  "ists": 8069,
  "it": 561,
  "ita": 22411,
  "itage": 41865,
  "ital": 8787,
  "itar": 27353,
  "itation": 33182,
  "itch": 25628,
  "ite": 4376,
  "itect": 20814,
  "ited": 4526,
  "iter": 25259,
  "ites": 27189,
  "ith": 1255,
  "ither": 18732,
  "iti": 41706,
  "ities": 6690,
  "iting": 20325,
  "ition": 3706,
  "itions": 12686,
  "itive": 19757,
  "itled": 37951,
  "itness": 40509,
  "ito": 38180,
  "itor": 16418,
  "itors": 32980,
  "its": 7333,
  "itt": 30905,
  "itte": 18344,
  "itted": 37077,
  "ittee": 20812,
  "ittle": 31584,
  "itude": 33628,
  "ity": 1868,
  "itz": 27292,
  "ium": 8414,
  "ius": 16304,
  "iv": 1044,
  "iva": 39500,
  "ival": 11134,
  "ive": 2217,
  "ived": 7066,
  "ively": 12951,
  "iven": 12508,
  "iver": 7326,
  "ivers": 4787,
  "iversity": 6297,
  "ives": 8963,
  "ivid": 16617,
  "ividual": 18369,
  "ivil": 16916,
  "iving": 10792,
  "ivision": 12729,
  "ivity": 39785,
  "ivodes": 45592,
  "ivodeship": 45650,
  "ix": 5427,
  "iy": 31225,
  "iz": 3188,
  "ization": 13291,
  "ize": 13992,
  "ized": 8644,
  "izes": 39492,
  "izing": 31032,
  "iÐ½": 46373,
  "j": 78,
  "ja": 31781,
  "ject": 6813,
  "jo": 31428,
  "joy": 43590,
  "k": 79,
  "ka": 10693,
  "ke": 8791,
  "ken": 30437,
  "ker": 35577,
  "kes": 49109,
  "key": 49363,
  "kh": 47641,
  "ki": 11694,
  "kin": 35618,
  "king": 38302,
  "kins": 34987,
  "kl": 41159,
  "kn": 24866,
  "known": 28196,
  "ko": 22077,
  "ks": 7981,
  "kt": 49589,
  "ky": 9686,
  "kz": 50181,
  "l": 80,
  "la": 16462,
  "lad": 39758,
  "lam": 28318,
  "lan": 42526,
  "land": 3943,
  "lands": 17022,
  "lav": 37791,
  "law": 44577,
  "ld": 2065,
  "le": 716,
  "lear": 17153,
  "lect": 3790,
  "lection": 33559,
  "led": 8767,
  "ledge": 34201,
  "leep": 47273,
  "leg": 11571,
  "lege": 10174,
  "ler": 12316,
  "lers": 48089,
  "les": 4886,
  "less": 17104,
  "let": 8816,
  "lev": 10961,
  "levision": 15487,
  "lex": 10877,
  "ley": 7162,
  "li": 31828,
  "lib": 31848,
  "lic": 16665,
  "lied": 38183,
  "life": 48027,
  "light": 34145,
  "like": 26743,
  "lim": 25830,
  "lin": 14755,
  "line": 10807,
  "lines": 30898,
  "ling": 13300,
  "lish": 9742,
  "lished": 14585,
  "lit": 32929,
  "ll": 5784,
  "lo": 26228,
  "load": 37427,
  "lor": 28924,
  "lt": 31087,
  "ly": 1112,
  "lying": 28883,
  "lymp": 20080,
  "lyn": 47096,
  "lywood": 44204,
  "m": 81,
  "ma": 15554,
  "mad": 42991,
  "mail": 8899,
  "man": 3335,
  "mann": 36690,
  "mar": 22577,
  "mark": 26064,
  "mas": 38134,
  "mb": 46080,
  "me": 11317,
  "med": 11372,
  "medi": 23832,
  "men": 19332,
  "ment": 2415,
  "ments": 10149,
  "mer": 2933,
  "meric": 5446,
  "mes": 44477,
  "met": 29744,
  "min": 9599,
  "mina": 35886,
  "ming": 20952,
  "minist": 15918,
  "mir": 36304,
  "miss": 45088,
  "mission": 32621,
  "mit": 14706,
  "mitted": 29991,
  "ml": 32481,
  "mon": 25374,
  "mond": 33917,
  "more": 35383,
  "most": 19164,
  "mp": 11647,
  "ms": 14651,
  "my": 8956,
  "n": 82,
  "na": 12718,
  "nam": 41141,
  "nb": 34552,
  "nbsp": 38512,
  "nd": 585,
  "nder": 23999,
  "ne": 5282,
  "ned": 24437,
  "nel": 30861,
  "ner": 9279,
  "nergy": 47399,
  "ners": 48830,
  "nes": 35810,
  "ness": 13515,
  "net": 13444,
  "news": 29717,
  "ney": 16191,
  "ng": 3936,
  "ni": 45155,
  "nik": 35442,
  "ning": 16392,
  "no": 24626,
  "not": 23438,
  "now": 17512,
  "ns": 40324,
  "nt": 2360,
  "ny": 21888,
  "o": 83,
  "oad": 11937,
  "oard": 10081,
  "ob": 4166,
  "obal": 24895,
  "obe": 37953,
  "ober": 7526,
  "obile": 28745,
  "oc": 1656,
  "ocal": 25979,
  "ocated": 40784,
  "occ": 31131,
  "occer": 48080,
  "och": 21530,
  "oci": 6465,
  "ocial": 13385,
  "ociety": 15979,
  "ock": 5110,
  "ockey": 32014,
  "ocr": 17082,
  "od": 1638,
  "oda": 43101,
  "oday": 31550,
  "ode": 11082,
  "odes": 18601,
  "odies": 44274,
  "ody": 13237,
  "oe": 14801,
  "oeing": 30144,
  "oes": 48595,
  "of": 13544,
  "off": 14688,
  "og": 2335,
  "ogle": 10239,
  "ogn": 16681,
  "ograp": 42206,
  "ograph": 13576,
  "ographic": 44482,
  "ography": 25242,
  "ogs": 44228,
  "ogue": 35845,
  "oh": 20514,
  "oice": 21892,
  "oid": 28669,
  "oint": 5991,
  "oir": 33625,
  "ois": 40278,
  "ok": 2542,
  "oke": 26377,
  "okia": 48553,
  "ol": 908,
  "ola": 21437,
  "old": 4344,
  "ole": 15158,
  "oles": 44211,
  "olf": 21764,
  "oli": 45708,
  "olic": 19101,
  "olid": 44149,
  "olis": 46983,
  "olit": 29921,
  "olitan": 46101,
  "olk": 27061,
  "oll": 3869,
  "ollow": 5905,
  "ollowing": 27387,
  "oln": 48470,
  "olog": 5733,
  "ological": 18329,
  "ologies": 45122,
  "ologist": 45661,
  "ology": 9619,
  "ols": 29449,
  "olution": 14599,
  "olved": 42951,
  "oly": 48501,
  "om": 838,
  "oma": 26217,
  "oman": 9875,
  "omb": 14607,
  "ome": 3311,
  "omen": 11039,
  "omer": 34322,
  "omet": 12004,
  "omew": 48418,
  "omin": 12388,
  "omo": 49470,
  "omot": 41255,
  "oms": 24799,
  "on": 461,
  "ona": 23935,
  "ond": 3220,
  "onda": 43175,
  "ondon": 11706,
  "one": 4456,
  "oned": 38844,
  "onent": 42798,
  "onents": 40597,
  "ones": 14138,
  "ong": 2416,
  "onia": 37993,
  "onic": 30616,
  "onn": 28382,
  "onom": 11781,
  "ons": 4545,
  "onse": 31826,
  "onst": 23456,
  "ont": 4979,
  "onto": 39804,
  "ony": 10819,
  "onym": 41942,
  "oo": 16382,
  "ood": 4977,
  "ook": 3967,
  "ool": 3987,
  "oom": 18102,
  "oon": 14699,
  "oor": 17208,
  "oot": 6553,
  "ootball": 9767,
  "ooth": 38884,
  "op": 1661,
  "ope": 17875,
  "oper": 25434,
  "oph": 14849,
  "ople": 7708,
  "ops": 15996,
  "or": 514,
  "ora": 27220,
  "oral": 30545,
  "oration": 41449,
  "ord": 2577,
  "order": 24244,
  "ordin": 49045,
  "ording": 12970,
  "ords": 12889,
  "ore": 2015,
  "ored": 11669,
  "oren": 50031,
  "orer": 46129,
  "ores": 22453,
  "org": 11783,
  "organ": 47580,
  "orge": 15898,
  "ori": 47668,
  "orial": 28275,
  "ories": 15812,
  "oring": 26759,
  "ork": 2807,
  "orld": 4962,
  "orm": 10537,
  "orn": 3958,
  "orney": 44734,
  "orning": 33759,
  "orph": 44014,
  "orpor": 31784,
  "ors": 4389,
  "orship": 42011,
  "ort": 1956,
  "orter": 37479,
  "orth": 5867,
  "orthern": 17280,
  "orts": 18471,
  "orus": 48500,
  "ory": 3962,
  "os": 1410,
  "osa": 40912,
  "ose": 5328,
  "osed": 9585,
  "osen": 39857,
  "oses": 34810,
  "osh": 34204,
  "osing": 24583,
  "osis": 47172,
  "osition": 23145,
  "osm": 48136,
  "osoph": 33741,
  "osophy": 45103,
  "osp": 14559,
  "ospital": 23687,
  "oss": 7370,
  "ost": 2531,
  "oster": 50240,
  "oston": 32772,
  "ot": 1050,
  "ota": 17412,
  "ote": 13821,
  "oted": 19169,
  "oth": 5509,
  "other": 7604,
  "oti": 45271,
  "oto": 30805,
  "ots": 16650,
  "ott": 10737,
  "ottom": 48949,
  "ou": 765,
  "oud": 30140,
  "ough": 5011,
  "ought": 21245,
  "oul": 21895,
  "ould": 3917,
  "oun": 6300,
  "ounc": 8209,
  "ouncil": 14198,
  "ound": 3983,
  "ounded": 41189,
  "ounds": 39881,
  "ount": 3677,
  "ounter": 25423,
  "our": 2322,
  "ource": 42874,
  "ources": 37998,
  "ouri": 46935,
  "ourn": 10422,
  "ournal": 13570,
  "ours": 18257,
  "ous": 3105,
  "ouse": 6878,
  "ously": 34953,
  "out": 3627,
  "oute": 43507,
  "outh": 5405,
  "outher": 17263,
  "outhern": 17425,
  "outube": 40671,
  "ov": 2084,
  "ova": 27933,
  "ove": 9574,
  "over": 4054,
  "overn": 6796,
  "overnment": 8673,
  "overnor": 24503,
  "overs": 28521,
  "ovo": 42632,
  "ow": 1170,
  "ower": 6638,
  "owers": 29573,
  "owever": 7660,
  "own": 3449,
  "ows": 6869,
  "ox": 7591,
  "oy": 4241,
  "oyal": 15668,
  "oyd": 49784,
  "oys": 25304,
  "oz": 18896,
  "p": 84,
  "pa": 36036,
  "pan": 47824,
  "par": 14000,
  "part": 22921,
  "pe": 4828,
  "ped": 12572,
  "pen": 6882,
  "per": 3292,
  "perial": 39948,
  "peror": 33566,
  "pet": 48235,
  "ph": 4423,
  "phas": 48952,
  "phia": 43435,
  "phy": 38695,
  "ping": 32919,
  "pl": 3632,
  "play": 18600,
  "ple": 9545,
  "plement": 31386,
  "ples": 30091,
  "ploy": 15181,
  "ply": 24329,
  "po": 30024,
  "point": 44805,
  "pool": 47770,
  "por": 9330,
  "porary": 27986,
  "poration": 28371,
  "port": 3517,
  "pp": 2633,
  "pped": 25629,
  "pper": 40574,
  "pr": 6799,
  "pre": 22826,
  "press": 21212,
  "preview": 45564,
  "pri": 47741,
  "pril": 10683,
  "prise": 43060,
  "pro": 9562,
  "proza": 48829,
  "ps": 13299,
  "pson": 47309,
  "pt": 3386,
  "ption": 24558,
  "pton": 45398,
  "put": 36668,
  "q": 85,
  "qu": 1823,
  "que": 11295,
  "quot": 8263,
  "r": 86,
  "ra": 1509,
  "rab": 18277,
  "ract": 11046,
  "rad": 5756,
  "rael": 24231,
  "raft": 11501,
  "rain": 17414,
  "raine": 40060,
  "ral": 5669,
  "ram": 4997,
  "ran": 2765,
  "rance": 37064,
  "ranch": 25564,
  "rand": 9042,
  "rang": 33752,
  "range": 34590,
  "rans": 5924,
  "rap": 21468,
  "raph": 10184,
  "raq": 45005,
  "ras": 22883,
  "rast": 32553,
  "rat": 37145,
  "rate": 32253,
  "rated": 20939,
  "ration": 13719,
  "rative": 26284,
  "rav": 18354,
  "ravda": 50103,
  "raw": 16982,
  "rawn": 43661,
  "ray": 17678,
  "raz": 21056,
  "rd": 24426,
  "re": 494,
  "read": 13706,
  "ready": 27835,
  "real": 40398,
  "ream": 17145,
  "reat": 5879,
  "rect": 42805,
  "red": 2646,
  "ree": 3776,
  "reek": 19939,
  "reen": 11190,
  "rees": 50011,
  "reet": 11856,
  "reg": 14598,
  "rel": 23685,
  "reland": 26709,
  "rem": 16033,
  "reme": 28370,
  "ren": 5611,
  "rence": 50125,
  "rench": 12811,
  "rent": 8598,
  "res": 1785,
  "resent": 7078,
  "resh": 40563,
  "resident": 10510,
  "resp": 31627,
  "respond": 36778,
  "ress": 4034,
  "ressed": 37058,
  "ression": 40300,
  "rest": 15630,
  "ret": 10736,
  "retary": 28432,
  "rew": 12484,
  "rey": 20162,
  "ri": 1566,
  "ria": 21991,
  "rial": 26197,
  "rian": 18786,
  "rib": 5652,
  "ribut": 14800,
  "ributed": 39626,
  "ribution": 30408,
  "ric": 3414,
  "rical": 42281,
  "rich": 30826,
  "rick": 16298,
  "ricket": 43801,
  "rics": 42834,
  "rict": 8017,
  "ricts": 47063,
  "ricult": 31489,
  "rid": 8441,
  "ridge": 14168,
  "rie": 44918,
  "ried": 36932,
  "rief": 31182,
  "riend": 13679,
  "ries": 14625,
  "rig": 27329,
  "right": 29136,
  "rim": 25503,
  "ring": 9876,
  "ript": 11375,
  "ription": 38612,
  "ris": 10101,
  "rison": 44564,
  "rist": 9222,
  "rit": 3355,
  "rix": 42257,
  "ro": 674,
  "road": 24819,
  "rog": 47340,
  "roid": 21305,
  "rol": 11556,
  "roll": 18929,
  "rolled": 37187,
  "rom": 1539,
  "rome": 39946,
  "ron": 7169,
  "rong": 36079,
  "ronic": 32672,
  "ront": 13947,
  "ronze": 48142,
  "room": 41931,
  "rop": 12104,
  "ror": 36257,
  "ros": 23319,
  "ross": 9749,
  "rote": 16233,
  "rough": 5359,
  "rought": 23615,
  "round": 7361,
  "roup": 11971,
  "rovers": 38567,
  "row": 11634,
  "rowd": 48152,
  "rown": 24882,
  "roy": 21254,
  "ru": 1572,
  "ruck": 38417,
  "ruct": 10046,
  "ruction": 15212,
  "rue": 12368,
  "rug": 15633,
  "rugg": 42075,
  "ruit": 46918,
  "rum": 28256,
  "rument": 39713,
  "run": 49891,
  "rupt": 38144,
  "rus": 24406,
  "rust": 21822,
  "ry": 3044,
  "rying": 29482,
  "ryst": 47438,
  "s": 87,
  "sc": 11611,
  "sch": 49979,
  "se": 2307,
  "see": 41734,
  "sel": 23847,
  "self": 15378,
  "selves": 31717,
  "sen": 34538,
  "sequ": 16935,
  "serv": 21690,
  "ses": 49015,
  "set": 38173,
  "sex": 49079,
  "sey": 41406,
  "sh": 6513,
  "ship": 25276,
  "shire": 23334,
  "side": 11700,
  "site": 33857,
  "sk": 20730,
  "ski": 44114,
  "sm": 37308,
  "so": 2643,
  "soft": 17835,
  "son": 6988,
  "sp": 7828,
  "sport": 45673,
  "ss": 4632,
  "st": 849,
  "stand": 47244,
  "standing": 31640,
  "stant": 37264,
  "star": 46751,
  "stein": 34618,
  "ster": 12382,
  "stit": 8245,
  "stitu": 41395,
  "stitut": 22003,
  "stitute": 17800,
  "stitution": 25633,
  "ston": 20913,
  "stone": 36566,
  "stra": 32663,
  "stream": 49276,
  "sw": 35805,
  "sy": 17358,
  "sych": 20648,
  "sylvania": 31803,
  "t": 88,
  "ta": 15746,
  "tain": 13508,
  "tained": 30405,
  "tainment": 38955,
  "tal": 14962,
  "te": 3838,
  "ted": 6580,
  "teen": 34168,
  "ten": 7161,
  "ter": 1084,
  "tern": 3866,
  "ternal": 31316,
  "ternational": 8461,
  "ternet": 27583,
  "ters": 5588,
  "th": 1418,
  "the": 9582,
  "ther": 2907,
  "thing": 35153,
  "thlet": 30971,
  "though": 11405,
  "thur": 42271,
  "ti": 17043,
  "ties": 35914,
  "til": 8013,
  "time": 19551,
  "ting": 9889,
  "tle": 10413,
  "to": 11874,
  "ton": 5811,
  "tr": 15589,
  "tra": 45357,
  "trl": 23942,
  "true": 16372,
  "ts": 5299,
  "tt": 4102,
  "ttp": 5320,
  "twitter": 32767,
  "ty": 8091,
  "u": 89,
  "ua": 7783,
  "ual": 5659,
  "ually": 8836,
  "uan": 33114,
  "uary": 9618,
  "uate": 46148,
  "ub": 2014,
  "ube": 15335,
  "ubl": 4299,
  "ublic": 11985,
  "ublin": 46904,
  "uc": 2772,
  "uccess": 48481,
  "uch": 4352,
  "uck": 16770,
  "ucky": 46655,
  "uct": 47461,
  "ud": 1892,
  "udd": 28709,
  "ude": 22492,
  "udget": 49878,
  "udi": 30940,
  "ue": 3028,
  "ued": 10163,
  "uel": 17563,
  "ues": 9260,
  "uf": 17402,
  "ufact": 25690,
  "uff": 12493,
  "ug": 4501,
  "uge": 27515,
  "ugg": 17891,
  "ugh": 4012,
  "ugust": 9797,
  "ui": 35815,
  "uing": 48668,
  "uit": 17266,
  "uj": 37655,
  "uk": 13620,
  "ul": 1297,
  "ula": 8330,
  "ular": 6076,
  "ulated": 30845,
  "ulation": 9684,
  "ulations": 37711,
  "ule": 26427,
  "ulf": 32099,
  "ull": 7983,
  "ully": 36607,
  "ulpt": 43015,
  "uls": 40940,
  "ult": 3565,
  "ulty": 47655,
  "um": 1456,
  "uma": 48986,
  "uman": 13572,
  "umb": 14707,
  "umber": 38570,
  "ume": 23923,
  "umed": 36384,
  "ument": 14162,
  "uments": 39240,
  "ummer": 15211,
  "umn": 27785,
  "ump": 21838,
  "un": 1239,
  "una": 41995,
  "unch": 42506,
  "und": 2383,
  "under": 4875,
  "undred": 36055,
  "une": 8118,
  "unes": 43475,
  "ung": 8795,
  "unic": 14234,
  "unicip": 18514,
  "unity": 28233,
  "unk": 23339,
  "unt": 19419,
  "unte": 42839,
  "up": 1836,
  "ur": 1019,
  "ura": 23495,
  "ural": 8726,
  "urance": 45660,
  "urb": 14539,
  "urban": 32280,
  "urch": 8238,
  "urd": 47019,
  "ure": 3039,
  "ured": 9962,
  "urer": 46292,
  "ures": 7765,
  "urg": 12160,
  "uries": 34429,
  "uring": 4278,
  "urity": 22241,
  "urn": 4721,
  "uro": 7458,
  "urs": 13563,
  "urt": 29949,
  "urther": 15799,
  "ury": 6955,
  "us": 1072,
  "usc": 41362,
  "use": 6028,
  "used": 18184,
  "useum": 17862,
  "ush": 14320,
  "usic": 7320,
  "usiness": 11657,
  "usion": 40654,
  "usp": 27658,
  "uss": 6743,
  "ust": 2716,
  "usta": 38072,
  "ut": 1171,
  "utch": 28728,
  "ute": 8196,
  "uten": 37305,
  "uter": 20855,
  "uters": 18625,
  "utes": 19605,
  "uth": 29020,
  "ution": 8479,
  "uts": 22547,
  "utt": 49832,
  "uture": 23273,
  "uty": 26933,
  "uv": 43119,
  "ux": 14634,
  "uz": 18212,
  "v": 90,
  "va": 27800,
  "val": 21199,
  "van": 40910,
  "ve": 7350,
  "ved": 8868,
  "vel": 4350,
  "velop": 7246,
  "velopment": 33856,
  "vement": 35319,
  "ven": 9426,
  "vent": 9638,
  "vention": 29485,
  "venue": 30847,
  "ver": 1419,
  "vers": 14323,
  "vert": 24580,
  "very": 7495,
  "ves": 14136,
  "vest": 31043,
  "view": 17918,
  "ville": 19928,
  "vin": 42228,
  "ving": 25695,
  "viron": 23012,
  "vironment": 24919,
  "vis": 35843,
  "vo": 35640,
  "w": 91,
  "wa": 34366,
  "wagen": 40731,
  "wan": 34868,
  "war": 33800,
  "ward": 5028,
  "wards": 11259,
  "ware": 19204,
  "water": 43154,
  "way": 5365,
  "ways": 18166,
  "we": 4585,
  "ween": 6069,
  "weet": 30084,
  "well": 27418,
  "wer": 27549,
  "west": 21931,
  "western": 43147,
  "wh": 17865,
  "where": 46755,
  "which": 40641,
  "wide": 33684,
  "win": 29044,
  "wing": 47704,
  "wise": 49936,
  "wit": 9485,
  "with": 38538,
  "witter": 12179,
  "wn": 4355,
  "wo": 3547,
  "wood": 18430,
  "work": 12477,
  "worth": 44833,
  "writ": 31226,
  "ww": 5297,
  "www": 11454,
  "x": 92,
  "xt": 21388,
  "y": 93,
  "ya": 17467,
  "yal": 42254,
  "yan": 33952,
  "yard": 35759,
  "yd": 15260,
  "ydney": 39987,
  "ydro": 38227,
  "ye": 25917,
  "year": 18831,
  "yer": 42422,
  "yes": 45844,
  "ying": 18971,
  "yl": 10596,
  "yle": 14048,
  "ylv": 27388,
  "ylvania": 30240,
  "ym": 9221,
  "yn": 9856,
  "ynam": 38287,
  "yo": 40615,
  "yp": 11761,
  "ype": 18877,
  "yr": 20384,
  "ys": 8437,
  "ysis": 31202,
  "yst": 6263,
  "ystem": 7277,
  "yt": 27943,
  "yth": 40360,
  "z": 94,
  "za": 16358,
  "ze": 13469,
  "zen": 45557,
  "zer": 24827,
  "zh": 41881,
  "zo": 39177,
  "zy": 41808,
  "zz": 48519,
  "{": 95,
  "|": 96,
  "}": 97,
  "}.": 44092,
  "~": 98,
  "¡": 99,
  "¢": 100,
  "£": 101,
  "¤": 102,
  "¥": 103,
  "¦": 104,
  "§": 105,
  "¨": 106,
  "©": 107,
  "ª": 108,
  "«": 109,
  "«É": 44581,
  "¬": 110,
  "®": 111,
  "¯": 112,
  "°": 113,
  "±": 114,
  "²": 115,
  "³": 116,
  "´": 117,
  "µ": 118,
  "¶": 119,
  "·": 120,
  "¸": 121,
  "¹": 122,
  "º": 123,
  "»": 124,
  "¼": 125,
  "½": 126,
  "¾": 127,
  "¿": 128,
  "À": 129,
  "Á": 130,
  "Â": 131,
  "Â©": 47605,
  "Â«": 471,
  "Â®": 40369,
  "Â°": 5448,
  "Â±": 39535,
  "Â²": 18679,
  "Â´": 44686,
  "Âµ": 15107,
  "Â·": 30453,
  "Â¸": 23916,
  "Â»": 470,
  "Â»!": 19461,
  "Â»\"": 49506,
  "Â»)": 9979,
  "Â»),": 12235,
  "Â»).": 11523,
  "Â»,": 910,
  "Â».": 861,
  "Â».[": 33280,
  "Â»:": 11593,
  "Â»;": 18130,
  "Â»?": 9519,
  "Â»[": 14944,
  "Â»âĢ¦": 17549,
  "ÂĢ": 30735,
  "Âģ": 30702,
  "ÂĤ": 26609,
  "Âł": 369,
  "Âł%": 24218,
  "Âł-": 9975,
  "Âł--": 40258,
  "Âł1": 36390,
  "Âł19": 48794,
  "Âł2": 46588,
  "Âł[": 47843,
  "Âłk": 23031,
  "Âłkm": 27427,
  "Âłm": 25950,
  "ÂłÂ«": 14993,
  "ÂłÂł": 1430,
  "ÂłÂłÂł": 11722,
  "ÂłÂłÂłÂł": 3540,
  "ÂłÂłÂłÂłÂł": 18903,
  "ÂłÂłÂłÂłÂłÂł": 24948,
  "ÂłÂłÂłÂłÂłÂłÂłÂł": 9194,
  "ÂłÂłÂłÂłÂłÂłÂłÂłÂłÂłÂłÂłÂłÂłÂłÂł": 23641,
  "ÂłÐ": 495,
  "ÂłÐ¡": 2648,
  "ÂłÐ¡Ð°Ð¼": 38998,
  "ÂłÐ¡Ðµ": 43885,
  "ÂłÐ¡ÐµÐ¹ÑĩÐ°Ñģ": 29650,
  "ÂłÐ¡Ðº": 37204,
  "ÂłÐ¡ÐºÐ¾": 47311,
  "ÂłÐ¡ÐºÐ¾Ð»ÑĮÐºÐ¾": 39782,
  "ÂłÐ¡Ð»ÑĥÑĪÐ°Ð¹": 40564,
  "ÂłÐ¡Ð¿Ð°ÑģÐ¸Ð±Ð¾": 18270,
  "ÂłÐ¢": 2187,
  "ÂłÐ¢Ð°Ðº": 7986,
  "ÂłÐ¢Ð°Ð¼": 36306,
  "ÂłÐ¢Ðµ": 14468,
  "ÂłÐ¢ÐµÐ±Ðµ": 26976,
  "ÂłÐ¢ÐµÐ¿ÐµÑĢÑĮ": 29889,
  "ÂłÐ¢Ð¾": 26998,
  "ÂłÐ¢Ð¾Ð³Ð´Ð°": 15718,
  "ÂłÐ¢Ð¾Ð»ÑĮÐºÐ¾": 26215,
  "ÂłÐ¢Ð¾ÑĩÐ½Ð¾": 48580,
  "ÂłÐ¢Ñĭ": 4438,
  "ÂłÐ£": 5396,
  "ÂłÐ¤": 20444,
  "ÂłÐ¥": 7031,
  "ÂłÐ¥Ð¾": 45951,
  "ÂłÐ¥Ð¾ÑĢÐ¾ÑĪÐ¾": 14085,
  "ÂłÐ¦": 48308,
  "ÂłÐ§": 3613,
  "ÂłÐ§ÐµÐ³Ð¾": 27973,
  "ÂłÐ§ÐµÑĢÑĤ": 44683,
  "ÂłÐ§ÑĤÐ¾": 4720,
  "ÂłÐ¨": 22844,
  "ÂłÐ¯": 2550,
  "ÂłÐ°": 39048,
  "ÂłÐ±": 19252,
  "ÂłÐ±Ñĭ": 13537,
  "ÂłÐ±ÑĭÐ»Ð¾": 43969,
  "ÂłÐ²": 5949,
  "ÂłÐ²ÑģÐµ": 25908,
  "ÂłÐ²Ñĭ": 20626,
  "ÂłÐ³": 3880,
  "ÂłÐ³Ð³": 25548,
  "ÂłÐ´": 10508,
  "ÂłÐ´ÑĢÑĥÐ³": 47965,
  "ÂłÐµ": 18000,
  "ÂłÐµÐ³Ð¾": 28190,
  "ÂłÐµÐµ": 47559,
  "ÂłÐ¶Ðµ": 16609,
  "ÂłÐ·": 28934,
  "ÂłÐ·Ð°": 18371,
  "ÂłÐ·Ð½Ð°": 47718,
  "ÂłÐ¸": 19673,
  "ÂłÐ¸Ð·": 46113,
  "ÂłÐº": 12415,
  "ÂłÐºÐ°": 33009,
  "ÂłÐºÐ°Ðº": 29998,
  "ÂłÐºÐ¾": 39284,
  "ÂłÐºÐ¾Ð½": 43092,
  "ÂłÐ»Ð¸": 28018,
  "ÂłÐ¼": 10338,
  "ÂłÐ¼ÐµÐ½Ñı": 31293,
  "ÂłÐ¼Ð¾": 45082,
  "ÂłÐ½": 46437,
  "ÂłÐ½Ð°": 11892,
  "ÂłÐ½Ð°Ñģ": 45833,
  "ÂłÐ½Ðµ": 11133,
  "ÂłÐ½ÐµÐ³Ð¾": 36464,
  "ÂłÐ½ÐµÐ¹": 49395,
  "ÂłÐ½Ð¸Ñħ": 40316,
  "ÂłÐ¾": 35122,
  "ÂłÐ¾Ð±": 30973,
  "ÂłÐ¾Ð´": 40573,
  "ÂłÐ¾Ð½": 31315,
  "ÂłÐ¾Ð½Ð°": 49237,
  "ÂłÐ¾ÑĤ": 23178,
  "ÂłÐ¿": 7532,
  "ÂłÐ¿Ð¾": 22353,
  "ÂłÐ¿Ð¾Ð´": 29005,
  "ÂłÐ¿Ð¾Ð»": 29404,
  "ÂłÐ¿ÑĢÐµÐ´": 48384,
  "ÂłÐ¿ÑĢÐ¸": 18977,
  "ÂłÐ¿ÑĢÐ¾": 27124,
  "ÂłÐĲ": 2371,
  "ÂłÐĲÐ³Ð°": 26992,
  "ÂłÐĲÑħ": 24487,
  "ÂłÐĳ": 5593,
  "ÂłÐĳÐ¾": 47983,
  "ÂłÐĳÑĭ": 42573,
  "ÂłÐĴ": 1995,
  "ÂłÐĴÐ°": 24707,
  "ÂłÐĴÐ°Ð¼": 34187,
  "ÂłÐĴÐµÑĢÐ½Ð¾": 49318,
  "ÂłÐĴÐ¸": 43918,
  "ÂłÐĴÐ¾": 27878,
  "ÂłÐĴÐ¾Ð·Ð¼Ð¾Ð¶Ð½Ð¾": 38636,
  "ÂłÐĴÐ¾ÑĤ": 8530,
  "ÂłÐĴÑģÐµ": 12767,
  "ÂłÐĴÑĭ": 6006,
  "ÂłÐĵ": 6306,
  "ÂłÐĵÐ´Ðµ": 21436,
  "ÂłÐĵÐ¾ÑģÐ¿Ð¾Ð´": 29492,
  "ÂłÐĵÐ¾ÑģÐ¿Ð¾Ð´Ð¸": 47809,
  "ÂłÐĶ": 2136,
  "ÂłÐĶÐ°": 3046,
  "ÂłÐĶÐ°Ð²Ð°Ð¹": 29567,
  "ÂłÐĶÐ°Ð¶Ðµ": 49373,
  "ÂłÐĶÐ»Ñı": 37104,
  "ÂłÐĶÐ¾": 36713,
  "ÂłÐĶÐ¾Ð±": 33779,
  "ÂłÐĶÑĥÐ¼Ð°Ñİ": 33613,
  "ÂłÐķ": 6386,
  "ÂłÐķÐ³Ð¾": 49954,
  "ÂłÐķÑģÐ»Ð¸": 11837,
  "ÂłÐķÑģÑĤÑĮ": 28576,
  "ÂłÐķÑīÐµ": 29148,
  "ÂłÐĸ": 19350,
  "ÂłÐĹ": 4647,
  "ÂłÐĹÐ°": 11107,
  "ÂłÐĹÐ°ÑĩÐµÐ¼": 23889,
  "ÂłÐĹÐ´ÐµÑģÑĮ": 36352,
  "ÂłÐĹÐ½Ð°": 11533,
  "ÂłÐĹÐ½Ð°ÐµÑĪÑĮ": 41092,
  "ÂłÐĹÐ½Ð°ÑĩÐ¸ÑĤ": 18589,
  "ÂłÐĹÐ½Ð°Ñİ": 42614,
  "ÂłÐĺ": 3682,
  "ÂłÐĺÐ´Ð¸": 48099,
  "ÂłÐĺÐ·": 19105,
  "ÂłÐĺÐ·Ð²Ð¸": 33761,
  "ÂłÐĺÐ¼ÐµÐ½Ð½Ð¾": 43489,
  "ÂłÐĺÐ½": 33400,
  "ÂłÐĺÑĤÐ°Ðº": 48100,
  "ÂłÐļ": 2613,
  "ÂłÐļÐ°": 28334,
  "ÂłÐļÐ°Ðº": 5646,
  "ÂłÐļÐ°ÐºÐ°Ñı": 42118,
  "ÂłÐļÐ°ÐºÐ¸Ðµ": 48899,
  "ÂłÐļÐ°ÐºÐ¾Ð¹": 35622,
  "ÂłÐļÐ¾Ð³Ð´Ð°": 23100,
  "ÂłÐļÐ¾Ð½ÐµÑĩÐ½Ð¾": 15451,
  "ÂłÐļÑĤÐ¾": 14907,
  "ÂłÐļÑĥÐ´Ð°": 30896,
  "ÂłÐĽ": 7226,
  "ÂłÐĽÐ°Ð´Ð½Ð¾": 18356,
  "ÂłÐĽÑİ": 37464,
  "ÂłÐľ": 2938,
  "ÂłÐľÐ°": 45819,
  "ÂłÐľÐµÐ½Ñı": 34771,
  "ÂłÐľÐ¸": 44048,
  "ÂłÐľÐ½Ðµ": 11866,
  "ÂłÐľÐ¾Ð¶ÐµÑĤ": 17184,
  "ÂłÐľÐ¾Ð¶Ð½Ð¾": 39691,
  "ÂłÐľÐ¾Ð¹": 44905,
  "ÂłÐľÑĭ": 10586,
  "ÂłÐĿ": 1389,
  "ÂłÐĿÐ°": 7215,
  "ÂłÐĿÐ°Ð²ÐµÑĢÐ½Ð¾Ðµ": 47820,
  "ÂłÐĿÐ°Ð´ÐµÑİÑģÑĮ": 44298,
  "ÂłÐĿÐ°Ð´Ð¾": 35179,
  "ÂłÐĿÐ°Ð¼": 38203,
  "ÂłÐĿÐµ": 3856,
  "ÂłÐĿÐµÑĤ": 5215,
  "ÂłÐĿÐµÑĥÐ¶ÐµÐ»Ð¸": 38965,
  "ÂłÐĿÐ¸": 13643,
  "ÂłÐĿÐ¸Ðº": 22416,
  "ÂłÐĿÐ¸ÐºÐ°Ðº": 49553,
  "ÂłÐĿÐ¸ÑĩÐµÐ³Ð¾": 17572,
  "ÂłÐĿÐ¾": 7449,
  "ÂłÐĿÑĥ": 4403,
  "ÂłÐŀ": 2779,
  "ÂłÐŀÐ±": 37152,
  "ÂłÐŀÐ´": 43000,
  "ÂłÐŀÐ¹": 36374,
  "ÂłÐŀÐ½": 10696,
  "ÂłÐŀÐ½Ð°": 18193,
  "ÂłÐŀÐ½Ð¸": 20985,
  "ÂłÐŀÑĤ": 11234,
  "ÂłÐŀÑĤÐºÑĥÐ´Ð°": 34441,
  "ÂłÐŀÑĤÐ»Ð¸ÑĩÐ½Ð¾": 45991,
  "ÂłÐŀÑħ": 45718,
  "ÂłÐŀÑĩÐµÐ½ÑĮ": 29038,
  "ÂłÐŁ": 2032,
  "ÂłÐŁÐµÑĢÐµ": 41095,
  "ÂłÐŁÐ¾": 11388,
  "ÂłÐŁÐ¾Ð´": 23719,
  "ÂłÐŁÐ¾Ð¶Ð°Ð»ÑĥÐ¹ÑģÑĤÐ°": 49071,
  "ÂłÐŁÐ¾Ð·": 43349,
  "ÂłÐŁÐ¾ÐºÐ°": 34251,
  "ÂłÐŁÐ¾Ð»": 43617,
  "ÂłÐŁÐ¾Ð¼": 37512,
  "ÂłÐŁÐ¾Ð½": 28569,
  "ÂłÐŁÐ¾Ð½ÑıÑĤÐ½Ð¾": 45753,
  "ÂłÐŁÐ¾Ñģ": 21280,
  "ÂłÐŁÐ¾ÑĤÐ¾Ð¼Ñĥ": 31347,
  "ÂłÐŁÐ¾ÑħÐ¾Ð¶Ðµ": 49471,
  "ÂłÐŁÐ¾ÑĩÐµÐ¼Ñĥ": 13692,
  "ÂłÐŁÑĢÐ°Ð²": 30400,
  "ÂłÐŁÑĢÐ°Ð²Ð´Ð°": 48983,
  "ÂłÐŁÑĢÐµ": 40972,
  "ÂłÐŁÑĢÐµÐ´": 47128,
  "ÂłÐŁÑĢÐ¸": 13527,
  "ÂłÐŁÑĢÐ¸Ð²ÐµÑĤ": 32436,
  "ÂłÐŁÑĢÐ¾": 17945,
  "ÂłÐŁÑĢÐ¾ÑģÑĤÐ¸": 48341,
  "ÂłÐŁÑĢÐ¾ÑģÑĤÐ¸ÑĤÐµ": 41060,
  "ÂłÐŁÑĢÐ¾ÑģÑĤÐ¾": 46298,
  "ÂłÐŁÑĢÐ¾ÑĪÑĥ": 45091,
  "ÂłÐŁÑĥ": 34957,
  "ÂłÐŁÑĥÑģÑĤÑĮ": 49444,
  "ÂłÐł": 7141,
  "ÂłÐłÐ°": 44287,
  "ÂłÐłÐ°Ð·": 16984,
  "ÂłÐłÐ°Ð·Ð²Ðµ": 37871,
  "ÂłÐłÐ°Ð·ÑĥÐ¼ÐµÐµÑĤÑģÑı": 45871,
  "ÂłÐłÐ°Ñģ": 48812,
  "ÂłÐŃ": 4051,
  "ÂłÐŃÐ¹": 27836,
  "ÂłÐŃÑĤÐ¾": 5238,
  "ÂłÑĢÐ°Ð·": 30606,
  "ÂłÑĢÑĥ": 48053,
  "ÂłÑģ": 5955,
  "ÂłÑģÐ°Ð¼": 30171,
  "ÂłÑģÐ²Ð¾": 37342,
  "ÂłÑģÐµ": 30372,
  "ÂłÑģÐ¼": 34872,
  "ÂłÑģÐ¿": 43856,
  "ÂłÑģÑĤ": 36876,
  "ÂłÑĤ": 16156,
  "ÂłÑĤÐ°Ðº": 23491,
  "ÂłÑĤÐµ": 29122,
  "ÂłÑĤÐ¾": 38525,
  "ÂłÑĤÐ¾Ð»ÑĮÐºÐ¾": 50117,
  "ÂłÑĤÐ¾Ð¼": 34321,
  "ÂłÑĤÑĭ": 26076,
  "ÂłÑĤÑĭÑģ": 42083,
  "ÂłÑĥ": 16856,
  "ÂłÑĩ": 42757,
  "ÂłÑĩÑĤÐ¾": 30797,
  "ÂłÑį": 15026,
  "ÂłÑįÑĤÐ¾": 25635,
  "ÂłÑįÑĤÐ¾Ð¼": 39226,
  "ÂłÑı": 21264,
  "ÂłâĢ¦": 31557,
  "ÂłâĢĵ": 805,
  "ÂłâĢĶ": 621,
  "ÂłĊ": 26823,
  "ÂłĠ": 41509,
  "ÂŃ": 4072,
  "Ã": 132,
  "Ã¡": 32406,
  "Ã¤": 42503,
  "Ã©": 16196,
  "Ã³": 34681,
  "Ã¶": 49136,
  "Ã¸": 46806,
  "Ã¼": 38513,
  "ÃĹ": 36884,
  "Ä": 133,
  "ÄĲ": 4235,
  "ÄĲÄ": 18501,
  "ÄĲÄ¾": 21601,
  "ÄĲÅ": 8813,
  "ÄĲÅ¥": 34601,
  "ÄĲÅ¾": 18064,
  "ÄĲÅ¾Åĥ": 49636,
  "ÄĲÅŁ": 49993,
  "Å": 134,
  "ÅĤ": 22957,
  "Åĥ": 8515,
  "Æ": 135,
  "Ç": 136,
  "È": 137,
  "É": 138,
  "É¢": 35072,
  "É¢É": 46653,
  "É¨": 22284,
  "É¨É": 28486,
  "Éļ": 27553,
  "ÉļÉ": 33333,
  "ÉŁ": 26592,
  "ÉŁÉ": 33755,
  "Ê": 139,
  "Ë": 140,
  "ËĽ": 35355,
  "ËĿ": 26239,
  "Ì": 141,
  "Ì§": 27719,
  "Ì¨": 40015,
  "ÌĢ": 23118,
  "Ìģ": 2442,
  "Ìģ,": 41049,
  "ÌĤ": 26543,
  "Ìĥ": 27934,
  "ÌĦ": 14645,
  "ÌĨ": 34586,
  "ÌĪ": 9612,
  "ÌĮ": 19241,
  "Í": 142,
  "Î": 143,
  "Î±": 27618,
  "Îµ": 43608,
  "Î¹": 35790,
  "Î½": 34286,
  "Î¿": 28534,
  "Ï": 144,
  "Ïģ": 41188,
  "ÏĤ": 40029,
  "Ïĥ": 49445,
  "ÏĦ": 35890,
  "Ð": 145,
  "Ð¡": 563,
  "Ð¡Ð": 10489,
  "Ð¡Ð¡": 2359,
  "Ð¡Ð¡Ðł": 3656,
  "Ð¡Ð¢": 5100,
  "Ð¡Ð¢Ð¬": 24646,
  "Ð¡Ð¢ÐĲ": 36662,
  "Ð¡Ð¢ÐĴ": 33970,
  "Ð¡Ð¢ÐĴÐŀ": 46656,
  "Ð¡Ð¢Ðĺ": 28471,
  "Ð¡Ð¢Ðŀ": 27899,
  "Ð¡Ð£": 15683,
  "Ð¡Ð¨ÐĲ": 26404,
  "Ð¡Ð¬": 31925,
  "Ð¡Ð¯": 25506,
  "Ð¡Ð°": 13637,
  "Ð¡Ð°Ð¹": 45106,
  "Ð¡Ð°Ð¼": 10269,
  "Ð¡Ð°Ð¼Ð¾Ðµ": 36170,
  "Ð¡Ð°Ð½": 23739,
  "Ð¡Ð°Ð½ÐºÑĤ": 40683,
  "Ð¡Ð°ÑĢÐ°": 46169,
  "Ð¡Ð°Ñħ": 45295,
  "Ð¡Ð²ÐµÑĤ": 29691,
  "Ð¡Ð²Ð¾Ð±Ð¾Ð´": 42598,
  "Ð¡Ð²Ð¾Ð±Ð¾Ð´Ð°": 46130,
  "Ð¡Ðµ": 11545,
  "Ð¡ÐµÐ²": 37460,
  "Ð¡ÐµÐ²ÐµÑĢ": 19386,
  "Ð¡ÐµÐ³Ð¾Ð´Ð½Ñı": 15883,
  "Ð¡ÐµÐ¹ÑĩÐ°Ñģ": 17603,
  "Ð¡ÐµÐº": 43039,
  "Ð¡ÐµÐ¼": 23134,
  "Ð¡ÐµÑĢ": 16415,
  "Ð¡ÐµÑĢÐ³ÐµÐ¹": 35671,
  "Ð¡ÐµÑĢÐ´": 46491,
  "Ð¡ÐµÑĢÐ´ÑĨÐµ": 48957,
  "Ð¡ÐµÑĢÐµ": 45390,
  "Ð¡Ð¸": 14237,
  "Ð¡Ð¸Ð±Ð¸ÑĢ": 42938,
  "Ð¡Ð¸Ð´": 44558,
  "Ð¡Ð¸Ð¼": 37196,
  "Ð¡Ð¸Ð½": 41820,
  "Ð¡Ð¸ÑģÑĤ": 35240,
  "Ð¡Ð¸ÑģÑĤÐµÐ¼Ð°": 49313,
  "Ð¡Ð¸ÑĤÐ¸": 34519,
  "Ð¡Ðº": 20424,
  "Ð¡ÐºÐ°Ð·": 45176,
  "Ð¡ÐºÐ¾": 30688,
  "Ð¡ÐºÐ¾Ð»ÑĮÐºÐ¾": 38687,
  "Ð¡Ð»Ð°Ð²": 46143,
  "Ð¡Ð»Ð°Ð²Ð°": 47944,
  "Ð¡Ð»ÐµÐ´": 19571,
  "Ð¡Ð»Ð¾Ð²": 35362,
  "Ð¡Ð»Ð¾Ð²Ð°": 42652,
  "Ð¡Ð¼": 31570,
  "Ð¡Ð½Ð°ÑĩÐ°Ð»Ð°": 37182,
  "Ð¡Ð½Ð¾Ð²Ð°": 42388,
  "Ð¡Ð¾": 10245,
  "Ð¡Ð¾Ð±": 27024,
  "Ð¡Ð¾Ð²": 21751,
  "Ð¡Ð¾Ð²ÐµÑĤ": 20651,
  "Ð¡Ð¾Ð²ÐµÑĤÑģÐºÐ¸Ð¹": 36361,
  "Ð¡Ð¾Ð²ÑĢÐµÐ¼ÐµÐ½": 37666,
  "Ð¡Ð¾Ð³Ð»Ð°ÑģÐ½Ð¾": 40058,
  "Ð¡Ð¾Ð·": 44511,
  "Ð¡Ð¾Ðº": 44641,
  "Ð¡Ð¾Ð»": 21383,
  "Ð¡Ð¾Ð»Ð½ÑĨÐµ": 49996,
  "Ð¡Ð¾ÑĤ": 42945,
  "Ð¡Ð¾ÑİÐ·": 28517,
  "Ð¡Ð¿": 18854,
  "Ð¡Ð¿Ð°ÑĢÑĤÐ°Ðº": 13467,
  "Ð¡Ð¿Ð°ÑĢÑĤÐ°ÐºÐ°": 28345,
  "Ð¡Ð¿Ð°ÑģÐ¸Ð±Ð¾": 25444,
  "Ð¡Ð¿Ðµ": 41472,
  "Ð¡Ð¿Ð¾ÑĢÑĤ": 24659,
  "Ð¡Ð¿ÑĢÐ°Ð²": 36767,
  "Ð¡Ð¿ÑĢÐ°Ð²ÐµÐ´Ð»Ð¸": 44280,
  "Ð¡Ð¿Ñĥ": 38077,
  "Ð¡Ð¿ÑĥÑģÑĤÑı": 45827,
  "Ð¡ÐĤ": 22309,
  "Ð¡Ðĥ": 26051,
  "Ð¡Ðı": 46120,
  "Ð¡ÐĲ": 14302,
  "Ð¡Ðķ": 10869,
  "Ð¡Ðĺ": 33715,
  "Ð¡Ðļ": 4395,
  "Ð¡ÐļÐĲ": 11356,
  "Ð¡ÐļÐĴÐĲ": 15300,
  "Ð¡ÐļÐĺÐĻ": 35547,
  "Ð¡ÐļÐŀ": 17550,
  "Ð¡Ðľ": 48090,
  "Ð¡ÐĿ": 26448,
  "Ð¡Ðŀ": 14808,
  "Ð¡ÐŁ": 10852,
  "Ð¡Ðł": 10800,
  "Ð¡ÑĢÐµÐ´Ð¸": 43563,
  "Ð¡ÑĤ": 9676,
  "Ð¡ÑĤÐ°": 11844,
  "Ð¡ÑĤÐ°Ð»": 41981,
  "Ð¡ÑĤÐ°ÑĢ": 34539,
  "Ð¡ÑĤÐ°ÑĢÐ¸Ðº": 41719,
  "Ð¡ÑĤÐ¾": 24645,
  "Ð¡ÑĤÑĢÐ°": 21292,
  "Ð¡ÑĤÑĢÐ°Ð½": 35569,
  "Ð¡ÑĤÑĢÐ¾Ð¹": 41113,
  "Ð¡Ñĥ": 38453,
  "Ð¡ÑĥÐ´": 24569,
  "Ð¡Ñĭ": 47091,
  "Ð¡Ñĵ": 45775,
  "Ð¢": 789,
  "Ð¢Ð¡": 15132,
  "Ð¢Ð£": 20284,
  "Ð¢Ð«": 40922,
  "Ð¢Ð¬": 24974,
  "Ð¢Ð°": 19022,
  "Ð¢Ð°Ð¹": 26053,
  "Ð¢Ð°Ðº": 5673,
  "Ð¢Ð°ÐºÐ¸Ð¼": 33745,
  "Ð¢Ð°Ð¼": 15995,
  "Ð¢Ð°Ð½": 47621,
  "Ð¢Ðµ": 8756,
  "Ð¢ÐµÐ»Ðµ": 41825,
  "Ð¢ÐµÐ¼": 18771,
  "Ð¢ÐµÐ¿ÐµÑĢÑĮ": 13456,
  "Ð¢ÐµÑĢ": 35459,
  "Ð¢ÐµÑħ": 27728,
  "Ð¢Ð¸": 27623,
  "Ð¢Ð¸Ñħ": 34123,
  "Ð¢Ð¾": 16745,
  "Ð¢Ð¾Ð³Ð´Ð°": 23698,
  "Ð¢Ð¾Ð»": 32910,
  "Ð¢Ð¾Ð»ÑĮÐºÐ¾": 16464,
  "Ð¢Ð¾Ð¼": 28801,
  "Ð¢Ð¾ÑĢ": 23555,
  "Ð¢Ð¾ÑĢÐ¿ÐµÐ´Ð¾": 45565,
  "Ð¢Ð¾ÑĤ": 21037,
  "Ð¢ÐĲ": 14437,
  "Ð¢ÐĲÐ¡Ð¡": 14149,
  "Ð¢Ðĳ": 22254,
  "Ð¢ÐĴ": 18579,
  "Ð¢Ðķ": 19203,
  "Ð¢ÐķÐł": 42060,
  "Ð¢Ðĺ": 16407,
  "Ð¢Ðļ": 42849,
  "Ð¢Ðŀ": 3805,
  "Ð¢ÐŁ": 11201,
  "Ð¢Ðł": 17316,
  "Ð¢ÐłÐļ": 46748,
  "Ð¢ÑĢÐ°Ð½": 22670,
  "Ð¢ÑĢÐ°Ð½Ñģ": 47162,
  "Ð¢ÑĢÐ°Ð½ÑģÐ°ÑįÑĢÐ¾": 45256,
  "Ð¢ÑĢÐµ": 49938,
  "Ð¢ÑĢÐ¸": 20377,
  "Ð¢ÑĢÐ¾": 42992,
  "Ð¢Ñĥ": 25117,
  "Ð¢ÑĥÑĢ": 34058,
  "Ð¢ÑĥÑĤ": 18810,
  "Ð¢Ñĭ": 8804,
  "Ð¢Ñı": 50246,
  "Ð£": 1140,
  "Ð£Ð¶": 49408,
  "Ð£Ð¶Ðµ": 25095,
  "Ð£ÐºÑĢ": 41525,
  "Ð£ÐºÑĢÐ°": 14745,
  "Ð£ÐºÑĢÐ°Ð¸Ð½Ð°": 23441,
  "Ð£Ð¼": 48391,
  "Ð£ÐĿ": 39628,
  "Ð£ÑĢÐ°": 44897,
  "Ð£ÑĢÐ°Ð»": 28516,
  "Ð£ÑĤ": 33252,
  "Ð£ÑĤÑĢÐ¾Ð¼": 41066,
  "Ð¤": 1182,
  "Ð¤Ð¡": 49959,
  "Ð¤Ð¡Ðł": 20219,
  "Ð¤Ð£": 47691,
  "Ð¤Ð°": 41469,
  "Ð¤ÐµÑĢ": 45652,
  "Ð¤Ð¸": 30731,
  "Ð¤Ð¸Ð»Ð¸": 49669,
  "Ð¤Ð¾Ð½ÑĤÐ°Ð½": 16486,
  "Ð¤Ð¾Ð½ÑĤÐ°Ð½ÐºÐ°": 43358,
  "Ð¤Ð¾Ð½ÑĤÐ°Ð½ÐºÐµ": 33264,
  "Ð¤Ð¾Ð½ÑĤÐ°Ð½ÐºÐ¸": 38644,
  "Ð¤Ð¾ÑĢ": 25053,
  "Ð¤Ð¾ÑĢÐ¼Ñĥ": 47963,
  "Ð¤Ð¾ÑĤÐ¾": 37294,
  "Ð¤ÐĲ": 13255,
  "Ð¤ÐĹ": 22226,
  "Ð¤Ðĺ": 34791,
  "Ð¤Ðļ": 35755,
  "Ð¤Ðŀ": 18175,
  "Ð¤Ðł": 37416,
  "Ð¤ÑĢÐ°Ð½": 14792,
  "Ð¤ÑĢÐ°Ð½ÑĨÐ¸": 35261,
  "Ð¤ÑĢÐ°Ð½ÑĨÐ¸ÑģÐºÐ¾": 37272,
  "Ð¥": 1916,
  "Ð¥Ð°": 25664,
  "Ð¥Ð°ÑĢ": 41954,
  "Ð¥Ð¸": 50088,
  "Ð¥Ð¾": 33734,
  "Ð¥Ð¾Ð»": 35613,
  "Ð¥Ð¾ÑĢÐ¾": 43332,
  "Ð¥Ð¾ÑĢÐ¾ÑĪÐ¾": 26767,
  "Ð¥Ð¾ÑĤ": 48466,
  "Ð¥Ð¾ÑĤÑı": 25413,
  "Ð¥ÐĲ": 31821,
  "Ð¥ÐĽ": 14933,
  "Ð¥Ðŀ": 21995,
  "Ð¦": 3127,
  "Ð¦ÐµÐ½ÑĤ": 18418,
  "Ð¦ÐµÐ½ÑĤÑĢ": 28180,
  "Ð¦ÐĲ": 41726,
  "Ð¦ÐĺÐ¯": 41982,
  "Ð§": 1659,
  "Ð§Ð¡": 11313,
  "Ð§Ð°": 24785,
  "Ð§ÐµÐ»Ð¾Ð²ÐµÐº": 24461,
  "Ð§ÐµÐ»ÑģÐ¸": 36796,
  "Ð§ÐµÐ¼": 24686,
  "Ð§ÐµÑĢ": 15164,
  "Ð§ÐµÑĢÐµÐ·": 14934,
  "Ð§ÐĲ": 32130,
  "Ð§Ðķ": 21556,
  "Ð§Ðĺ": 46826,
  "Ð§ÑĤÐ¾": 5801,
  "Ð§ÑĤÐ¾Ð±Ñĭ": 22975,
  "Ð¨": 1464,
  "Ð¨Ð°": 49239,
  "Ð¨Ð°ÑĢ": 48404,
  "Ð¨Ð°Ñħ": 35807,
  "Ð¨Ð¸": 40838,
  "Ð¨Ðº": 40512,
  "Ð¨ÐĲ": 2049,
  "Ð¨Ðķ": 41927,
  "Ð¨Ðĺ": 48137,
  "Ð©": 11699,
  "Ð©Ðķ": 43144,
  "Ðª": 38505,
  "Ð«": 4229,
  "Ð¬": 3999,
  "Ð®": 4298,
  "Ð®Ð²ÐµÐ½": 48334,
  "Ð¯": 1358,
  "Ð¯Ð½": 29464,
  "Ð°": 264,
  "Ð°Ð°": 18586,
  "Ð°Ð±": 2851,
  "Ð°Ð²": 1083,
  "Ð°Ð²ÐºÐ°Ð·": 24813,
  "Ð°Ð²Ð»Ð¾Ð²": 30004,
  "Ð°Ð²Ð½Ð¾": 49116,
  "Ð°Ð²Ð¾Ðº": 25563,
  "Ð°Ð²ÑĤÐ¾Ð±": 35124,
  "Ð°Ð²ÑĤÐ¾Ð¼": 27050,
  "Ð°Ð²ÑĤÑĢÐ°": 27461,
  "Ð°Ð³": 1225,
  "Ð°Ð³Ð°": 2563,
  "Ð°Ð³Ð°Ð½": 7716,
  "Ð°Ð³Ð¸": 6486,
  "Ð°Ð³Ð½Ð¸ÑĤ": 24361,
  "Ð°Ð³Ð½Ð¾ÑģÑĤÐ¸": 34935,
  "Ð°Ð´": 1117,
  "Ð°Ð´Ð°": 11437,
  "Ð°Ð´Ðµ": 23842,
  "Ð°Ð´Ð¶Ð¸": 15405,
  "Ð°Ð´Ð½Ð¾": 4061,
  "Ð°Ð´Ñĥ": 29149,
  "Ð°Ð´Ñĭ": 15189,
  "Ð°ÐµÑĤ": 22331,
  "Ð°Ð·": 604,
  "Ð°Ð·Ðµ": 45169,
  "Ð°Ð·ÐµÐ»ÑĮ": 34722,
  "Ð°Ð·Ð¸": 41908,
  "Ð°Ð·Ð¸Ð°ÑĤ": 45189,
  "Ð°Ð·Ñĭ": 14850,
  "Ð°Ð¹": 686,
  "Ð°Ð¹Ð»Ð¾Ð²": 7442,
  "Ð°Ð¹ÑĤÐµ": 6767,
  "Ð°Ð¹ÑĤÐµÑģÑĮ": 18099,
  "Ð°Ðº": 333,
  "Ð°ÐºÐ°": 3174,
  "Ð°ÐºÐ°Ð¼Ð¸": 45785,
  "Ð°ÐºÐ°ÑĤÐ°ÑģÑĤÑĢÐ¾": 48013,
  "Ð°ÐºÐ°ÑĪÐ²Ð¸Ð»Ð¸": 33234,
  "Ð°ÐºÐµ": 21607,
  "Ð°ÐºÐ¸": 3588,
  "Ð°ÐºÐ¸Ð¸": 27195,
  "Ð°ÐºÐ¾": 32606,
  "Ð°ÐºÐ¾Ð²": 3930,
  "Ð°ÐºÐ¾Ð²Ð°": 12568,
  "Ð°ÐºÐ¾Ð¼": 7165,
  "Ð°ÐºÐ¾Ð½": 6037,
  "Ð°ÐºÑģ": 2275,
  "Ð°ÐºÑģÐ¸Ð¼": 3074,
  "Ð°ÐºÑĥ": 4548,
  "Ð°ÐºÑĨÐ¸Ñı": 21638,
  "Ð°Ð»": 300,
  "Ð°Ð»Ð°": 455,
  "Ð°Ð»Ð°Ð¹": 15754,
  "Ð°Ð»Ð°Ð¼": 18433,
  "Ð°Ð»Ð°Ð¼Ð¸": 17436,
  "Ð°Ð»Ð°Ð½ÑģÐ¸": 31017,
  "Ð°Ð»Ð°ÑģÑĮ": 977,
  "Ð°Ð»Ð°ÑĤ": 12680,
  "Ð°Ð»Ð°Ñħ": 12536,
  "Ð°Ð»Ð°Ñı": 21537,
  "Ð°Ð»Ð´": 35736,
  "Ð°Ð»Ðµ": 962,
  "Ð°Ð»ÐµÐµ": 7144,
  "Ð°Ð»ÐµÐ¹": 10283,
  "Ð°Ð»ÐµÐºÐ°": 19523,
  "Ð°Ð»ÐµÐºÐ¾": 8443,
  "Ð°Ð»ÐµÐºÑĥ": 12728,
  "Ð°Ð»ÐµÐ½": 15764,
  "Ð°Ð»ÐµÑĤ": 42366,
  "Ð°Ð»ÐµÑĨ": 37899,
  "Ð°Ð»Ð¸": 414,
  "Ð°Ð»Ð¸Ð±ÐµÑĢ": 45374,
  "Ð°Ð»Ð¸Ð·": 2935,
  "Ð°Ð»Ð¸Ð·Ð°": 7679,
  "Ð°Ð»Ð¸Ð·Ð°ÑĨÐ¸Ð¸": 10414,
  "Ð°Ð»Ð¸Ð·Ð°ÑĨÐ¸Ñİ": 32015,
  "Ð°Ð»Ð¸Ð·Ð°ÑĨÐ¸Ñı": 17204,
  "Ð°Ð»Ð¸Ð·Ð¸": 7429,
  "Ð°Ð»Ð¸Ð·Ð¼": 13126,
  "Ð°Ð»Ð¸Ð·Ð¼Ð°": 13411,
  "Ð°Ð»Ð¸Ð·Ð¼Ð¾Ð¼": 48482,
  "Ð°Ð»Ð¸Ð·Ð¾Ð²": 24055,
  "Ð°Ð»Ð¸Ð·Ñĭ": 37958,
  "Ð°Ð»Ð¸Ð¸": 22793,
  "Ð°Ð»Ð¸Ð¹": 11831,
  "Ð°Ð»Ð¸Ð½": 6599,
  "Ð°Ð»Ð¸Ð½Ð°": 8769,
  "Ð°Ð»Ð¸Ð¿": 31709,
  "Ð°Ð»Ð¸ÑģÑĤ": 26608,
  "Ð°Ð»Ð¸ÑģÑĤÐ¸": 12252,
  "Ð°Ð»Ð¸ÑģÑĤÐ¾Ð²": 20994,
  "Ð°Ð»Ð¸ÑģÑĤÑĭ": 28086,
  "Ð°Ð»Ð¸ÑģÑĮ": 887,
  "Ð°Ð»Ð¸ÑĤÐµÑĤ": 47547,
  "Ð°Ð»Ð¸ÑĤÑĮ": 13091,
  "Ð°Ð»Ð¸Ñı": 21143,
  "Ð°Ð»ÐºÐ°": 20746,
  "Ð°Ð»ÐºÐ¸": 11518,
  "Ð°Ð»ÐºÐ¾Ð³": 45351,
  "Ð°Ð»ÐºÑĥ": 33727,
  "Ð°Ð»Ð»": 19609,
  "Ð°Ð»Ð»Ð¸": 20385,
  "Ð°Ð»Ð»ÑĥÑĢ": 33284,
  "Ð°Ð»Ð¾": 576,
  "Ð°Ð»Ð¾Ð²": 2516,
  "Ð°Ð»Ð¾Ð²Ð°": 36484,
  "Ð°Ð»Ð¾Ð³": 14101,
  "Ð°Ð»Ð¾Ð¼": 5325,
  "Ð°Ð»Ð¾ÑģÑĮ": 862,
  "Ð°Ð»ÑģÑı": 709,
  "Ð°Ð»Ñĥ": 1918,
  "Ð°Ð»ÑĥÐ±Ðµ": 26710,
  "Ð°Ð»ÑĥÐ¹": 3107,
  "Ð°Ð»Ñĭ": 2664,
  "Ð°Ð»ÑĮ": 433,
  "Ð°Ð»ÑĮÐ²Ð°": 25805,
  "Ð°Ð»ÑĮÐ´": 17403,
  "Ð°Ð»ÑĮÐ´Ð°": 35109,
  "Ð°Ð»ÑĮÐ½Ð°": 19055,
  "Ð°Ð»ÑĮÐ½Ð°Ñı": 3050,
  "Ð°Ð»ÑĮÐ½Ð¸Ðº": 14969,
  "Ð°Ð»ÑĮÐ½Ð¾": 1398,
  "Ð°Ð»ÑĮÐ½Ð¾Ð³Ð¾": 2009,
  "Ð°Ð»ÑĮÐ½Ð¾Ðµ": 2837,
  "Ð°Ð»ÑĮÐ½Ð¾Ð¹": 1809,
  "Ð°Ð»ÑĮÐ½Ð¾Ð¼": 4357,
  "Ð°Ð»ÑĮÐ½Ð¾Ð¼Ñĥ": 9885,
  "Ð°Ð»ÑĮÐ½Ð¾ÑģÑĤÐ¸": 6239,
  "Ð°Ð»ÑĮÐ½Ð¾ÑģÑĤÑĮ": 6321,
  "Ð°Ð»ÑĮÐ½Ð¾ÑģÑĤÑĮÑİ": 19212,
  "Ð°Ð»ÑĮÐ½ÑĥÑİ": 4314,
  "Ð°Ð»ÑĮÐ½Ñĭ": 21029,
  "Ð°Ð»ÑĮÐ½ÑĭÐµ": 1924,
  "Ð°Ð»ÑĮÐ½ÑĭÐ¹": 2110,
  "Ð°Ð»ÑĮÐ½ÑĭÐ¼": 3276,
  "Ð°Ð»ÑĮÐ½ÑĭÐ¼Ð¸": 5925,
  "Ð°Ð»ÑĮÐ½ÑĭÑħ": 1901,
  "Ð°Ð»ÑĮÑĤÐ¸": 33453,
  "Ð°Ð»ÑĮÑĨÐ°": 46022,
  "Ð°Ð»ÑĮÑĨÐµ": 31178,
  "Ð°Ð»ÑĮÑĩÐ¸Ðº": 28925,
  "Ð°Ð»ÑĮÑĪÐµ": 7202,
  "Ð°Ð»ÑĮÑİ": 36590,
  "Ð°Ð»ÑĮÑı": 38304,
  "Ð°Ð»ÑĮÑıÐ½": 6679,
  "Ð°Ð»Ñı": 12169,
  "Ð°Ð»ÑıÐ¼Ð¸": 45133,
  "Ð°Ð»Ñĳ": 39621,
  "Ð°Ð»ÑĳÐºÑĥ": 48560,
  "Ð°Ð¼": 395,
  "Ð°Ð¼Ð°": 2707,
  "Ð°Ð¼Ð±": 18113,
  "Ð°Ð¼Ð±Ð»ÐµÐ¸": 40614,
  "Ð°Ð¼Ðµ": 22297,
  "Ð°Ð¼ÐµÐ½": 17220,
  "Ð°Ð¼ÐµÑĢÐ¸": 13559,
  "Ð°Ð¼ÐµÑĢÐ¸ÐºÐ°Ð½": 14210,
  "Ð°Ð¼ÐµÑĤ": 5160,
  "Ð°Ð¼Ð¸": 1134,
  "Ð°Ð¼Ð¸Ð»ÑĮ": 28236,
  "Ð°Ð¼Ð¸Ð½": 40444,
  "Ð°Ð¼Ñĥ": 34972,
  "Ð°Ð¼Ñĭ": 19678,
  "Ð°Ð¼ÑıÑĤ": 16081,
  "Ð°Ð½": 363,
  "Ð°Ð½Ð°": 2334,
  "Ð°Ð½Ð°Ð»": 25293,
  "Ð°Ð½Ð°Ð»Ð¸Ð·Ð¸": 21050,
  "Ð°Ð½Ð°Ð»Ð¸ÑĤÐ¸ÑĩÐµÑģÐº": 49235,
  "Ð°Ð½Ð°Ð¼": 37595,
  "Ð°Ð½Ð°Ð¼Ð¸": 35576,
  "Ð°Ð½Ð³": 6808,
  "Ð°Ð½Ð³ÐµÐ»ÑĮ": 18105,
  "Ð°Ð½Ð³Ð»": 25685,
  "Ð°Ð½Ð³Ð»Ð¸Ð¹": 25333,
  "Ð°Ð½Ð³Ð»Ð¸Ð¹ÑģÐºÐ¸": 32350,
  "Ð°Ð½Ð´": 1191,
  "Ð°Ð½Ð´Ð°": 31379,
  "Ð°Ð½Ð´ÐµÑĢ": 27647,
  "Ð°Ð½Ð´Ð¾Ð¹": 41926,
  "Ð°Ð½Ð´ÑĢ": 17571,
  "Ð°Ð½Ð´ÑĢÐ°": 19270,
  "Ð°Ð½Ðµ": 4172,
  "Ð°Ð½Ð¸": 9977,
  "Ð°Ð½Ð¸Ð½": 40726,
  "Ð°Ð½Ðº": 2430,
  "Ð°Ð½ÐºÐ°": 8112,
  "Ð°Ð½ÐºÐµ": 40542,
  "Ð°Ð½ÐºÐ¸": 22963,
  "Ð°Ð½ÐºÑĤ": 5225,
  "Ð°Ð½ÐºÑĥ": 34379,
  "Ð°Ð½ÐºÑĨÐ¸Ð¾Ð½Ð¸": 41016,
  "Ð°Ð½Ð½Ð°": 10374,
  "Ð°Ð½Ð½Ð°Ñı": 5103,
  "Ð°Ð½Ð½Ð¾": 8634,
  "Ð°Ð½Ð½Ð¾Ð³Ð¾": 5540,
  "Ð°Ð½Ð½Ð¾Ðµ": 5460,
  "Ð°Ð½Ð½Ð¾Ð¹": 4068,
  "Ð°Ð½Ð½Ð¾Ð¼": 12223,
  "Ð°Ð½Ð½Ð¾Ð¼Ñĥ": 17152,
  "Ð°Ð½Ð½Ð¾ÑģÑĤÐ¸": 20813,
  "Ð°Ð½Ð½Ð¾ÑģÑĤÑĮ": 17227,
  "Ð°Ð½Ð½ÑĥÑİ": 7539,
  "Ð°Ð½Ð½Ñĭ": 44533,
  "Ð°Ð½Ð½ÑĭÐµ": 2906,
  "Ð°Ð½Ð½ÑĭÐ¹": 3359,
  "Ð°Ð½Ð½ÑĭÐ¼": 6279,
  "Ð°Ð½Ð½ÑĭÐ¼Ð¸": 9471,
  "Ð°Ð½Ð½ÑĭÑħ": 3314,
  "Ð°Ð½Ð¾": 15573,
  "Ð°Ð½Ð¾Ð²": 4083,
  "Ð°Ð½Ð¾Ð²Ð°": 23427,
  "Ð°Ð½Ð¾Ð²Ð¸Ñĩ": 50113,
  "Ð°Ð½Ð¾Ð¹": 23939,
  "Ð°Ð½Ð¾Ð¼": 8676,
  "Ð°Ð½Ñģ": 5158,
  "Ð°Ð½ÑģÐ°": 19240,
  "Ð°Ð½ÑģÐ¸": 16860,
  "Ð°Ð½ÑģÐºÐ°Ñı": 31756,
  "Ð°Ð½ÑģÐºÐ¸Ðµ": 36952,
  "Ð°Ð½ÑģÐºÐ¸Ð¹": 14508,
  "Ð°Ð½ÑģÐºÐ¸Ñħ": 31549,
  "Ð°Ð½ÑģÐºÐ¾Ð³Ð¾": 13104,
  "Ð°Ð½ÑģÐºÐ¾Ð¹": 13496,
  "Ð°Ð½ÑģÐºÐ¾Ð¼": 35374,
  "Ð°Ð½ÑĤ": 2128,
  "Ð°Ð½ÑĤÐ°": 3150,
  "Ð°Ð½ÑĤÐ°Ð¼Ð¸": 35537,
  "Ð°Ð½ÑĤÐµ": 48143,
  "Ð°Ð½ÑĤÐ¸": 21608,
  "Ð°Ð½ÑĤÐ¸Ð¹": 23117,
  "Ð°Ð½ÑĤÐ¾Ð²": 13752,
  "Ð°Ð½ÑĤÐ¾Ð¼": 17733,
  "Ð°Ð½ÑĤÑĥ": 27120,
  "Ð°Ð½ÑĤÑĭ": 11098,
  "Ð°Ð½Ñĥ": 5123,
  "Ð°Ð½ÑĥÐ½Ðµ": 18636,
  "Ð°Ð½Ñħ": 38255,
  "Ð°Ð½ÑĨÐµÐ²": 34041,
  "Ð°Ð½ÑĨÑĭ": 35036,
  "Ð°Ð½ÑĩÐ¸": 7195,
  "Ð°Ð½Ñĭ": 12841,
  "Ð°Ð½ÑĮ": 4920,
  "Ð°Ð½ÑĮÐµ": 20350,
  "Ð°Ð½ÑĮÐºÐ°": 27337,
  "Ð°Ð½ÑĮÑı": 28168,
  "Ð°Ð½Ñı": 28930,
  "Ð°Ð¾": 38411,
  "Ð°Ð¿": 9317,
  "Ð°Ð¿Ð°": 36142,
  "Ð°ÑĢ": 441,
  "Ð°ÑĢÐ°": 2025,
  "Ð°ÑĢÐ°Ñħ": 34046,
  "Ð°ÑĢÐ´": 9180,
  "Ð°ÑĢÐ´Ð°": 21282,
  "Ð°ÑĢÐµ": 10521,
  "Ð°ÑĢÐµÐ²": 42932,
  "Ð°ÑĢÐ¸": 1394,
  "Ð°ÑĢÐ¸Ð¹": 38197,
  "Ð°ÑĢÐ¸Ð½": 23882,
  "Ð°ÑĢÐº": 13419,
  "Ð°ÑĢÐºÐ°": 29898,
  "Ð°ÑĢÐºÐ¸": 28232,
  "Ð°ÑĢÐ¼ÐµÐ¹": 27829,
  "Ð°ÑĢÐ¾": 31637,
  "Ð°ÑĢÐ¾Ð²": 4929,
  "Ð°ÑĢÐ¾Ð²Ð°": 46404,
  "Ð°ÑĢÐ¾Ð´": 14897,
  "Ð°ÑĢÐ¾Ð´ÐµÐ¹": 40640,
  "Ð°ÑĢÐ¾Ðº": 40508,
  "Ð°ÑĢÐ¾Ð¼": 32662,
  "Ð°ÑĢÑĤ": 21259,
  "Ð°ÑĢÑĤÐ°": 9906,
  "Ð°ÑĢÑĥ": 36525,
  "Ð°ÑĢÑħ": 14348,
  "Ð°ÑĢÑħÐ°": 22804,
  "Ð°ÑĢÑĭ": 12646,
  "Ð°ÑĢÑĮ": 5203,
  "Ð°ÑĢÑĮÐ¸": 27054,
  "Ð°ÑĢÑı": 20525,
  "Ð°Ñģ": 562,
  "Ð°ÑģÐ°": 44930,
  "Ð°ÑģÑģ": 4069,
  "Ð°ÑģÑģÐ°": 3904,
  "Ð°ÑģÑģÐ°Ð¶Ð¸": 5205,
  "Ð°ÑģÑģÐµÐ¹Ð½": 39974,
  "Ð°ÑģÑģÐ¸": 18440,
  "Ð°ÑģÑĪÑĤÐ°Ð±": 29620,
  "Ð°ÑģÑĭ": 23262,
  "Ð°ÑĤ": 766,
  "Ð°ÑĤÐ°": 3997,
  "Ð°ÑĤÐµÐ»ÐµÐ¹": 28350,
  "Ð°ÑĤÐµÐ»Ð¸": 27459,
  "Ð°ÑĤÐµÐ»Ñı": 39251,
  "Ð°ÑĤÐµÐ¼": 4197,
  "Ð°ÑĤÐ¸": 3653,
  "Ð°ÑĤÐ¾Ð²": 31700,
  "Ð°ÑĤÐ¾Ð³Ð¾": 48522,
  "Ð°ÑĤÐ¾Ð¹": 48265,
  "Ð°ÑĤÐ¾Ð¼": 28279,
  "Ð°ÑĤÑģÑı": 49870,
  "Ð°ÑĤÑĭ": 32811,
  "Ð°ÑĤÑĮ": 2237,
  "Ð°ÑĦ": 26799,
  "Ð°ÑĦÑĢÐ¸ÐºÐ°Ð½": 49674,
  "Ð°Ñħ": 1408,
  "Ð°ÑħÐ°": 44193,
  "Ð°ÑħÐ°ÑĢ": 9853,
  "Ð°ÑĨÐ¸Ð¸": 15418,
  "Ð°ÑİÑĤ": 48888,
  "Ð°Ñı": 525,
  "Ð°ÑıÐ½": 42205,
  "Ð°ÑıÑģÑĮ": 6686,
  "Ð±": 296,
  "Ð±Ð°": 807,
  "Ð±Ð°Ð±": 29494,
  "Ð±Ð°Ð²": 4622,
  "Ð±Ð°Ð´": 28547,
  "Ð±Ð°ÐµÐ²": 29903,
  "Ð±Ð°ÐµÐ²Ð°": 44076,
  "Ð±Ð°Ð¹": 12538,
  "Ð±Ð°Ð¹ÐºÐ°Ð»ÑĮ": 32951,
  "Ð±Ð°Ðº": 27109,
  "Ð±Ð°Ð»": 8262,
  "Ð±Ð°Ð¼": 41460,
  "Ð±Ð°Ð¼Ð¸": 11569,
  "Ð±Ð°Ð½": 6838,
  "Ð±Ð°Ð½Ð°": 26604,
  "Ð±Ð°Ð½Ðº": 19602,
  "Ð±Ð°Ð½ÐºÐ°": 24634,
  "Ð±Ð°ÑĢ": 6329,
  "Ð±Ð°ÑĢÐ°": 26512,
  "Ð±Ð°ÑĢÐ³Ð¾": 44887,
  "Ð±Ð°ÑĢÐ´Ð¸": 11911,
  "Ð±Ð°ÑĢÐ¸": 25939,
  "Ð±Ð°ÑĢÐ¸ÑĤ": 29661,
  "Ð±Ð°Ñģ": 8016,
  "Ð±Ð°ÑģÐ°": 45639,
  "Ð±Ð°ÑĤ": 14916,
  "Ð±Ð°ÑĤÐ°": 39482,
  "Ð±Ð°ÑĤÑĭ": 4021,
  "Ð±Ð°ÑĤÑĮ": 29977,
  "Ð±Ð°Ñħ": 10925,
  "Ð±Ðµ": 636,
  "Ð±ÐµÐ´": 11488,
  "Ð±ÐµÐ¶": 3464,
  "Ð±ÐµÐ¶Ð°Ð»": 16472,
  "Ð±ÐµÐ¶Ð°Ð»Ð°": 13982,
  "Ð±ÐµÐ¶Ð°Ð»Ð¸": 20517,
  "Ð±ÐµÐ·": 10004,
  "Ð±ÐµÐ·Ð¾Ð¿Ð°ÑģÐ½Ð¾ÑģÑĤÐ¸": 45930,
  "Ð±ÐµÐ¹": 33653,
  "Ð±ÐµÐº": 10810,
  "Ð±ÐµÐºÐ°": 34126,
  "Ð±ÐµÐºÐ¸": 19642,
  "Ð±ÐµÐ»": 8216,
  "Ð±ÐµÐ»Ð¸": 11102,
  "Ð±ÐµÐ»ÑĭÐµ": 46796,
  "Ð±ÐµÐ»ÑĭÑħ": 44606,
  "Ð±ÐµÐ»ÑĮ": 4938,
  "Ð±ÐµÐ½": 12548,
  "Ð±ÐµÑĢ": 3418,
  "Ð±ÐµÑĢÐ°": 23331,
  "Ð±ÐµÑĢÐ³": 10057,
  "Ð±ÐµÑĢÐ³Ð°": 21145,
  "Ð±ÐµÑĢÐµ": 20912,
  "Ð±ÐµÑĢÐ¸": 15306,
  "Ð±ÐµÑĢÐ¸ÑĤÐµ": 19054,
  "Ð±ÐµÑĢÑĤ": 17039,
  "Ð±ÐµÑĢÑĤÐ°": 50065,
  "Ð±ÐµÑĢÑĥÑĤ": 43404,
  "Ð±ÐµÑģ": 24833,
  "Ð±ÐµÑģÐ¿": 40659,
  "Ð±ÐµÑĤ": 14009,
  "Ð±ÐµÑĨ": 34870,
  "Ð±Ð¸": 818,
  "Ð±Ð¸Ð¸": 17621,
  "Ð±Ð¸Ð¹": 16103,
  "Ð±Ð¸Ðº": 38498,
  "Ð±Ð¸Ð»": 5442,
  "Ð±Ð¸Ð»Ð°": 7954,
  "Ð±Ð¸Ð»Ð°ÑģÑĮ": 27460,
  "Ð±Ð¸Ð»Ð¸": 3590,
  "Ð±Ð¸Ð»Ð¸ÑģÑĮ": 48650,
  "Ð±Ð¸Ð»ÑĮ": 8288,
  "Ð±Ð¸Ð»ÑĮÐ½Ð¾": 38899,
  "Ð±Ð¸Ð½": 5745,
  "Ð±Ð¸Ð½Ð°": 8114,
  "Ð±Ð¸Ð½ÐµÐ·": 29806,
  "Ð±Ð¸Ð½Ñĭ": 18325,
  "Ð±Ð¸Ð¾": 22942,
  "Ð±Ð¸ÑĢ": 6005,
  "Ð±Ð¸ÑĢÐ°": 2040,
  "Ð±Ð¸ÑĢÐ°ÑĤÑĮ": 12331,
  "Ð±Ð¸ÑĢÐ°Ñı": 14191,
  "Ð±Ð¸ÑĢÐ¸Ð½": 22566,
  "Ð±Ð¸ÑĢÑĮ": 44480,
  "Ð±Ð¸Ñģ": 48294,
  "Ð±Ð¸ÑĤ": 3736,
  "Ð±Ð¸ÑĤÑĭ": 41291,
  "Ð±Ð¸ÑĤÑĮ": 11455,
  "Ð±Ð¸ÑĤÑĮÑģÑı": 13603,
  "Ð±Ð¸ÑīÐµ": 42270,
  "Ð±Ð¸Ñı": 29177,
  "Ð±Ð»": 7839,
  "Ð±Ð»Ð°": 24398,
  "Ð±Ð»ÐµÐ¼": 31623,
  "Ð±Ð»Ð¸": 1908,
  "Ð±Ð»Ð¸Ð·": 23943,
  "Ð±Ð»Ð¸Ð·Ð¸": 13445,
  "Ð±Ð»Ð¸ÑĨÐ°": 41081,
  "Ð±Ð»Ð¾Ðº": 50143,
  "Ð±Ð»Ð¾ÐºÐ°": 35980,
  "Ð±Ð»Ð¾ÐºÐ¾": 24504,
  "Ð±Ð»ÑĮ": 18612,
  "Ð±Ð»Ñİ": 12195,
  "Ð±Ð»ÑİÐ´": 22425,
  "Ð±Ð»Ñı": 24245,
  "Ð±Ð½": 28208,
  "Ð±Ð¾": 612,
  "Ð±Ð¾Ð²": 3951,
  "Ð±Ð¾Ð²ÑĮ": 13253,
  "Ð±Ð¾Ð´": 32827,
  "Ð±Ð¾Ðµ": 6526,
  "Ð±Ð¾Ð¹": 3376,
  "Ð±Ð¾Ðº": 14754,
  "Ð±Ð¾Ð»": 11142,
  "Ð±Ð¾Ð»ÐµÐµ": 32278,
  "Ð±Ð¾Ð»Ð¸": 16355,
  "Ð±Ð¾Ð»ÑĮ": 24356,
  "Ð±Ð¾Ð»ÑĮÑĪÐµ": 41287,
  "Ð±Ð¾Ð»ÑĮÑĪÐ¾Ð¹": 45186,
  "Ð±Ð¾Ð¼": 5620,
  "Ð±Ð¾Ð½": 24172,
  "Ð±Ð¾Ð½Ð°": 48237,
  "Ð±Ð¾ÑĢ": 1184,
  "Ð±Ð¾ÑĢÐ°": 3346,
  "Ð±Ð¾ÑĢÐ³": 46154,
  "Ð±Ð¾ÑĢÐµ": 22339,
  "Ð±Ð¾ÑĢÐ¸": 28945,
  "Ð±Ð¾ÑĢÐ½": 38364,
  "Ð±Ð¾ÑĢÐ¾": 15873,
  "Ð±Ð¾ÑĢÑĥ": 33925,
  "Ð±Ð¾ÑĢÑĭ": 44227,
  "Ð±Ð¾ÑĤ": 736,
  "Ð±Ð¾ÑĤÐ°": 1094,
  "Ð±Ð¾Ñı": 39657,
  "Ð±ÑĢ": 32796,
  "Ð±ÑĢÐ°": 1522,
  "Ð±ÑĢÐ°Ð½": 6896,
  "Ð±ÑĢÐ°Ñģ": 13090,
  "Ð±ÑĢÐ°ÑĤÑĮ": 33360,
  "Ð±ÑĢÐµ": 3491,
  "Ð±ÑĢÐµÐ¶": 20993,
  "Ð±ÑĢÐ¸": 8946,
  "Ð±ÑĢÐ¸Ð´Ð¶": 48780,
  "Ð±ÑĢÐ¾": 14066,
  "Ð±ÑĢÐ¾Ð´": 42829,
  "Ð±ÑĢÑĥ": 44349,
  "Ð±ÑĢÑĮ": 6893,
  "Ð±ÑĢÑı": 1301,
  "Ð±Ñĥ": 1219,
  "Ð±ÑĥÐ´": 13027,
  "Ð±ÑĥÐ´ÐµÑĤ": 50168,
  "Ð±ÑĥÐ´ÑĮ": 1691,
  "Ð±ÑĥÐ¶Ð´": 49030,
  "Ð±ÑĥÐº": 17577,
  "Ð±ÑĥÐºÐ°": 45057,
  "Ð±ÑĥÐºÐµ": 36284,
  "Ð±ÑĥÐ»": 35031,
  "Ð±ÑĥÐ»Ð°": 26868,
  "Ð±ÑĥÐ»Ðµ": 41971,
  "Ð±ÑĥÐ½": 16384,
  "Ð±ÑĥÑĢ": 4196,
  "Ð±ÑĥÑĢÐ³": 7474,
  "Ð±ÑĥÑĢÐ³Ð°": 16968,
  "Ð±ÑĥÑĢÐ³Ðµ": 16368,
  "Ð±ÑĥÑģ": 36483,
  "Ð±ÑĥÑħ": 50170,
  "Ð±Ñĭ": 919,
  "Ð±ÑĭÐ²": 32911,
  "Ð±ÑĭÐ»": 18047,
  "Ð±ÑĭÐ»Ð°": 38627,
  "Ð±ÑĭÐ»Ð¸": 30011,
  "Ð±ÑĭÐ¼": 20560,
  "Ð±ÑĭÐ¼Ð¸": 44540,
  "Ð±ÑĭÑĤÑĮ": 35131,
  "Ð±ÑĮÑİ": 32103,
  "Ð±Ñİ": 8853,
  "Ð±ÑİÐ´Ð¶ÐµÑĤ": 47044,
  "Ð±ÑİÑĢÐ¾": 26289,
  "Ð±Ñı": 704,
  "Ð±ÑıÑĤÐ°": 16346,
  "Ð²": 275,
  "Ð²Ð°": 342,
  "Ð²Ð°Ð²": 14242,
  "Ð²Ð°Ð²ÑĪÐµÐ³Ð¾": 47301,
  "Ð²Ð°Ð²ÑĪÐ¸Ðµ": 34672,
  "Ð²Ð°Ð²ÑĪÐ¸Ð¹": 27780,
  "Ð²Ð°Ð²ÑĪÐ¸Ð¹ÑģÑı": 44547,
  "Ð²Ð°Ð²ÑĪÐ¸ÑģÑĮ": 38007,
  "Ð²Ð°Ð²ÑĪÐ¸Ñħ": 33780,
  "Ð²Ð°Ð´": 7088,
  "Ð²Ð°ÐµÐ¼": 2484,
  "Ð²Ð°ÐµÐ¼Ð°Ñı": 27707,
  "Ð²Ð°ÐµÐ¼Ð¾Ð³Ð¾": 16667,
  "Ð²Ð°ÐµÐ¼Ð¾Ðµ": 34813,
  "Ð²Ð°ÐµÐ¼Ð¾Ð¹": 18898,
  "Ð²Ð°ÐµÐ¼Ð¾ÑģÑĤÐ¸": 27815,
  "Ð²Ð°ÐµÐ¼Ð¾ÑģÑĤÑĮ": 42049,
  "Ð²Ð°ÐµÐ¼ÑģÑı": 22496,
  "Ð²Ð°ÐµÐ¼ÑĥÑİ": 44823,
  "Ð²Ð°ÐµÐ¼ÑĭÐµ": 16134,
  "Ð²Ð°ÐµÐ¼ÑĭÐ¹": 15424,
  "Ð²Ð°ÐµÐ¼ÑĭÐ¼": 26584,
  "Ð²Ð°ÐµÐ¼ÑĭÑħ": 11881,
  "Ð²Ð°ÐµÑĤ": 1211,
  "Ð²Ð°ÐµÑĤÐµ": 11470,
  "Ð²Ð°ÐµÑĤÐµÑģÑĮ": 37243,
  "Ð²Ð°ÐµÑĤÑģÑı": 1812,
  "Ð²Ð°ÐµÑĪÑĮ": 12131,
  "Ð²Ð°ÐµÑĪÑĮÑģÑı": 34280,
  "Ð²Ð°Ð¶Ð°": 12247,
  "Ð²Ð°Ð¶Ð½Ð¾": 16053,
  "Ð²Ð°Ð¸": 37837,
  "Ð²Ð°Ð¹": 2880,
  "Ð²Ð°Ð¹ÑģÑı": 16370,
  "Ð²Ð°Ð¹ÑĤÐµ": 4236,
  "Ð²Ð°Ð¹ÑĤÐµÑģÑĮ": 18387,
  "Ð²Ð°Ðº": 39421,
  "Ð²Ð°Ð»": 937,
  "Ð²Ð°Ð»Ð°": 1909,
  "Ð²Ð°Ð»Ð°ÑģÑĮ": 3645,
  "Ð²Ð°Ð»Ðµ": 9419,
  "Ð²Ð°Ð»Ð¸": 1166,
  "Ð²Ð°Ð»Ð¸Ð»ÑģÑı": 29217,
  "Ð²Ð°Ð»Ð¸ÑģÑĮ": 2919,
  "Ð²Ð°Ð»Ð¸ÑĤÑĮ": 42368,
  "Ð²Ð°Ð»Ð¸ÑĦÐ¸ÑĨÐ¸": 23305,
  "Ð²Ð°Ð»Ð¾": 4262,
  "Ð²Ð°Ð»Ð¾Ð²": 36355,
  "Ð²Ð°Ð»Ð¾Ð¼": 27927,
  "Ð²Ð°Ð»Ð¾ÑģÑĮ": 4688,
  "Ð²Ð°Ð»ÑģÑı": 2195,
  "Ð²Ð°Ð»Ñĭ": 43262,
  "Ð²Ð°Ð»ÑĮ": 8614,
  "Ð²Ð°Ð»ÑĮÐ´": 44024,
  "Ð²Ð°Ð»ÑĮÐ½Ð¾": 30065,
  "Ð²Ð°Ð»Ñı": 13786,
  "Ð²Ð°Ð¼": 15169,
  "Ð²Ð°Ð¼Ð¸": 7895,
  "Ð²Ð°Ð½": 1736,
  "Ð²Ð°Ð½Ð°": 10516,
  "Ð²Ð°Ð½Ð³": 15256,
  "Ð²Ð°Ð½Ðµ": 14605,
  "Ð²Ð°Ð½Ð¸": 19849,
  "Ð²Ð°Ð½Ð¸Ðµ": 2235,
  "Ð²Ð°Ð½Ð¸ÐµÐ¼": 12270,
  "Ð²Ð°Ð½Ð¸Ð¸": 9702,
  "Ð²Ð°Ð½Ð¸Ð¹": 9174,
  "Ð²Ð°Ð½Ð¸Ñİ": 10985,
  "Ð²Ð°Ð½Ð¸Ñı": 2150,
  "Ð²Ð°Ð½Ð½Ð¾Ð³Ð¾": 48038,
  "Ð²Ð°Ð½Ð½Ð¾Ð¹": 42198,
  "Ð²Ð°Ð½Ð½ÑĭÐµ": 33807,
  "Ð²Ð°Ð½Ð½ÑĭÐ¹": 29599,
  "Ð²Ð°Ð½Ð½ÑĭÑħ": 41080,
  "Ð²Ð°Ð½Ð½Ñı": 47653,
  "Ð²Ð°Ð½Ð¾": 20620,
  "Ð²Ð°Ð½Ð¾Ð²": 31924,
  "Ð²Ð°Ð½Ñĭ": 15844,
  "Ð²Ð°Ð½ÑĮ": 29365,
  "Ð²Ð°ÑĢ": 1353,
  "Ð²Ð°ÑĢÐ°": 20720,
  "Ð²Ð°ÑĢÐ´": 12954,
  "Ð²Ð°ÑĢÐ´Ð°": 28772,
  "Ð²Ð°ÑĢÐ´ÐµÐ¹": 26902,
  "Ð²Ð°ÑĢÐ¸": 8470,
  "Ð²Ð°ÑĢÐ¸Ð¸": 44145,
  "Ð²Ð°ÑĢÐ¸ÑĤÐµÐ»ÑĮ": 30485,
  "Ð²Ð°ÑĢÑĤ": 50134,
  "Ð²Ð°ÑĢÑĤÐ¸ÑĢ": 24027,
  "Ð²Ð°ÑĢÑĮ": 11904,
  "Ð²Ð°Ñģ": 26124,
  "Ð²Ð°ÑĤ": 10347,
  "Ð²Ð°ÑĤÐ°": 36291,
  "Ð²Ð°ÑĤÐµÐ»ÑĮ": 19639,
  "Ð²Ð°ÑĤÐ¸": 15150,
  "Ð²Ð°ÑĤÐ¸ÑĤ": 19405,
  "Ð²Ð°ÑĤÑĮ": 874,
  "Ð²Ð°ÑĤÑĮÑģÑı": 1954,
  "Ð²Ð°Ñħ": 11975,
  "Ð²Ð°ÑĪ": 34226,
  "Ð²Ð°ÑĪÐµÐ¼Ñĥ": 36868,
  "Ð²Ð°ÑĪÐ¸": 49731,
  "Ð²Ð°Ñİ": 3797,
  "Ð²Ð°ÑİÑģÑĮ": 9854,
  "Ð²Ð°ÑİÑĤ": 1867,
  "Ð²Ð°ÑİÑĤÑģÑı": 3236,
  "Ð²Ð°ÑİÑīÐ°Ñı": 19382,
  "Ð²Ð°ÑİÑīÐµ": 31046,
  "Ð²Ð°ÑİÑīÐµÐ³Ð¾": 16764,
  "Ð²Ð°ÑİÑīÐµÐµ": 17740,
  "Ð²Ð°ÑİÑīÐµÐ¹": 15305,
  "Ð²Ð°ÑİÑīÐµÐ¹ÑģÑı": 49057,
  "Ð²Ð°ÑİÑīÐ¸Ðµ": 10307,
  "Ð²Ð°ÑİÑīÐ¸ÐµÑģÑı": 36557,
  "Ð²Ð°ÑİÑīÐ¸Ð¹": 10977,
  "Ð²Ð°ÑİÑīÐ¸Ð¹ÑģÑı": 42337,
  "Ð²Ð°ÑİÑīÐ¸Ð¼": 17938,
  "Ð²Ð°ÑİÑīÐ¸Ð¼Ð¸": 30892,
  "Ð²Ð°ÑİÑīÐ¸Ñħ": 9991,
  "Ð²Ð°ÑİÑīÐ¸ÑħÑģÑı": 36411,
  "Ð²Ð°ÑİÑīÑĥÑİ": 31423,
  "Ð²Ð°Ñı": 1063,
  "Ð²Ð°ÑıÑģÑĮ": 3712,
  "Ð²Ðµ": 546,
  "Ð²ÐµÐ´": 1037,
  "Ð²ÐµÐ´ÐµÐ½Ð¸Ðµ": 14131,
  "Ð²ÐµÐ´ÐµÐ½Ð¸Ñı": 13172,
  "Ð²ÐµÐ´Ð¸ÑĤÐµ": 22202,
  "Ð²ÐµÐ´Ð¾Ð¼": 5089,
  "Ð²ÐµÐ´ÑĮ": 34236,
  "Ð²ÐµÐµ": 15197,
  "Ð²ÐµÐ¶": 11832,
  "Ð²ÐµÐ·": 24651,
  "Ð²ÐµÐ·Ð´": 46408,
  "Ð²ÐµÐ¹": 4596,
  "Ð²ÐµÐºÐ°": 37111,
  "Ð²ÐµÐ»": 4873,
  "Ð²ÐµÐ»Ð°": 20490,
  "Ð²ÐµÐ»Ð¸": 5162,
  "Ð²ÐµÐ»Ð¾": 33971,
  "Ð²ÐµÐ»ÑĮ": 29088,
  "Ð²ÐµÐ½": 4574,
  "Ð²ÐµÐ½Ð°": 43777,
  "Ð²ÐµÐ½Ð½Ð¾": 42744,
  "Ð²ÐµÐ½ÑĤÐ°": 23984,
  "Ð²ÐµÐ½ÑĨÐ¸Ð¸": 30062,
  "Ð²ÐµÑĢ": 551,
  "Ð²ÐµÑĢÐ°": 12754,
  "Ð²ÐµÑĢÐµ": 21508,
  "Ð²ÐµÑĢÐ¶ÐµÐ½": 20567,
  "Ð²ÐµÑĢÐ¸": 10591,
  "Ð²ÐµÑĢÐ½Ð¾Ðµ": 23374,
  "Ð²ÐµÑĢÐ¾": 43043,
  "Ð²ÐµÑĢÑģ": 2892,
  "Ð²ÐµÑĢÑħ": 2473,
  "Ð²ÐµÑĢÑħÑĥ": 18588,
  "Ð²ÐµÑĢÑĮ": 12249,
  "Ð²ÐµÑģ": 7121,
  "Ð²ÐµÑģÐµÐ»": 35700,
  "Ð²ÐµÑģÑĤ": 1246,
  "Ð²ÐµÑģÑĤÐ¸": 2074,
  "Ð²ÐµÑģÑĤÐ¸ÑģÑĮ": 43467,
  "Ð²ÐµÑĤ": 577,
  "Ð²ÐµÑĤÐ°": 7629,
  "Ð²ÐµÑĤÐµ": 30594,
  "Ð²ÐµÑĤÑģÑı": 35320,
  "Ð²ÐµÑĤÑĭ": 27057,
  "Ð²ÐµÑĨ": 10237,
  "Ð²ÐµÑĪÑĮ": 25028,
  "Ð²Ð·": 19051,
  "Ð²Ð¸": 420,
  "Ð²Ð¸Ð°": 8270,
  "Ð²Ð¸Ð²": 14222,
  "Ð²Ð¸Ð²Ð°Ð»": 25579,
  "Ð²Ð¸Ð³": 5721,
  "Ð²Ð¸Ð³Ð°": 2480,
  "Ð²Ð¸Ð³Ð°Ð»Ð¸ÑģÑĮ": 35616,
  "Ð²Ð¸Ð³Ð°Ð»ÑģÑı": 44152,
  "Ð²Ð¸Ð´": 1517,
  "Ð²Ð¸Ð´Ð°": 18645,
  "Ð²Ð¸Ð´ÐµÐ²": 48813,
  "Ð²Ð¸Ð´ÐµÑĤ": 14332,
  "Ð²Ð¸Ð´ÐµÑĤÐµÐ»ÑĮ": 16235,
  "Ð²Ð¸Ð´Ð¸Ð¼": 6613,
  "Ð²Ð¸Ð´Ð¸Ð¼Ð¾Ð¼Ñĥ": 12593,
  "Ð²Ð¸Ð´Ð½Ð¾": 13063,
  "Ð²Ð¸Ð´Ñĥ": 12999,
  "Ð²Ð¸Ðµ": 15716,
  "Ð²Ð¸ÐµÐ¼": 33163,
  "Ð²Ð¸ÐµÐ½ÐºÐ¾": 42545,
  "Ð²Ð¸Ð¶": 1384,
  "Ð²Ð¸Ð¶ÐµÐ½Ð¸Ðµ": 20671,
  "Ð²Ð¸Ð¶ÐµÐ½Ð¸Ñı": 30584,
  "Ð²Ð¸Ð¶Ñĥ": 15648,
  "Ð²Ð¸Ð·": 4248,
  "Ð²Ð¸Ð·Ð¸Ð¾Ð½": 16726,
  "Ð²Ð¸Ð¸": 7776,
  "Ð²Ð¸Ð¹": 14054,
  "Ð²Ð¸Ðº": 17861,
  "Ð²Ð¸ÐºÐ°": 37838,
  "Ð²Ð¸ÐºÐ¸": 27628,
  "Ð²Ð¸Ð»": 10669,
  "Ð²Ð¸Ð»Ð°": 3601,
  "Ð²Ð¸Ð»Ð°ÑģÑĮ": 14509,
  "Ð²Ð¸Ð»Ð¸": 4207,
  "Ð²Ð¸Ð»Ð¸ÑģÑĮ": 15077,
  "Ð²Ð¸Ð»Ð»": 47772,
  "Ð²Ð¸Ð»ÑģÑı": 40257,
  "Ð²Ð¸Ð»ÑĮ": 18095,
  "Ð²Ð¸Ð½": 2106,
  "Ð²Ð¸Ð½Ð°": 12046,
  "Ð²Ð¸Ð½Ðµ": 40063,
  "Ð²Ð¸Ð½Ñĥ": 4844,
  "Ð²Ð¸Ð½ÑĥÐ»": 15138,
  "Ð²Ð¸Ð½ÑĥÑĤ": 18526,
  "Ð²Ð¸Ð½Ñĭ": 40009,
  "Ð²Ð¸ÑĢ": 44093,
  "Ð²Ð¸ÑĢÐ°": 45685,
  "Ð²Ð¸ÑĢÑĥÑģ": 46617,
  "Ð²Ð¸Ñģ": 1723,
  "Ð²Ð¸ÑģÐ°": 23437,
  "Ð²Ð¸ÑģÑĤ": 12831,
  "Ð²Ð¸ÑģÑĤÐ¾": 31625,
  "Ð²Ð¸ÑĤ": 6397,
  "Ð²Ð¸ÑĤÐ°": 43048,
  "Ð²Ð¸ÑĤÐ°Ð½": 34285,
  "Ð²Ð¸ÑĤÐ¸Ðµ": 24391,
  "Ð²Ð¸ÑĤÑĮ": 3493,
  "Ð²Ð¸ÑĤÑĮÑģÑı": 7880,
  "Ð²Ð¸ÑĨÐ°": 10038,
  "Ð²Ð¸ÑĨÑĭ": 26712,
  "Ð²Ð¸Ñĩ": 2882,
  "Ð²Ð¸ÑĩÐ°": 7876,
  "Ð²Ð¸ÑĩÐµÐ¼": 28098,
  "Ð²Ð¸ÑĩÐ¸": 45375,
  "Ð²Ð¸ÑĩÑĥ": 21211,
  "Ð²Ð¸Ñİ": 25012,
  "Ð²Ð¸Ñı": 9395,
  "Ð²ÐºÐ°": 18739,
  "Ð²ÐºÐ°Ð·": 24711,
  "Ð²ÐºÐ¸": 11283,
  "Ð²ÐºÐ»Ñİ": 28319,
  "Ð²ÐºÐ»ÑİÑĩÐ°Ñı": 35464,
  "Ð²ÐºÑĥ": 13440,
  "Ð²Ð»Ð°": 38065,
  "Ð²Ð»Ðµ": 32701,
  "Ð²Ð»ÐµÐºÐ°": 24888,
  "Ð²Ð»ÐµÐ½Ð¸Ðµ": 25062,
  "Ð²Ð»ÐµÐ½Ð¸Ñı": 45599,
  "Ð²Ð»Ð¸": 3123,
  "Ð²Ð»Ñı": 36519,
  "Ð²Ð½Ðµ": 42115,
  "Ð²Ð½Ð¾": 1242,
  "Ð²Ð½Ð¾Ð¹": 38194,
  "Ð²Ð½ÑĭÐµ": 49306,
  "Ð²Ð¾": 418,
  "Ð²Ð¾Ð±": 17600,
  "Ð²Ð¾Ð±Ð¾Ð´": 12795,
  "Ð²Ð¾Ð±Ð¾Ð´Ð°": 38571,
  "Ð²Ð¾Ð²": 6761,
  "Ð²Ð¾Ð³Ð¾": 7380,
  "Ð²Ð¾Ð´": 833,
  "Ð²Ð¾Ð´Ð°": 23169,
  "Ð²Ð¾Ð´Ñı": 49974,
  "Ð²Ð¾Ðµ": 1790,
  "Ð²Ð¾ÐµÐ²": 45651,
  "Ð²Ð¾ÐµÐ¼": 15691,
  "Ð²Ð¾Ð¶": 18180,
  "Ð²Ð¾Ð·": 1386,
  "Ð²Ð¾Ð·Ð´Ñĥ": 29223,
  "Ð²Ð¾Ð·Ð¼Ð¾Ð¶": 13153,
  "Ð²Ð¾Ð·Ð¼Ð¾Ð¶Ð½Ð¾": 40779,
  "Ð²Ð¾Ð·ÑĮ": 4469,
  "Ð²Ð¾Ð¸": 33966,
  "Ð²Ð¾Ð¹": 1406,
  "Ð²Ð¾Ð¹Ð½Ðµ": 47968,
  "Ð²Ð¾Ðº": 18871,
  "Ð²Ð¾Ð»": 1102,
  "Ð²Ð¾Ð»Ð¶": 45757,
  "Ð²Ð¾Ð»Ð¸": 6971,
  "Ð²Ð¾Ð»Ð½Ð¾Ð²": 14562,
  "Ð²Ð¾Ð»Ð¾Ðº": 32817,
  "Ð²Ð¾Ð»Ð¾Ñģ": 45412,
  "Ð²Ð¾Ð»ÑĮ": 6616,
  "Ð²Ð¾Ð»ÑĮÐ½Ð¾": 23670,
  "Ð²Ð¾Ð»ÑĮÑĤÐµ": 16183,
  "Ð²Ð¾Ð»Ñİ": 3505,
  "Ð²Ð¾Ð¼": 7237,
  "Ð²Ð¾Ð½": 12861,
  "Ð²Ð¾Ð½Ð¸Ð»": 26355,
  "Ð²Ð¾ÑĢ": 1486,
  "Ð²Ð¾ÑĢÐ°": 37832,
  "Ð²Ð¾ÑĢÐ°ÑĩÐ¸": 8654,
  "Ð²Ð¾ÑĢÐµÑĨ": 23895,
  "Ð²Ð¾ÑĢÐ¾": 17176,
  "Ð²Ð¾ÑĢÐ¾Ð¶": 27609,
  "Ð²Ð¾ÑĢÐ¾ÑĤ": 12190,
  "Ð²Ð¾ÑĢÐ¾ÑĤÐ°": 25553,
  "Ð²Ð¾Ñģ": 23189,
  "Ð²Ð¾ÑģÑĤ": 35549,
  "Ð²Ð¾ÑģÑĤÐ¾": 12212,
  "Ð²Ð¾ÑģÑĤÐ¾Ðº": 15482,
  "Ð²Ð¾ÑģÑĤÐ¾ÐºÐ°": 31706,
  "Ð²Ð¾ÑģÑĤÐ¾ÐºÐµ": 17569,
  "Ð²Ð¾ÑģÑĤÐ¾ÐºÑĥ": 41277,
  "Ð²Ð¾ÑģÑĤÐ¾ÑĩÐ½Ð¾Ð¹": 47649,
  "Ð²Ð¾ÑģÑĤÑĮ": 45517,
  "Ð²Ð¾ÑģÑĮ": 30722,
  "Ð²Ð¾ÑĤ": 10148,
  "Ð²Ð¾ÑĩÐºÐ°": 43201,
  "Ð²Ð¾Ñİ": 28117,
  "Ð²Ð¾Ñı": 20190,
  "Ð²ÑĢÐ°": 1431,
  "Ð²ÑĢÐ°ÑĤ": 17387,
  "Ð²ÑĢÐµÐ¼ÐµÐ½": 24161,
  "Ð²ÑģÐµ": 10524,
  "Ð²ÑģÐµÐ³Ð¾": 27958,
  "Ð²ÑĤÐ¾ÑĢÑĭÑħ": 8678,
  "Ð²ÑĤÑĢÐ°": 11344,
  "Ð²Ñĥ": 2594,
  "Ð²ÑĥÐ´": 28300,
  "Ð²ÑĥÑģÐ¼ÑĭÑģÐ»": 45859,
  "Ð²ÑĥÑĤ": 29673,
  "Ð²ÑĥÑĩ": 6222,
  "Ð²ÑĥÑĩÐ¸ÑĤ": 45512,
  "Ð²ÑĥÑİ": 11490,
  "Ð²ÑĪÐ°Ñı": 4749,
  "Ð²ÑĪÐ°ÑıÑģÑı": 12452,
  "Ð²ÑĪÐµÐ³Ð¾": 2822,
  "Ð²ÑĪÐµÐ³Ð¾ÑģÑı": 7894,
  "Ð²ÑĪÐµÐµ": 7927,
  "Ð²ÑĪÐµÐµÑģÑı": 14960,
  "Ð²ÑĪÐµÐ¹": 4028,
  "Ð²ÑĪÐµÐ¹ÑģÑı": 9314,
  "Ð²ÑĪÐµÐ¼": 11290,
  "Ð²ÑĪÐµÐ¼ÑģÑı": 21062,
  "Ð²ÑĪÐµÐ¼Ñĥ": 12640,
  "Ð²ÑĪÐµÐ¼ÑĥÑģÑı": 35745,
  "Ð²ÑĪÐ¸": 929,
  "Ð²ÑĪÐ¸Ðµ": 2508,
  "Ð²ÑĪÐ¸ÐµÑģÑı": 6519,
  "Ð²ÑĪÐ¸Ð¹": 1779,
  "Ð²ÑĪÐ¸Ð¹ÑģÑı": 5229,
  "Ð²ÑĪÐ¸Ð¼": 5583,
  "Ð²ÑĪÐ¸Ð¼Ð¸": 8309,
  "Ð²ÑĪÐ¸Ð¼Ð¸ÑģÑı": 21481,
  "Ð²ÑĪÐ¸Ð¼ÑģÑı": 14354,
  "Ð²ÑĪÐ¸ÑģÑĮ": 1752,
  "Ð²ÑĪÐ¸Ñħ": 2339,
  "Ð²ÑĪÐ¸ÑħÑģÑı": 6379,
  "Ð²ÑĪÑĥÑİ": 7314,
  "Ð²ÑĪÑĥÑİÑģÑı": 15580,
  "Ð²Ñĭ": 560,
  "Ð²ÑĭÐ±Ð¾ÑĢ": 21960,
  "Ð²ÑĭÐµ": 1936,
  "Ð²ÑĭÐ¹": 2451,
  "Ð²ÑĭÐ¼": 3259,
  "Ð²ÑĭÐ¼Ð¸": 6545,
  "Ð²ÑĭÑĢ": 12276,
  "Ð²ÑĭÑģ": 26047,
  "Ð²ÑĭÑħ": 2596,
  "Ð²ÑĭÑħÐ¾Ð´": 41214,
  "Ð²ÑĭÑĩÐ°Ð¹": 7580,
  "Ð²ÑĮÑİ": 6694,
  "Ð²Ñı": 10175,
  "Ð²ÑıÐ·": 9932,
  "Ð²ÑıÐ·Ð¸": 25378,
  "Ð²ÑıÐ·ÑĮ": 29909,
  "Ð²ÑıÑĤ": 15895,
  "Ð²ÑıÑĤÐ¾Ð¹": 30614,
  "Ð²ÑıÑī": 17445,
  "Ð²ÑĳÑĢ": 12051,
  "Ð³": 297,
  "Ð³Ð°": 486,
  "Ð³Ð°Ð´": 35376,
  "Ð³Ð°ÐµÑĤ": 5779,
  "Ð³Ð°ÐµÑĤÑģÑı": 13828,
  "Ð³Ð°Ð·": 17792,
  "Ð³Ð°Ð¹": 14448,
  "Ð³Ð°Ð¹ÑĤÐµ": 39532,
  "Ð³Ð°Ð»": 4041,
  "Ð³Ð°Ð»Ð°": 13263,
  "Ð³Ð°Ð»Ð¸": 6737,
  "Ð³Ð°Ð»Ð¸ÑģÑĮ": 38002,
  "Ð³Ð°Ð»Ð¾": 28459,
  "Ð³Ð°Ð»ÑģÑı": 40436,
  "Ð³Ð°Ð»ÑĮ": 17314,
  "Ð³Ð°Ð¼": 11293,
  "Ð³Ð°Ð¼Ð¸": 4455,
  "Ð³Ð°Ð½": 1709,
  "Ð³Ð°Ð½Ð°": 14730,
  "Ð³Ð°Ð½Ð¸": 1173,
  "Ð³Ð°Ð½Ð¾Ð²": 23150,
  "Ð³Ð°Ð½ÑĤ": 8075,
  "Ð³Ð°Ð½Ñĭ": 27961,
  "Ð³Ð°ÑĢ": 4640,
  "Ð³Ð°ÑĢÐ°": 25636,
  "Ð³Ð°ÑĢÐ´": 23866,
  "Ð³Ð°ÑĢÐ´Ð°": 47900,
  "Ð³Ð°ÑĢÑĭ": 49839,
  "Ð³Ð°Ñģ": 29945,
  "Ð³Ð°ÑĤ": 43168,
  "Ð³Ð°ÑĤÑĮ": 4694,
  "Ð³Ð°ÑĤÑĮÑģÑı": 15839,
  "Ð³Ð°Ñħ": 5868,
  "Ð³Ð°Ñİ": 34877,
  "Ð³Ð°ÑİÑĤ": 9961,
  "Ð³Ð°ÑİÑĤÑģÑı": 23119,
  "Ð³Ð°ÑİÑīÐ¸Ðµ": 45996,
  "Ð³Ð°ÑİÑīÐ¸Ñħ": 48357,
  "Ð³Ð°Ñı": 8368,
  "Ð³Ð²Ð°ÑĢ": 35214,
  "Ð³Ð²Ð°ÑĢÐ´Ð¸Ð¸": 45174,
  "Ð³Ð³": 24618,
  "Ð³Ð³Ð¸": 22848,
  "Ð³Ð´Ð°": 1343,
  "Ð³Ð´Ðµ": 7560,
  "Ð³Ðµ": 1484,
  "Ð³ÐµÐ¹": 3608,
  "Ð³ÐµÐ»ÑĮ": 10231,
  "Ð³ÐµÐ»Ñı": 35785,
  "Ð³ÐµÐ¼": 36494,
  "Ð³ÐµÐ½": 5039,
  "Ð³ÐµÐ½Ð°": 31195,
  "Ð³ÐµÐ½ÐµÑĢÐ°": 30072,
  "Ð³ÐµÐ½Ð¾Ð²": 46237,
  "Ð³ÐµÐ½ÑĤ": 14768,
  "Ð³ÐµÐ½ÑĤÐ¸": 22724,
  "Ð³ÐµÑĢ": 6157,
  "Ð³ÐµÑĢÐ°": 21358,
  "Ð³ÐµÑĢÐ¼Ð°Ð½": 45621,
  "Ð³ÐµÑĢÐ¾": 34740,
  "Ð³ÐµÑĤ": 49739,
  "Ð³ÐµÑĤÐ°": 27369,
  "Ð³ÐµÑĤÐ¸ÑĩÐµÑģÐº": 30259,
  "Ð³Ð¸": 607,
  "Ð³Ð¸Ð±": 17333,
  "Ð³Ð¸Ð±Ð°": 17547,
  "Ð³Ð¸Ð²Ð°ÐµÑĤ": 17808,
  "Ð³Ð¸Ð²Ð°Ð»": 29100,
  "Ð³Ð¸Ð²Ð°Ð»Ð°": 43121,
  "Ð³Ð¸Ð²Ð°Ð»Ð¸": 34589,
  "Ð³Ð¸Ð²Ð°ÑĤÑĮ": 24677,
  "Ð³Ð¸Ð²Ð°ÑİÑĤ": 39954,
  "Ð³Ð¸Ð²Ð°Ñı": 15195,
  "Ð³Ð¸Ð´": 22214,
  "Ð³Ð¸Ð´Ð¾Ð¹": 49369,
  "Ð³Ð¸Ðµ": 28836,
  "Ð³Ð¸ÐµÐ¹": 46426,
  "Ð³Ð¸Ð·": 20923,
  "Ð³Ð¸Ð¸": 2893,
  "Ð³Ð¸Ð¹": 12180,
  "Ð³Ð¸Ð¼": 31437,
  "Ð³Ð¸Ð½": 3740,
  "Ð³Ð¸Ð½Ð°": 14479,
  "Ð³Ð¸Ð½Ð¸": 46203,
  "Ð³Ð¸Ð½Ñı": 32760,
  "Ð³Ð¸Ð¾Ð·": 35002,
  "Ð³Ð¸Ð¾Ð½": 14616,
  "Ð³Ð¸ÑģÑĤÑĢÐ°": 19168,
  "Ð³Ð¸ÑĤ": 44556,
  "Ð³Ð¸Ñİ": 18066,
  "Ð³Ð¸Ñı": 4653,
  "Ð³ÐºÐ°": 5677,
  "Ð³Ð»": 29890,
  "Ð³Ð»Ð°": 2210,
  "Ð³Ð»Ð°Ð²": 6385,
  "Ð³Ð»Ð°Ð²Ñĭ": 33179,
  "Ð³Ð»Ð°Ð·": 31874,
  "Ð³Ð»Ð°Ñģ": 35504,
  "Ð³Ð»Ð¸": 2311,
  "Ð³Ð»Ð¸Ð²Ð¾": 31254,
  "Ð³Ð»Ð¸Ð¹": 4066,
  "Ð³Ð»Ð¾": 26568,
  "Ð³Ð»ÑĥÐ±": 25039,
  "Ð³Ð»ÑĥÐ±ÑĮ": 32301,
  "Ð³Ð»Ñı": 958,
  "Ð³Ð»ÑıÐ´": 1487,
  "Ð³Ð¼Ð°": 31588,
  "Ð³Ð½Ð°": 47651,
  "Ð³Ð½ÐµÑĤ": 39602,
  "Ð³Ð½ÑĥÐ²": 21416,
  "Ð³Ð½ÑĥÐ»": 7698,
  "Ð³Ð½ÑĥÐ»Ð°": 15945,
  "Ð³Ð½ÑĥÐ»Ð¸": 36108,
  "Ð³Ð½ÑĥÑĤÑĮ": 10125,
  "Ð³Ð¾": 361,
  "Ð³Ð¾Ð²": 1798,
  "Ð³Ð¾Ð²Ð°": 32144,
  "Ð³Ð¾Ð²Ðµ": 28603,
  "Ð³Ð¾Ð²Ð¾Ð³Ð¾": 27436,
  "Ð³Ð¾Ð²Ð¾ÑĢ": 3528,
  "Ð³Ð¾Ð²Ð¾ÑĢÑĭ": 37756,
  "Ð³Ð¾Ð´": 886,
  "Ð³Ð¾Ð´Ð°": 10998,
  "Ð³Ð¾Ð´Ð°ÑĢ": 2377,
  "Ð³Ð¾Ð´Ð½Ð¾": 4581,
  "Ð³Ð¾Ð´Ð½Ñı": 1425,
  "Ð³Ð¾Ð´Ñĭ": 42546,
  "Ð³Ð¾Ðµ": 4168,
  "Ð³Ð¾Ð¹": 9511,
  "Ð³Ð¾Ð»": 7505,
  "Ð³Ð¾Ð»Ð¾Ð²": 11724,
  "Ð³Ð¾Ð»Ð¾ÑģÐ°": 35572,
  "Ð³Ð¾Ð»ÑĥÐ±": 18967,
  "Ð³Ð¾Ð»ÑĮ": 13650,
  "Ð³Ð¾Ð¼": 3924,
  "Ð³Ð¾Ð½": 5136,
  "Ð³Ð¾Ð½Ð°": 11494,
  "Ð³Ð¾Ð½Ðµ": 27007,
  "Ð³Ð¾Ð½Ð¾Ð¼": 29531,
  "Ð³Ð¾ÑĢ": 1615,
  "Ð³Ð¾ÑĢÐ°": 8047,
  "Ð³Ð¾ÑĢÐµ": 10679,
  "Ð³Ð¾ÑĢÐ¸": 32401,
  "Ð³Ð¾ÑĢÐ¸ÑĤ": 16696,
  "Ð³Ð¾ÑĢÐ¾Ð´": 2947,
  "Ð³Ð¾ÑĢÐ¾Ð´Ð°": 22663,
  "Ð³Ð¾ÑĢÐ¾Ð´ÑģÐºÐ¾Ð¹": 21950,
  "Ð³Ð¾ÑĢÑĮ": 43192,
  "Ð³Ð¾ÑĢÑı": 23586,
  "Ð³Ð¾Ñģ": 11021,
  "Ð³Ð¾ÑģÑĥÐ´Ð°ÑĢ": 22648,
  "Ð³Ð¾ÑĤ": 42374,
  "Ð³Ð¾ÑĤÐ°": 13088,
  "Ð³Ð¾ÑĤÐ°Ð²Ð»Ð¸": 13885,
  "Ð³Ð¾ÑĤÐ¾Ð²": 1546,
  "Ð³Ð¾ÑĤÐ¾Ð²Ð»ÐµÐ½Ð¸Ðµ": 37506,
  "Ð³Ð¾ÑĦ": 45812,
  "Ð³ÑĢ": 22910,
  "Ð³ÑĢÐ°": 844,
  "Ð³ÑĢÐ°Ð²": 25474,
  "Ð³ÑĢÐ°Ð´": 6284,
  "Ð³ÑĢÐ°Ð´Ð°": 16965,
  "Ð³ÑĢÐ°Ð´Ðµ": 20909,
  "Ð³ÑĢÐ°Ð¶Ð´Ð°Ð½": 47816,
  "Ð³ÑĢÐ°Ð»": 27420,
  "Ð³ÑĢÐ°Ð¼": 12428,
  "Ð³ÑĢÐ°Ð¼Ð¾ÑĤ": 31710,
  "Ð³ÑĢÐ°Ð½": 26779,
  "Ð³ÑĢÐ°Ð½Ð¸": 22639,
  "Ð³ÑĢÐ°Ð½Ð¸Ñĩ": 14229,
  "Ð³ÑĢÐ°ÑĤÑĮ": 18070,
  "Ð³ÑĢÐ°ÑĦ": 20547,
  "Ð³ÑĢÐ°ÑĦÐ¸": 32272,
  "Ð³ÑĢÐ°ÑĨÐ¸Ð¸": 13532,
  "Ð³ÑĢÐµ": 13966,
  "Ð³ÑĢÐµÐ´Ð¸": 21856,
  "Ð³ÑĢÐ¸": 14551,
  "Ð³ÑĢÐ¾Ð±": 24716,
  "Ð³ÑĢÐ¾Ð¼": 27518,
  "Ð³ÑĢÑĥ": 29727,
  "Ð³ÑĢÑĥÐ·": 17516,
  "Ð³ÑĢÑĥÐ¿": 14776,
  "Ð³ÑĢÑĥÐ¿Ð¿Ð°": 44523,
  "Ð³ÑĢÑĥÐ¿Ð¿Ñĭ": 31541,
  "Ð³ÑĢÑĭ": 10654,
  "Ð³Ñģ": 37034,
  "Ð³Ñĥ": 877,
  "Ð³ÑĥÐ°": 44713,
  "Ð³ÑĥÐ±": 11174,
  "Ð³ÑĥÐ±ÐµÑĢÐ½Ð°ÑĤÐ¾ÑĢ": 42459,
  "Ð³ÑĥÐ±Ð¾": 29792,
  "Ð³ÑĥÐ»": 47005,
  "Ð³ÑĥÐ»Ð¸": 9070,
  "Ð³ÑĥÐ»ÑĮ": 49714,
  "Ð³ÑĥÐ»Ñı": 40624,
  "Ð³ÑĥÐ»ÑıÑĢ": 23580,
  "Ð³ÑĥÐ½": 13083,
  "Ð³ÑĥÐ½Ð°": 42078,
  "Ð³ÑĥÑĢ": 45350,
  "Ð³ÑĥÑĢÐ°": 24174,
  "Ð³ÑĥÑĢÐ°ÑĨÐ¸Ð¸": 37412,
  "Ð³ÑĥÑģ": 34800,
  "Ð³ÑĥÑĤ": 18436,
  "Ð³Ñĭ": 23623,
  "Ð´": 280,
  "Ð´Ð°": 347,
  "Ð´Ð°Ð²": 3833,
  "Ð´Ð°Ð²Ð¸Ð»": 23573,
  "Ð´Ð°Ð²Ð½Ð¾": 4512,
  "Ð´Ð°Ð³": 6701,
  "Ð´Ð°Ð³Ð¾Ð³Ð¸": 29773,
  "Ð´Ð°ÐµÐ¼": 43464,
  "Ð´Ð°ÐµÑĤ": 1829,
  "Ð´Ð°ÐµÑĤÑģÑı": 4065,
  "Ð´Ð°Ð¶Ðµ": 23848,
  "Ð´Ð°Ð¹": 14030,
  "Ð´Ð°Ð¹ÑĤÐµ": 25699,
  "Ð´Ð°Ðº": 14245,
  "Ð´Ð°Ð»": 2077,
  "Ð´Ð°Ð»Ð°": 5279,
  "Ð´Ð°Ð»ÐµÐµ": 26024,
  "Ð´Ð°Ð»ÐµÐºÐµ": 47107,
  "Ð´Ð°Ð»Ð¸": 3616,
  "Ð´Ð°Ð»Ð¾": 27768,
  "Ð´Ð°Ð»ÑģÑı": 24898,
  "Ð´Ð°Ð»ÑĮ": 22419,
  "Ð´Ð°Ð¼": 4304,
  "Ð´Ð°Ð¼Ð°": 43879,
  "Ð´Ð°Ð¼Ð¸": 4868,
  "Ð´Ð°Ð½": 1204,
  "Ð´Ð°Ð½Ð°": 13870,
  "Ð´Ð°Ð½Ðµ": 25573,
  "Ð´Ð°Ð½Ð¸Ðµ": 3228,
  "Ð´Ð°Ð½Ð¸ÐµÐ¼": 26190,
  "Ð´Ð°Ð½Ð¸Ð¸": 36148,
  "Ð´Ð°Ð½Ð¸Ð¹": 30335,
  "Ð´Ð°Ð½Ð¸Ñı": 2478,
  "Ð´Ð°Ð½Ð½Ð°Ñı": 35714,
  "Ð´Ð°Ð½Ð½Ð¾": 42248,
  "Ð´Ð°Ð½Ð½Ð¾Ð³Ð¾": 37056,
  "Ð´Ð°Ð½Ð½Ð¾Ðµ": 36255,
  "Ð´Ð°Ð½Ð½Ð¾Ð¹": 29060,
  "Ð´Ð°Ð½Ð½ÑĭÐµ": 19050,
  "Ð´Ð°Ð½Ð½ÑĭÐ¹": 19228,
  "Ð´Ð°Ð½Ð½ÑĭÐ¼": 35558,
  "Ð´Ð°Ð½Ð½ÑĭÑħ": 17900,
  "Ð´Ð°Ð½Ð¾Ð²": 37021,
  "Ð´Ð°ÑĢ": 2674,
  "Ð´Ð°ÑĢÐ°": 28487,
  "Ð´Ð°ÑĢÐ¾Ð¼": 23213,
  "Ð´Ð°ÑĤ": 3685,
  "Ð´Ð°ÑĤÐ°": 49091,
  "Ð´Ð°ÑĤÐµÐ»ÐµÐ¼": 22288,
  "Ð´Ð°ÑĤÐµÐ»ÑĮ": 26120,
  "Ð´Ð°ÑĤÐµÐ»ÑĮÑģÑĤÐ²Ð¾": 43390,
  "Ð´Ð°ÑĤÑĭ": 27976,
  "Ð´Ð°ÑĤÑĮ": 1291,
  "Ð´Ð°ÑĤÑĮÑģÑı": 9488,
  "Ð´Ð°Ñħ": 5706,
  "Ð´Ð°ÑĨÐ¸Ð¸": 8570,
  "Ð´Ð°Ñĩ": 35881,
  "Ð´Ð°ÑĩÐ°": 15700,
  "Ð´Ð°ÑĩÐ¸": 17562,
  "Ð´Ð°Ñİ": 27572,
  "Ð´Ð°ÑİÑĤ": 3788,
  "Ð´Ð°ÑİÑĤÑģÑı": 44159,
  "Ð´Ð°Ñı": 4890,
  "Ð´Ð²": 30412,
  "Ð´Ð²Ð°": 9575,
  "Ð´Ð²Ðµ": 21248,
  "Ð´Ð²Ð¸Ð³Ð°": 41264,
  "Ð´Ð²ÑĥÑħ": 44300,
  "Ð´Ðµ": 476,
  "Ð´ÐµÐ±": 8200,
  "Ð´ÐµÐ²": 5486,
  "Ð´ÐµÐ²ÑĪÐ¸ÑģÑĮ": 40055,
  "Ð´ÐµÐµÐ²": 33097,
  "Ð´ÐµÐµÑĨ": 46327,
  "Ð´ÐµÐ¹": 4130,
  "Ð´ÐµÐ¹ÑģÑĤÐ²": 4870,
  "Ð´ÐµÐº": 6852,
  "Ð´ÐµÐºÑģ": 11764,
  "Ð´ÐµÐ»": 747,
  "Ð´ÐµÐ»Ð°": 1148,
  "Ð´ÐµÐ»Ð°ÑĤÑĮ": 40294,
  "Ð´ÐµÐ»ÐµÑĨ": 33498,
  "Ð´ÐµÐ»Ð¸": 6650,
  "Ð´ÐµÐ»Ð¾": 23920,
  "Ð´ÐµÐ»ÑģÑı": 38497,
  "Ð´ÐµÐ»ÑĮ": 2429,
  "Ð´ÐµÐ»Ñı": 48261,
  "Ð´ÐµÐ¼": 2445,
  "Ð´ÐµÐ¼Ð¾ÐºÑĢÐ°": 19897,
  "Ð´ÐµÐ½": 2895,
  "Ð´ÐµÐ½Ð°": 10889,
  "Ð´ÐµÐ½Ðµ": 47155,
  "Ð´ÐµÐ½ÑĤ": 46957,
  "Ð´ÐµÐ½ÑĮ": 19626,
  "Ð´ÐµÐ¾": 18830,
  "Ð´ÐµÐ¿": 20258,
  "Ð´ÐµÐ¿Ð°ÑĢÑĤÐ°": 43265,
  "Ð´ÐµÑĢ": 868,
  "Ð´ÐµÑĢÐ°": 8604,
  "Ð´ÐµÑĢÐµ": 42091,
  "Ð´ÐµÑĢÐ¶": 1826,
  "Ð´ÐµÑĢÐ¶Ð°": 4553,
  "Ð´ÐµÑĢÐ¶Ð°Ð»": 9262,
  "Ð´ÐµÑĢÐ¶Ð°ÑĤÑĮ": 6424,
  "Ð´ÐµÑĢÐ¶Ð¸": 2374,
  "Ð´ÐµÑĢÐ¶ÐºÐ°": 36655,
  "Ð´ÐµÑĢÐ¶ÐºÐ¸": 30120,
  "Ð´ÐµÑĢÐ¾Ð²": 19193,
  "Ð´ÐµÑĢÐ¾Ð¼": 41992,
  "Ð´ÐµÑĢÑģ": 46871,
  "Ð´ÐµÑĢÑĥ": 49676,
  "Ð´ÐµÑĢÑĭ": 26726,
  "Ð´ÐµÑģ": 27852,
  "Ð´ÐµÑģÐ°Ð½ÑĤ": 47101,
  "Ð´ÐµÑģÑĮ": 1160,
  "Ð´ÐµÑģÑı": 7980,
  "Ð´ÐµÑģÑıÑĤ": 6167,
  "Ð´ÐµÑģÑıÑĤÐ¸": 11499,
  "Ð´ÐµÑģÑıÑĤÑĭÑħ": 30825,
  "Ð´ÐµÑĤ": 997,
  "Ð´ÐµÑĤÐµ": 28148,
  "Ð´ÐµÑĤÑĮ": 2704,
  "Ð´ÐµÑĤÑĮÑģÑı": 31341,
  "Ð´ÐµÑĨ": 21844,
  "Ð´ÐµÑĪ": 16085,
  "Ð´ÐµÑĪÑĮ": 8910,
  "Ð´ÐµÑİÑģÑĮ": 32746,
  "Ð´ÐµÑı": 38706,
  "Ð´Ð¶": 2266,
  "Ð´Ð¶Ð°": 14364,
  "Ð´Ð¶Ð°Ð½Ð°": 29420,
  "Ð´Ð¶Ðµ": 29842,
  "Ð´Ð¶ÐµÑĢ": 32200,
  "Ð´Ð¶ÐµÑĤ": 24690,
  "Ð´Ð¶Ð¸": 14475,
  "Ð´Ð¶Ð¾": 45823,
  "Ð´Ð¶Ñĥ": 46761,
  "Ð´Ð·": 40932,
  "Ð´Ð·Ðµ": 20716,
  "Ð´Ð¸": 488,
  "Ð´Ð¸Ð²": 1981,
  "Ð´Ð¸Ð²Ð¸": 3865,
  "Ð´Ð¸Ð²Ð¸Ð´Ñĥ": 4928,
  "Ð´Ð¸Ð³": 49183,
  "Ð´Ð¸ÐµÐ¹": 30983,
  "Ð´Ð¸ÐµÐ¼": 27807,
  "Ð´Ð¸Ð¸": 3451,
  "Ð´Ð¸Ð¹": 5055,
  "Ð´Ð¸Ðº": 9472,
  "Ð´Ð¸ÐºÐ°": 14477,
  "Ð´Ð¸Ð»": 5932,
  "Ð´Ð¸Ð»Ð°": 10496,
  "Ð´Ð¸Ð»Ð°ÑģÑĮ": 18996,
  "Ð´Ð¸Ð»Ð¸": 6976,
  "Ð´Ð¸Ð»Ð¸ÑģÑĮ": 16317,
  "Ð´Ð¸Ð»Ð¾": 44868,
  "Ð´Ð¸Ð»ÑģÑı": 17522,
  "Ð´Ð¸Ð¼": 17000,
  "Ð´Ð¸Ð½": 1428,
  "Ð´Ð¸Ð½Ð°": 3486,
  "Ð´Ð¸Ð½Ð°Ð²": 39319,
  "Ð´Ð¸Ð½Ð°Ñı": 22548,
  "Ð´Ð¸Ð½Ð³": 16090,
  "Ð´Ð¸Ð½Ð³Ð°": 24546,
  "Ð´Ð¸Ð½Ð¸": 26532,
  "Ð´Ð¸Ð½Ð¾": 6132,
  "Ð´Ð¸Ð½Ð¾Ð²": 42079,
  "Ð´Ð¸Ð½Ñĭ": 25027,
  "Ð´Ð¸Ð¾": 37733,
  "Ð´Ð¸Ð¾Ð·": 17300,
  "Ð´Ð¸ÑĢ": 12804,
  "Ð´Ð¸ÑĢÐ°": 19493,
  "Ð´Ð¸ÑĢÐµÐº": 27794,
  "Ð´Ð¸ÑĢÐµÐºÑĤÐ¾ÑĢ": 30080,
  "Ð´Ð¸ÑĢÐµÐºÑĤÐ¾ÑĢÐ°": 35544,
  "Ð´Ð¸Ñģ": 22528,
  "Ð´Ð¸ÑģÑĮ": 22594,
  "Ð´Ð¸ÑĤ": 11477,
  "Ð´Ð¸ÑĤÐµ": 9614,
  "Ð´Ð¸ÑĤÑĮ": 4892,
  "Ð´Ð¸ÑĤÑĮÑģÑı": 11168,
  "Ð´Ð¸ÑĪÑĮ": 5631,
  "Ð´Ð¸Ñİ": 12671,
  "Ð´Ð¸Ñı": 4879,
  "Ð´ÐºÐ°": 11599,
  "Ð´ÐºÐµ": 37233,
  "Ð´ÐºÐ¸": 15126,
  "Ð´ÐºÐ¾Ð¹": 20683,
  "Ð´ÐºÑĥ": 29540,
  "Ð´Ð»Ð¾Ð²": 16367,
  "Ð´Ð»Ñı": 12833,
  "Ð´Ð½Ð°Ñı": 41383,
  "Ð´Ð½ÐµÐ²": 22044,
  "Ð´Ð½Ð¾": 6473,
  "Ð´Ð½Ð¾Ð³Ð¾": 49623,
  "Ð´Ð½Ð¾Ðµ": 31614,
  "Ð´Ð½Ð¾Ð¹": 26193,
  "Ð´Ð½ÑĭÐµ": 49427,
  "Ð´Ð½ÑĭÐ¹": 32351,
  "Ð´Ð½ÑĭÑħ": 49816,
  "Ð´Ð½Ñı": 43946,
  "Ð´Ð¾": 660,
  "Ð´Ð¾Ð±": 11889,
  "Ð´Ð¾Ð²": 2169,
  "Ð´Ð¾Ð²Ð°": 23372,
  "Ð´Ð¾Ð²Ð°Ð»": 29822,
  "Ð´Ð¾Ð²Ð°Ð»Ð°": 37341,
  "Ð´Ð¾Ð²Ð°Ð»Ð¸": 29061,
  "Ð´Ð¾Ð²Ð°ÑĤÑĮ": 14500,
  "Ð´Ð¾Ð²Ð¸Ñĩ": 37671,
  "Ð´Ð¾Ð¹": 7784,
  "Ð´Ð¾Ðº": 6936,
  "Ð´Ð¾ÐºÑĢÐ¸Ð½": 47758,
  "Ð´Ð¾ÐºÑģ": 23207,
  "Ð´Ð¾Ð»": 19317,
  "Ð´Ð¾Ð¼": 3663,
  "Ð´Ð¾Ð¼Ð°": 32420,
  "Ð´Ð¾Ð½": 7357,
  "Ð´Ð¾Ð½Ð°": 13843,
  "Ð´Ð¾Ð¿": 48181,
  "Ð´Ð¾Ð¿Ð¾Ð´Ð¾Ð±": 36669,
  "Ð´Ð¾ÑĢ": 1620,
  "Ð´Ð¾ÑĢÐ°": 17956,
  "Ð´Ð¾ÑĢÐ¾Ð²": 6766,
  "Ð´Ð¾ÑĢÐ¾Ð¶": 27085,
  "Ð´Ð¾ÑĢÑĦ": 37754,
  "Ð´Ð¾Ñģ": 41557,
  "Ð´Ð¾ÑģÑĤÐ¸": 36707,
  "Ð´Ð¾ÑģÑĤÑĮ": 23021,
  "Ð´Ð¾Ñħ": 2342,
  "Ð´Ð¾ÑħÐ°": 46750,
  "Ð´ÑĢÐ°": 8883,
  "Ð´ÑĢÐ°Ð²": 4627,
  "Ð´ÑĢÐ°Ð²ÑģÑĤÐ²Ñĥ": 7209,
  "Ð´ÑĢÐ°Ð²ÑģÑĤÐ²ÑĥÐ¹": 26440,
  "Ð´ÑĢÐ°Ð²ÑģÑĤÐ²ÑĥÐ¹ÑĤÐµ": 8398,
  "Ð´ÑĢÑĥÐ³": 5719,
  "Ð´ÑĢÑĥÐ³Ð¾Ð¹": 31530,
  "Ð´ÑĢÑĥÐ³Ð¾Ð¼Ñĥ": 15253,
  "Ð´ÑĤ": 21042,
  "Ð´ÑĤÐ°": 42861,
  "Ð´Ñĥ": 554,
  "Ð´ÑĥÐµÑĤ": 24468,
  "Ð´ÑĥÐº": 34592,
  "Ð´ÑĥÐ¼": 2540,
  "Ð´ÑĥÐ¼Ð°": 4872,
  "Ð´ÑĥÐ¼Ð°Ð»": 38123,
  "Ð´ÑĥÐ¼Ð°Ð½": 13211,
  "Ð´ÑĥÐ¼Ð°ÑĤÑĮ": 34326,
  "Ð´ÑĥÐ¼Ñĭ": 8827,
  "Ð´ÑĥÐ¼ÑĭÐ²Ð°Ð»": 36166,
  "Ð´ÑĥÐ½": 36050,
  "Ð´ÑĥÑĢÐ°": 45055,
  "Ð´ÑĥÑģ": 42224,
  "Ð´ÑĥÑĤ": 3461,
  "Ð´ÑĥÑħÐ¾Ð²": 50097,
  "Ð´ÑĥÑİÑĤ": 35412,
  "Ð´ÑĨÐ°": 1470,
  "Ð´ÑĨÐ°ÑĤÐ¸": 4340,
  "Ð´ÑĨÐ°ÑĤÑĮ": 2434,
  "Ð´Ñĭ": 700,
  "Ð´ÑĭÐ²Ð°Ð»": 10955,
  "Ð´ÑĭÐ²Ð°Ð»Ð°": 20156,
  "Ð´ÑĭÐ²Ð°Ð»Ð°ÑģÑĮ": 30684,
  "Ð´ÑĭÐ²Ð°Ð»Ð¸": 17226,
  "Ð´ÑĭÐ²Ð°Ð»Ð¸ÑģÑĮ": 28307,
  "Ð´ÑĭÐ²Ð°Ð»ÑģÑı": 17735,
  "Ð´ÑĭÐµ": 33611,
  "Ð´ÑĭÐ¹": 24002,
  "Ð´ÑĭÐ¼": 18217,
  "Ð´ÑĭÑħ": 9735,
  "Ð´ÑĭÑħÐ°": 15307,
  "Ð´ÑĭÑħÐ°ÐµÑĤ": 40422,
  "Ð´ÑĮ": 2534,
  "Ð´ÑĮÐ±Ð°": 46468,
  "Ð´Ñİ": 9651,
  "Ð´ÑİÐ¹Ð¼": 42668,
  "Ð´Ñı": 2515,
  "Ð´ÑıÐ¼Ð¸": 46355,
  "Ð´ÑıÑĤ": 22221,
  "Ð´ÑĳÐ¼": 29580,
  "Ð´ÑĳÑĤ": 15598,
  "Ðµ": 263,
  "ÐµÐ±": 3778,
  "ÐµÐ²": 512,
  "ÐµÐ²Ð°": 3583,
  "ÐµÐ²Ð°Ð»": 14240,
  "ÐµÐ²Ð°Ð»Ð¸": 44147,
  "ÐµÐ²Ð°ÑĤÑĮ": 16931,
  "ÐµÐ²Ðµ": 18713,
  "ÐµÐ²ÐµÐ´": 34645,
  "ÐµÐ²ÐµÑĢ": 2878,
  "ÐµÐ²Ð¸Ð½": 32757,
  "ÐµÐ²Ð¸Ñĩ": 4740,
  "ÐµÐ²Ð¸ÑĩÐ°": 14646,
  "ÐµÐ²Ð¸ÑĩÑĥ": 42595,
  "ÐµÐ²Ð½Ð°": 8584,
  "ÐµÐ²Ð¾": 26853,
  "ÐµÐ²Ð¾Ð³Ð¾": 13230,
  "ÐµÐ²Ð¾Ð¹": 3643,
  "ÐµÐ²Ð¾Ð¼": 32136,
  "ÐµÐ²ÑĢÐµÐ¹": 43252,
  "ÐµÐ²ÑĢÐ¾Ð¿ÐµÐ¹": 19052,
  "ÐµÐ²ÑģÐºÐ°Ñı": 39465,
  "ÐµÐ²ÑģÐºÐ¸Ð¹": 14337,
  "ÐµÐ²ÑģÐºÐ¾Ð³Ð¾": 14740,
  "ÐµÐ²ÑģÐºÐ¾Ð¹": 28391,
  "ÐµÐ²Ñĥ": 14457,
  "ÐµÐ²ÑĥÑİ": 27953,
  "ÐµÐ²ÑĪÐ°Ñı": 48271,
  "ÐµÐ²ÑĪÐµÐ³Ð¾": 41980,
  "ÐµÐ²ÑĪÐµÐ¹": 34304,
  "ÐµÐ²ÑĪÐ¸Ðµ": 23105,
  "ÐµÐ²ÑĪÐ¸Ð¹": 22542,
  "ÐµÐ²ÑĪÐ¸Ñħ": 29314,
  "ÐµÐ²Ñĭ": 38981,
  "ÐµÐ²ÑĭÐµ": 12886,
  "ÐµÐ²ÑĭÐ¹": 41077,
  "ÐµÐ²ÑĭÐ¼": 13432,
  "ÐµÐ²ÑĭÐ¼Ð¸": 42463,
  "ÐµÐ²ÑĭÑħ": 10561,
  "ÐµÐ³": 20605,
  "ÐµÐ³Ð¾": 964,
  "ÐµÐ´": 383,
  "ÐµÐ´Ð°": 15078,
  "ÐµÐ´Ð°ÑĤÑĮ": 41935,
  "ÐµÐ´Ðµ": 19234,
  "ÐµÐ´ÐµÐ»ÑĮ": 7224,
  "ÐµÐ´ÐµÐ¼": 17803,
  "ÐµÐ´ÐµÑĢÐ°": 2216,
  "ÐµÐ´ÐµÑģÑĤ": 49164,
  "ÐµÐ´ÐµÑĤ": 12788,
  "ÐµÐ´ÐµÑĪÑĮ": 31113,
  "ÐµÐ´Ð¶": 5847,
  "ÐµÐ´Ð¸": 1383,
  "ÐµÐ´Ð¸Ð¸": 12042,
  "ÐµÐ´Ð¸Ð¹": 25632,
  "ÐµÐ´Ð¸Ðº": 27994,
  "ÐµÐ´Ð¸Ð½": 2004,
  "ÐµÐ´Ð¸Ð½Ðµ": 20257,
  "ÐµÐ´Ð¸Ð½Ð¸": 6583,
  "ÐµÐ´Ð¸Ð½Ð¸ÑĤÑĮ": 18199,
  "ÐµÐ´Ð¸Ð½Ð¾": 32402,
  "ÐµÐ´Ð¸Ñİ": 32670,
  "ÐµÐ´Ð¸Ñı": 13831,
  "ÐµÐ´Ð»ÐµÐ½Ð½Ð¾": 5805,
  "ÐµÐ´Ð»Ð¸": 7373,
  "ÐµÐ´Ð»Ð¸Ð²": 38866,
  "ÐµÐ´Ð»Ð¸Ð²Ð¾": 6806,
  "ÐµÐ´Ð¾": 22105,
  "ÐµÐ´Ð¾Ð²": 17055,
  "ÐµÐ´Ð¾Ð¼": 24523,
  "ÐµÐ´Ñĥ": 4156,
  "ÐµÐ´ÑĥÑĤ": 27219,
  "ÐµÐ´Ñĭ": 6667,
  "ÐµÐ´ÑĮ": 2761,
  "ÐµÐµ": 1674,
  "ÐµÐµÐ²": 25104,
  "ÐµÐµÐ²Ð°": 29755,
  "ÐµÐµÐº": 31957,
  "ÐµÐ¶": 3832,
  "ÐµÐ¶Ð¸": 11250,
  "ÐµÐ¶Ñĥ": 24319,
  "ÐµÐ·": 501,
  "ÐµÐ·Ð´": 2064,
  "ÐµÐ·Ð´Ð°": 3629,
  "ÐµÐ·Ð´Ðµ": 4695,
  "ÐµÐ·Ð´Ð¾": 25270,
  "ÐµÐ·Ð´Ð¾Ð¼": 22984,
  "ÐµÐ·Ð´Ñĥ": 18321,
  "ÐµÐ·Ð´Ñĭ": 7935,
  "ÐµÐ·Ðµ": 33644,
  "ÐµÐ·Ð¶Ð°": 6282,
  "ÐµÐ·Ð¶Ð°ÐµÑĤ": 15793,
  "ÐµÐ·Ð¶Ð°Ð¹": 42872,
  "ÐµÐ·Ð¶Ð°Ð»": 26582,
  "ÐµÐ·Ð¶Ð°Ð»Ð¸": 29543,
  "ÐµÐ·Ð¶Ð°ÑĤÑĮ": 18282,
  "ÐµÐ·Ð¶Ð°ÑİÑĤ": 21923,
  "ÐµÐ·Ð¶Ð°Ñı": 32723,
  "ÐµÐ·Ð¸": 34754,
  "ÐµÐ·Ð¸Ð¸": 26863,
  "ÐµÐ·Ð¸Ð¹": 47481,
  "ÐµÐ·Ð¸Ñı": 45898,
  "ÐµÐ·Ð»Ð¸": 15787,
  "ÐµÐ·ÑĤÐ¸": 15908,
  "ÐµÐ·Ñĥ": 18289,
  "ÐµÐ·Ñĭ": 27075,
  "ÐµÐ¸": 33729,
  "ÐµÐ¹": 355,
  "ÐµÐ¹ÐºÐ¸": 16481,
  "ÐµÐ¹Ð½": 5944,
  "ÐµÐ¹Ð½ÑĭÐ¹": 46380,
  "ÐµÐ¹ÑĢÐ¾": 44949,
  "ÐµÐ¹Ñģ": 12777,
  "ÐµÐ¹ÑģÐ±ÑĥÐºÐµ": 40484,
  "ÐµÐ¹ÑģÑĤÐ²": 916,
  "ÐµÐ¹ÑĤ": 26132,
  "ÐµÐ¹ÑĤÐµ": 18668,
  "ÐµÐ¹ÑĩÐ°Ñģ": 1115,
  "ÐµÐ¹ÑĪÐ¸Ð¹": 39354,
  "ÐµÐº": 508,
  "ÐµÐºÐµ": 10156,
  "ÐµÐºÐ»Ð°": 49512,
  "ÐµÐºÐ¾Ð¼": 7942,
  "ÐµÐºÑģ": 21181,
  "ÐµÐºÑģÐ°": 32308,
  "ÐµÐºÑģÐ¸": 10994,
  "ÐµÐºÑģÑĤ": 17587,
  "ÐµÐºÑĤ": 2975,
  "ÐµÐºÑĤÐ°": 8012,
  "ÐµÐºÑĤÐ¸": 27093,
  "ÐµÐºÑĤÐ¸Ð²": 2313,
  "ÐµÐºÑĤÐ¾Ð²": 10944,
  "ÐµÐºÑĤÐ¾Ð¼": 47255,
  "ÐµÐºÑĤÐ¾ÑĢ": 26848,
  "ÐµÐºÑĤÑĭ": 14353,
  "ÐµÐ»": 310,
  "ÐµÐ»Ð°": 555,
  "ÐµÐ»Ð°ÐµÑĪÑĮ": 30793,
  "ÐµÐ»Ð°Ð¼Ð¸": 46024,
  "ÐµÐ»Ð°Ð½Ð´": 40930,
  "ÐµÐ»Ð°ÑģÑĮ": 10189,
  "ÐµÐ»Ð°ÑĤÑĮ": 13654,
  "ÐµÐ»Ðµ": 944,
  "ÐµÐ»ÐµÐ²": 12017,
  "ÐµÐ»ÐµÐ²Ð°": 46184,
  "ÐµÐ»ÐµÐµ": 17532,
  "ÐµÐ»ÐµÐ¹": 1014,
  "ÐµÐ»ÐµÐ¼": 2368,
  "ÐµÐ»ÐµÐ½": 2000,
  "ÐµÐ»ÐµÐ½Ð¸Ðµ": 13345,
  "ÐµÐ»ÐµÐ½Ð¸Ñı": 49459,
  "ÐµÐ»ÐµÐ½Ð½Ð¾Ð¹": 10822,
  "ÐµÐ»ÐµÑģ": 35224,
  "ÐµÐ»ÐµÑĤ": 13857,
  "ÐµÐ»Ð¸": 538,
  "ÐµÐ»Ð¸Ð²": 31402,
  "ÐµÐ»Ð¸Ð²Ð¾": 14514,
  "ÐµÐ»Ð¸Ðµ": 29417,
  "ÐµÐ»Ð¸Ð¸": 34595,
  "ÐµÐ»Ð¸Ð¹": 37609,
  "ÐµÐ»Ð¸Ðº": 33156,
  "ÐµÐ»Ð¸ÐºÐ°": 14189,
  "ÐµÐ»Ð¸Ð»Ð°": 25020,
  "ÐµÐ»Ð¸Ð»Ð°ÑģÑĮ": 17809,
  "ÐµÐ»Ð¸Ð»Ð¸": 12784,
  "ÐµÐ»Ð¸Ð»Ð¸ÑģÑĮ": 12978,
  "ÐµÐ»Ð¸Ð»ÑģÑı": 39714,
  "ÐµÐ»Ð¸Ð½": 34385,
  "ÐµÐ»Ð¸Ð½Ð°": 23915,
  "ÐµÐ»Ð¸ÑģÑĮ": 9446,
  "ÐµÐ»Ð¸ÑĤÑĮ": 4245,
  "ÐµÐ»Ð¸ÑĤÑĮÑģÑı": 6458,
  "ÐµÐ»Ð¸Ñı": 14807,
  "ÐµÐ»Ð»": 18385,
  "ÐµÐ»Ð»Ð°": 13766,
  "ÐµÐ»Ð»Ð¸": 10573,
  "ÐµÐ»Ð»Ñĭ": 42707,
  "ÐµÐ»Ð»Ñı": 27016,
  "ÐµÐ»Ð¾": 804,
  "ÐµÐ»Ð¾Ð²": 713,
  "ÐµÐ»Ð¾Ð²Ðµ": 8446,
  "ÐµÐ»Ð¾Ð²ÐµÐº": 6782,
  "ÐµÐ»Ð¾Ð¼": 39312,
  "ÐµÐ»Ð¾Ð¿": 39670,
  "ÐµÐ»Ð¾ÑĢÑĥÑģ": 6316,
  "ÐµÐ»Ð¾ÑģÑĮ": 2730,
  "ÐµÐ»ÑģÐ¸": 25157,
  "ÐµÐ»ÑģÑı": 9731,
  "ÐµÐ»Ñĭ": 8029,
  "ÐµÐ»ÑĭÐµ": 46149,
  "ÐµÐ»ÑĭÐ¹": 38761,
  "ÐµÐ»ÑĮ": 388,
  "ÐµÐ»ÑĮÐ´": 18905,
  "ÐµÐ»ÑĮÐµ": 8286,
  "ÐµÐ»ÑĮÐ·Ñı": 2621,
  "ÐµÐ»ÑĮÐ½Ð°Ñı": 31467,
  "ÐµÐ»ÑĮÐ½Ð¾": 9933,
  "ÐµÐ»ÑĮÐ½Ð¾Ð³Ð¾": 21055,
  "ÐµÐ»ÑĮÐ½Ð¾Ðµ": 48933,
  "ÐµÐ»ÑĮÐ½Ð¾Ð¹": 18970,
  "ÐµÐ»ÑĮÐ½ÑĭÐµ": 21533,
  "ÐµÐ»ÑĮÐ½ÑĭÐ¹": 19733,
  "ÐµÐ»ÑĮÐ½ÑĭÐ¼": 48531,
  "ÐµÐ»ÑĮÐ½ÑĭÑħ": 17321,
  "ÐµÐ»ÑĮÑİ": 30848,
  "ÐµÐ»ÑĮÑı": 12914,
  "ÐµÐ»Ñİ": 3051,
  "ÐµÐ»ÑİÐ±": 17759,
  "ÐµÐ»Ñı": 831,
  "ÐµÐ»ÑıÐ±Ð¸Ð½": 12476,
  "ÐµÐ»ÑıÐ¼": 12057,
  "ÐµÐ»ÑıÐ¼Ð¸": 9551,
  "ÐµÐ»ÑıÑħ": 7315,
  "ÐµÐ¼": 339,
  "ÐµÐ¼Ð°": 2749,
  "ÐµÐ¼Ð°ÑĤ": 17033,
  "ÐµÐ¼Ð°Ñı": 11411,
  "ÐµÐ¼Ðµ": 10739,
  "ÐµÐ¼ÐµÐ½ÑĤ": 48195,
  "ÐµÐ¼Ð¸": 41046,
  "ÐµÐ¼Ð¸Ð¸": 45239,
  "ÐµÐ¼Ð¾": 17858,
  "ÐµÐ¼Ð¾Ð³Ð¾": 6699,
  "ÐµÐ¼Ð¾Ðµ": 14720,
  "ÐµÐ¼Ð¾Ð¹": 6036,
  "ÐµÐ¼Ð¾Ð¼": 26373,
  "ÐµÐ¼Ð¾Ð¼Ñĥ": 43012,
  "ÐµÐ¼Ð¾Ð½": 10972,
  "ÐµÐ¼Ð¾Ð½ÑģÑĤÑĢÐ¸": 12292,
  "ÐµÐ¼Ð¾ÑģÑĤÐ¸": 24529,
  "ÐµÐ¼Ð¾ÑģÑĤÑĮ": 29892,
  "ÐµÐ¼ÑģÑı": 3413,
  "ÐµÐ¼Ñĥ": 728,
  "ÐµÐ¼ÑĥÐ°Ð·ÐµÐ»ÑĮ": 41801,
  "ÐµÐ¼ÑĥÑİ": 22744,
  "ÐµÐ¼Ñĭ": 8227,
  "ÐµÐ¼ÑĭÐµ": 4851,
  "ÐµÐ¼ÑĭÐ¹": 5367,
  "ÐµÐ¼ÑĭÐ¼": 14974,
  "ÐµÐ¼ÑĭÐ¼Ð¸": 30721,
  "ÐµÐ¼ÑĭÑħ": 4486,
  "ÐµÐ¼ÑĮ": 27999,
  "ÐµÐ½": 286,
  "ÐµÐ½Ð°": 798,
  "ÐµÐ½Ð°Ð¼Ð¸": 49876,
  "ÐµÐ½Ð°Ð¿ÑĢÐ°Ð²": 25063,
  "ÐµÐ½Ð°Ñħ": 49288,
  "ÐµÐ½Ð°Ñı": 42679,
  "ÐµÐ½Ð³": 35290,
  "ÐµÐ½Ð³Ð°": 29029,
  "ÐµÐ½Ð´": 12776,
  "ÐµÐ½Ð´Ð°": 12018,
  "ÐµÐ½Ð´Ð°Ð½": 21615,
  "ÐµÐ½Ð´Ð°ÑĢ": 33240,
  "ÐµÐ½Ð´Ñĥ": 25216,
  "ÐµÐ½Ðµ": 1414,
  "ÐµÐ½ÐµÐ²Ð°": 41976,
  "ÐµÐ½ÐµÐ³": 33059,
  "ÐµÐ½ÐµÐµ": 34462,
  "ÐµÐ½ÐµÐ¹": 36794,
  "ÐµÐ½ÐµÐº": 42348,
  "ÐµÐ½ÐµÑĢÐ°": 2329,
  "ÐµÐ½ÐµÑĢÐ¸": 23231,
  "ÐµÐ½ÐµÑĨ": 13097,
  "ÐµÐ½Ð¸": 337,
  "ÐµÐ½Ð¸Ðµ": 468,
  "ÐµÐ½Ð¸ÐµÐ¼": 979,
  "ÐµÐ½Ð¸Ð¸": 763,
  "ÐµÐ½Ð¸Ð¹": 891,
  "ÐµÐ½Ð¸Ðº": 25213,
  "ÐµÐ½Ð¸ÐºÐ¸": 41169,
  "ÐµÐ½Ð¸Ð½": 4205,
  "ÐµÐ½Ð¸Ð½Ð°": 32460,
  "ÐµÐ½Ð¸Ñģ": 48071,
  "ÐµÐ½Ð¸ÑĤ": 11521,
  "ÐµÐ½Ð¸ÑĤÐµÑĤ": 48313,
  "ÐµÐ½Ð¸ÑĤÑĮ": 49505,
  "ÐµÐ½Ð¸ÑĨÐ°": 47085,
  "ÐµÐ½Ð¸ÑĨÑĭ": 23985,
  "ÐµÐ½Ð¸Ñİ": 954,
  "ÐµÐ½Ð¸Ñı": 427,
  "ÐµÐ½Ð¸ÑıÐ¼": 6710,
  "ÐµÐ½Ð¸ÑıÐ¼Ð¸": 4869,
  "ÐµÐ½Ð¸ÑıÑħ": 4912,
  "ÐµÐ½ÐºÐ°": 16093,
  "ÐµÐ½ÐºÐ¸": 22248,
  "ÐµÐ½ÐºÐ»Ð°": 39028,
  "ÐµÐ½ÐºÐ¾": 5269,
  "ÐµÐ½ÐºÐ¾Ð²": 39273,
  "ÐµÐ½ÐºÑĥ": 37201,
  "ÐµÐ½Ð½Ð°": 36190,
  "ÐµÐ½Ð½Ð°Ñı": 3626,
  "ÐµÐ½Ð½Ð¸Ðº": 35647,
  "ÐµÐ½Ð½Ð¾": 869,
  "ÐµÐ½Ð½Ð¾Ð³Ð¾": 2198,
  "ÐµÐ½Ð½Ð¾Ðµ": 3732,
  "ÐµÐ½Ð½Ð¾Ð¹": 1734,
  "ÐµÐ½Ð½Ð¾Ð¼": 6238,
  "ÐµÐ½Ð½Ð¾Ð¼Ñĥ": 10194,
  "ÐµÐ½Ð½Ð¾ÑģÑĤÐµÐ¹": 12385,
  "ÐµÐ½Ð½Ð¾ÑģÑĤÐ¸": 4510,
  "ÐµÐ½Ð½Ð¾ÑģÑĤÑĮ": 5768,
  "ÐµÐ½Ð½Ð¾ÑģÑĤÑĮÑİ": 15551,
  "ÐµÐ½Ð½ÑĥÑİ": 4934,
  "ÐµÐ½Ð½Ñĭ": 35949,
  "ÐµÐ½Ð½ÑĭÐµ": 1453,
  "ÐµÐ½Ð½ÑĭÐ¹": 1545,
  "ÐµÐ½Ð½ÑĭÐ¼": 3250,
  "ÐµÐ½Ð½ÑĭÐ¼Ð¸": 5056,
  "ÐµÐ½Ð½ÑĭÑħ": 1378,
  "ÐµÐ½Ð¾": 1569,
  "ÐµÐ½Ð¾Ð²": 8576,
  "ÐµÐ½Ð¾Ð³Ð¾": 32625,
  "ÐµÐ½Ð¾Ðµ": 47750,
  "ÐµÐ½Ð¾Ð¹": 23389,
  "ÐµÐ½Ð¾Ðº": 17304,
  "ÐµÐ½Ð¾Ð¼": 8994,
  "ÐµÐ½Ð¾Ñģ": 12163,
  "ÐµÐ½Ñģ": 9192,
  "ÐµÐ½ÑģÐ°": 8590,
  "ÐµÐ½ÑģÐ¸": 18655,
  "ÐµÐ½ÑģÐºÐ¸Ð¹": 16671,
  "ÐµÐ½ÑģÐºÐ¾Ð³Ð¾": 18190,
  "ÐµÐ½ÑģÐºÐ¾Ð¹": 37129,
  "ÐµÐ½ÑģÐºÐ¾Ð¼": 40515,
  "ÐµÐ½ÑģÑĤÐ²Ð°": 29997,
  "ÐµÐ½ÑģÑĤÐ²Ð¾": 28597,
  "ÐµÐ½ÑĤ": 645,
  "ÐµÐ½ÑĤÐ°": 1321,
  "ÐµÐ½ÑĤÐ°Ð±ÐµÐ»ÑĮ": 36124,
  "ÐµÐ½ÑĤÐ°Ð¼": 18249,
  "ÐµÐ½ÑĤÐ°Ð¼Ð¸": 9534,
  "ÐµÐ½ÑĤÐ³ÐµÐ½": 25149,
  "ÐµÐ½ÑĤÐµ": 11186,
  "ÐµÐ½ÑĤÐ¸": 3015,
  "ÐµÐ½ÑĤÐ¸Ð¹": 34978,
  "ÐµÐ½ÑĤÐ¸Ð¼ÐµÐ½ÑĤ": 38786,
  "ÐµÐ½ÑĤÐ»ÑĮ": 17589,
  "ÐµÐ½ÑĤÐ¾Ð²": 2155,
  "ÐµÐ½ÑĤÐ¾Ð¼": 5349,
  "ÐµÐ½ÑĤÑĥ": 6137,
  "ÐµÐ½ÑĤÑĭ": 3056,
  "ÐµÐ½Ñĥ": 15194,
  "ÐµÐ½ÑĨÐµÐ²": 39638,
  "ÐµÐ½ÑĨÐ¸Ð¸": 17594,
  "ÐµÐ½ÑĨÐ¸Ñİ": 44000,
  "ÐµÐ½ÑĨÐ¸Ñı": 36380,
  "ÐµÐ½Ñĭ": 1007,
  "ÐµÐ½ÑĭÐµ": 27630,
  "ÐµÐ½ÑĭÐ¹": 28942,
  "ÐµÐ½ÑĭÐ¼": 17671,
  "ÐµÐ½ÑĭÐ¼Ð¸": 22126,
  "ÐµÐ½ÑĭÑħ": 33047,
  "ÐµÐ½ÑĮ": 522,
  "ÐµÐ½ÑĮÐµ": 5929,
  "ÐµÐ½ÑĮÐµÐ²": 46666,
  "ÐµÐ½ÑĮÐµÐ¼": 36944,
  "ÐµÐ½ÑĮÐºÐ°": 9653,
  "ÐµÐ½ÑĮÐºÐ°Ñı": 12434,
  "ÐµÐ½ÑĮÐºÐ¸": 25042,
  "ÐµÐ½ÑĮÐºÐ¸Ðµ": 16953,
  "ÐµÐ½ÑĮÐºÐ¸Ð¹": 9852,
  "ÐµÐ½ÑĮÐºÐ¸Ð¼": 34172,
  "ÐµÐ½ÑĮÐºÐ¸Ñħ": 28142,
  "ÐµÐ½ÑĮÐºÐ¾": 8631,
  "ÐµÐ½ÑĮÐºÐ¾Ð³Ð¾": 30541,
  "ÐµÐ½ÑĮÐºÐ¾Ðµ": 27649,
  "ÐµÐ½ÑĮÐºÐ¾Ð¹": 19265,
  "ÐµÐ½ÑĮÐºÑĥ": 43487,
  "ÐµÐ½ÑĮÐºÑĥÑİ": 28868,
  "ÐµÐ½ÑĮÑĪÐµ": 20167,
  "ÐµÐ½ÑĮÑİ": 6758,
  "ÐµÐ½ÑĮÑı": 11444,
  "ÐµÐ½Ñİ": 36837,
  "ÐµÐ½Ñı": 3795,
  "ÐµÐ¾": 41813,
  "ÐµÐ¿": 1994,
  "ÐµÑĢ": 320,
  "ÐµÑĢÐ°": 665,
  "ÐµÑĢÐ°Ð¼": 14958,
  "ÐµÑĢÐ°Ð¼Ð¸": 7923,
  "ÐµÑĢÐ°ÑĤÑĥÑĢ": 29914,
  "ÐµÑĢÐ°Ñħ": 16694,
  "ÐµÑĢÐ±": 1991,
  "ÐµÑĢÐ±Ð°": 18888,
  "ÐµÑĢÐ±Ð°Ð¹": 12225,
  "ÐµÑĢÐ±Ð°Ð¹Ð´Ð¶": 16069,
  "ÐµÑĢÐ±Ð°Ð¹Ð´Ð¶Ð°Ð½Ð°": 30364,
  "ÐµÑĢÐ±ÐµÑĢ": 41899,
  "ÐµÑĢÐ±ÑĥÑĢ": 2953,
  "ÐµÑĢÐ²": 37472,
  "ÐµÑĢÐ²Ð°": 35173,
  "ÐµÑĢÐ²ÐµÑĢ": 35987,
  "ÐµÑĢÐ´": 12463,
  "ÐµÑĢÐ´Ðµ": 38082,
  "ÐµÑĢÐµ": 423,
  "ÐµÑĢÐµÐ±Ð¾Ð¹": 47535,
  "ÐµÑĢÐµÐ²": 7521,
  "ÐµÑĢÐµÐ¶": 7152,
  "ÐµÑĢÐµÐ·": 1107,
  "ÐµÑĢÐµÐ¹": 6753,
  "ÐµÑĢÐµÐº": 28358,
  "ÐµÑĢÐµÐ¼": 11399,
  "ÐµÑĢÐµÐ¼Ðµ": 37494,
  "ÐµÑĢÐµÐ¼ÐµÑĤ": 37367,
  "ÐµÑĢÐµÐ¼Ð¸": 41266,
  "ÐµÑĢÐµÐ¼Ð¾": 9009,
  "ÐµÑĢÐµÐ¼Ð¾Ð½": 30487,
  "ÐµÑĢÐµÐ¼ÑģÑı": 24315,
  "ÐµÑĢÐµÑĤ": 15946,
  "ÐµÑĢÐµÑĤÑģÑı": 31237,
  "ÐµÑĢÐµÑĤÑĮ": 9831,
  "ÐµÑĢÐµÑı": 28446,
  "ÐµÑĢÐ¶": 8469,
  "ÐµÑĢÐ¸": 1633,
  "ÐµÑĢÐ¸Ðµ": 24251,
  "ÐµÑĢÐ¸ÐµÐ¼": 45165,
  "ÐµÑĢÐ¸Ð½": 49063,
  "ÐµÑĢÐ¸ÑĤÑĮ": 5615,
  "ÐµÑĢÐ¸Ñı": 16351,
  "ÐµÑĢÐº": 2688,
  "ÐµÑĢÐºÐ°": 24442,
  "ÐµÑĢÐºÐ²Ð¸": 5111,
  "ÐµÑĢÐºÐ¸": 19611,
  "ÐµÑĢÐºÐ¾Ð²": 4589,
  "ÐµÑĢÐºÑĥ": 15676,
  "ÐµÑĢÐ½Ð°": 4042,
  "ÐµÑĢÐ½Ð°Ð½": 32195,
  "ÐµÑĢÐ½Ð°ÑĤÐ¾ÑĢ": 21157,
  "ÐµÑĢÐ½Ð°ÑĤÐ¾ÑĢÐ°": 36810,
  "ÐµÑĢÐ½Ð°Ñı": 35619,
  "ÐµÑĢÐ½Ð¾": 9056,
  "ÐµÑĢÐ½Ð¾Ð³Ð¾": 35164,
  "ÐµÑĢÐ½Ð¾Ðµ": 43485,
  "ÐµÑĢÐ½Ð¾Ð¹": 32521,
  "ÐµÑĢÐ½ÑĭÐµ": 31339,
  "ÐµÑĢÐ½ÑĭÐ¹": 23645,
  "ÐµÑĢÐ½ÑĭÐ¼": 46403,
  "ÐµÑĢÐ½ÑĭÑħ": 34515,
  "ÐµÑĢÐ¾": 1960,
  "ÐµÑĢÐ¾Ð²": 2477,
  "ÐµÑĢÐ¾Ð¹": 47231,
  "ÐµÑĢÐ¾Ð¼": 4309,
  "ÐµÑĢÐ¾Ð½": 39971,
  "ÐµÑĢÐ¾ÑıÑĤ": 41456,
  "ÐµÑĢÐ¾ÑıÑĤÐ½Ð¾": 25838,
  "ÐµÑĢÐ¿": 7027,
  "ÐµÑĢÑĢÐ¸": 23161,
  "ÐµÑĢÑĢÐ¾ÑĢÐ¸ÑģÑĤÐ¸": 36731,
  "ÐµÑĢÑģ": 23682,
  "ÐµÑĢÑģÐ¸": 47015,
  "ÐµÑĢÑģÐºÐ¸Ð¹": 42725,
  "ÐµÑĢÑģÐºÐ¸Ñħ": 40616,
  "ÐµÑĢÑģÐºÐ¾Ð³Ð¾": 44452,
  "ÐµÑĢÑģÐºÐ¾Ð¹": 29077,
  "ÐµÑĢÑĤ": 1359,
  "ÐµÑĢÑĤÐ°": 14722,
  "ÐµÑĢÑĤÐ²": 14462,
  "ÐµÑĢÑĤÐ¾Ð¹": 44126,
  "ÐµÑĢÑĤÑĭ": 23089,
  "ÐµÑĢÑĥ": 4276,
  "ÐµÑĢÑĥÑģÐ°Ð»": 14648,
  "ÐµÑĢÑĥÑĤ": 46958,
  "ÐµÑĢÑĥÑĤÑģÑı": 44572,
  "ÐµÑĢÑĨÐ°": 21967,
  "ÐµÑĢÑĭ": 1952,
  "ÐµÑĢÑĮ": 26461,
  "ÐµÑĢÑĮÐµÐ·": 35160,
  "ÐµÑĢÑı": 47183,
  "ÐµÑģ": 611,
  "ÐµÑģÐ°": 12275,
  "ÐµÑģÐµÐ´": 6482,
  "ÐµÑģÐ»Ð¸": 10767,
  "ÐµÑģÐ¾": 11527,
  "ÐµÑģÐ¾Ð¾Ð±ÑĢÐ°Ð·": 17194,
  "ÐµÑģÑģ": 1792,
  "ÐµÑģÑģÐ°": 44870,
  "ÐµÑģÑģÐ¾ÑĢ": 22270,
  "ÐµÑģÑĤ": 2188,
  "ÐµÑģÑĤÐµ": 26666,
  "ÐµÑģÑĤÐ¸": 2656,
  "ÐµÑģÑĤÐ¸ÑĤÐµÐ»ÑĮ": 27684,
  "ÐµÑģÑĤÐ½Ð¾": 12774,
  "ÐµÑģÑĤÑĢ": 26178,
  "ÐµÑģÑĤÑĮ": 6294,
  "ÐµÑģÑĥ": 49184,
  "ÐµÑģÑĥÑį": 30874,
  "ÐµÑģÑı": 14076,
  "ÐµÑĤ": 305,
  "ÐµÑĤÐ°": 871,
  "ÐµÑĤÐ°Ð¼Ð¸": 9832,
  "ÐµÑĤÐ°ÑĤÑĮ": 36279,
  "ÐµÑĤÐ°Ñħ": 13021,
  "ÐµÑĤÐµ": 781,
  "ÐµÑĤÐµÑĢÐ±ÑĥÑĢ": 4264,
  "ÐµÑĤÐµÑģÑĮ": 4942,
  "ÐµÑĤÐµÑħ": 46417,
  "ÐµÑĤÐ¸": 2439,
  "ÐµÑĤÐ¸ÐºÐ°": 25323,
  "ÐµÑĤÐ¸ÐºÐ¸": 13755,
  "ÐµÑĤÐ¸ÑĩÐµÑģÐº": 4738,
  "ÐµÑĤÐºÐ°": 34710,
  "ÐµÑĤÐºÐ¸": 21346,
  "ÐµÑĤÐºÑĥ": 33106,
  "ÐµÑĤÐ¾Ð²": 6464,
  "ÐµÑĤÐ¾Ð¼": 8328,
  "ÐµÑĤÑĢÐ°": 45897,
  "ÐµÑĤÑĢÐ°Ð¶": 40621,
  "ÐµÑĤÑĢÐ¸": 41208,
  "ÐµÑĤÑĢÐ¾Ð²": 16265,
  "ÐµÑĤÑģÑı": 484,
  "ÐµÑĤÑĤ": 27718,
  "ÐµÑĤÑĤÐ°": 28621,
  "ÐµÑĤÑĤÐ¸": 34648,
  "ÐµÑĤÑĥ": 6629,
  "ÐµÑĤÑĭ": 1254,
  "ÐµÑĤÑĮ": 1380,
  "ÐµÑĤÑĮÑģÑı": 20183,
  "ÐµÑĦ": 11172,
  "ÐµÑħ": 1521,
  "ÐµÑħÐ°": 8897,
  "ÐµÑħÐ°Ð²": 24591,
  "ÐµÑħÐ°Ð»": 3937,
  "ÐµÑħÐ°Ð»Ð°": 7349,
  "ÐµÑħÐ°Ð»Ð¸": 5468,
  "ÐµÑħÐ°ÑĤÑĮ": 5339,
  "ÐµÑĨ": 1577,
  "ÐµÑĨÐºÐ¸Ð¹": 43998,
  "ÐµÑĩÐ°": 10385,
  "ÐµÑĪ": 43276,
  "ÐµÑĪÑĮ": 1048,
  "ÐµÑĪÑĮÑģÑı": 5001,
  "ÐµÑīÐµ": 43264,
  "ÐµÑİ": 32480,
  "ÐµÑı": 10997,
  "Ð¶": 313,
  "Ð¶Ð°": 626,
  "Ð¶Ð°Ð²": 9213,
  "Ð¶Ð°ÐµÑĤ": 12977,
  "Ð¶Ð°ÐµÑĤÑģÑı": 11698,
  "Ð¶Ð°Ð¹": 3423,
  "Ð¶Ð°Ð¹ÑĤÐµ": 39913,
  "Ð¶Ð°Ð»": 1646,
  "Ð¶Ð°Ð»Ð°": 4583,
  "Ð¶Ð°Ð»Ð°ÑģÑĮ": 50106,
  "Ð¶Ð°Ð»Ð¸": 4667,
  "Ð¶Ð°Ð»Ð¸ÑģÑĮ": 40485,
  "Ð¶Ð°Ð»Ð¾": 10262,
  "Ð¶Ð°Ð»ÑģÑı": 37395,
  "Ð¶Ð°Ð¼Ð¸": 18975,
  "Ð¶Ð°Ð½": 17028,
  "Ð¶Ð°Ð½Ð¸Ðµ": 28248,
  "Ð¶Ð°ÑĢ": 31502,
  "Ð¶Ð°ÑĤ": 25002,
  "Ð¶Ð°ÑĤÑĮ": 1676,
  "Ð¶Ð°ÑĤÑĮÑģÑı": 11120,
  "Ð¶Ð°Ñħ": 13001,
  "Ð¶Ð°ÑİÑĤ": 20555,
  "Ð¶Ð°ÑİÑĤÑģÑı": 30990,
  "Ð¶Ð°Ñı": 13577,
  "Ð¶Ð´": 900,
  "Ð¶Ð´Ð°": 2254,
  "Ð¶Ð´Ð°ÐµÑĤ": 8801,
  "Ð¶Ð´Ð°Ð½": 45905,
  "Ð¶Ð´Ð°ÑĤÑĮ": 14177,
  "Ð¶Ð´Ð°ÑİÑĤ": 10033,
  "Ð¶Ð´Ð°Ñı": 6611,
  "Ð¶Ð´Ðµ": 15086,
  "Ð¶Ð´ÐµÐ½Ð¸Ðµ": 10794,
  "Ð¶Ð´ÐµÐ½Ð¸Ð¹": 39364,
  "Ð¶Ð´ÐµÐ½Ð¸Ñı": 10463,
  "Ð¶Ð´Ð¾Ð¹": 13271,
  "Ð¶Ð´Ñĥ": 1058,
  "Ð¶Ð´Ñĭ": 1289,
  "Ð¶Ð´ÑĭÐ¹": 2085,
  "Ð¶Ðµ": 452,
  "Ð¶ÐµÐ±": 10770,
  "Ð¶ÐµÐ²": 14521,
  "Ð¶ÐµÐ³": 20588,
  "Ð¶ÐµÐ¹": 4559,
  "Ð¶ÐµÐº": 10484,
  "Ð¶ÐµÐ»": 9500,
  "Ð¶ÐµÐ»Ð°": 41265,
  "Ð¶ÐµÐ»ÐµÐ·": 41307,
  "Ð¶ÐµÐ»Ð¾": 27798,
  "Ð¶ÐµÐ¼": 4449,
  "Ð¶ÐµÐ¼ÑģÑı": 39574,
  "Ð¶ÐµÐ½": 1957,
  "Ð¶ÐµÐ½Ð°": 19513,
  "Ð¶ÐµÐ½ÐµÐ´ÐµÐ»ÑĮ": 25924,
  "Ð¶ÐµÐ½Ð¸Ðµ": 3173,
  "Ð¶ÐµÐ½Ð¸ÐµÐ¼": 8498,
  "Ð¶ÐµÐ½Ð¸Ð¸": 4513,
  "Ð¶ÐµÐ½Ð¸Ð¹": 19315,
  "Ð¶ÐµÐ½Ð¸ÑĨÑĭ": 46500,
  "Ð¶ÐµÐ½Ð¸Ñİ": 13287,
  "Ð¶ÐµÐ½Ð¸Ñı": 2973,
  "Ð¶ÐµÐ½Ð½Ð°Ñı": 23885,
  "Ð¶ÐµÐ½Ð½Ð¾": 17712,
  "Ð¶ÐµÐ½Ð½Ð¾Ð³Ð¾": 23392,
  "Ð¶ÐµÐ½Ð½Ð¾Ðµ": 31846,
  "Ð¶ÐµÐ½Ð½Ð¾Ð¹": 17249,
  "Ð¶ÐµÐ½Ð½ÑĥÑİ": 33920,
  "Ð¶ÐµÐ½Ð½ÑĭÐµ": 16725,
  "Ð¶ÐµÐ½Ð½ÑĭÐ¹": 16655,
  "Ð¶ÐµÐ½Ð½ÑĭÐ¼": 22751,
  "Ð¶ÐµÐ½Ð½ÑĭÐ¼Ð¸": 31338,
  "Ð¶ÐµÐ½Ð½ÑĭÑħ": 19677,
  "Ð¶ÐµÐ½Ð¾": 30338,
  "Ð¶ÐµÐ½Ñĭ": 15697,
  "Ð¶ÐµÑĢ": 13011,
  "Ð¶ÐµÑĢÐ°": 16767,
  "Ð¶ÐµÑĢÐµ": 47588,
  "Ð¶ÐµÑģÑĤÐ¾": 22053,
  "Ð¶ÐµÑĤ": 3748,
  "Ð¶ÐµÑĤÐµ": 13545,
  "Ð¶ÐµÑĤÑģÑı": 2269,
  "Ð¶ÐµÑĨ": 46787,
  "Ð¶ÐµÑĩÑĮ": 19890,
  "Ð¶ÐµÑĪÑĮ": 9509,
  "Ð¶Ð¸": 675,
  "Ð¶Ð¸Ð²": 23046,
  "Ð¶Ð¸Ð²Ð°ÐµÑĤ": 41947,
  "Ð¶Ð¸Ð²Ð°Ð½Ð¸Ðµ": 48367,
  "Ð¶Ð¸Ð²Ð°Ð½Ð¸Ñı": 48443,
  "Ð¶Ð¸Ð²Ð°ÑĤÑĮ": 12050,
  "Ð¶Ð¸Ð³Ð°": 17159,
  "Ð¶Ð¸Ðµ": 27058,
  "Ð¶Ð¸Ð·": 23405,
  "Ð¶Ð¸Ð¹": 17846,
  "Ð¶Ð¸Ðº": 34222,
  "Ð¶Ð¸Ð»": 14563,
  "Ð¶Ð¸Ð»Ð¸": 49435,
  "Ð¶Ð¸Ð¼": 2033,
  "Ð¶Ð¸Ð¼Ð°": 10892,
  "Ð¶Ð¸Ð¼Ð°Ñı": 15480,
  "Ð¶Ð¸Ð¼Ð¸": 33889,
  "Ð¶Ð¸Ð½": 21376,
  "Ð¶Ð¸Ð½Ð°": 12346,
  "Ð¶Ð¸Ð½Ðµ": 43911,
  "Ð¶Ð¸Ð½Ñĥ": 30602,
  "Ð¶Ð¸Ð½Ñĭ": 15828,
  "Ð¶Ð¸ÑģÑģ": 7627,
  "Ð¶Ð¸ÑģÑģÐµ": 24194,
  "Ð¶Ð¸ÑģÑģÐµÑĢ": 34489,
  "Ð¶Ð¸ÑģÑĮ": 23733,
  "Ð¶Ð¸ÑĤ": 2746,
  "Ð¶Ð¸ÑĤÐµ": 5150,
  "Ð¶Ð¸ÑĤÐµÑģÑĮ": 41777,
  "Ð¶Ð¸ÑĤÑĮ": 9732,
  "Ð¶Ð¸Ñħ": 32998,
  "Ð¶Ð¸ÑĪÑĮ": 44256,
  "Ð¶ÐºÐ°": 11032,
  "Ð¶ÐºÐ°Ð¼Ð¸": 35364,
  "Ð¶ÐºÐ°Ñħ": 48856,
  "Ð¶ÐºÐµ": 19822,
  "Ð¶ÐºÐ¸": 7840,
  "Ð¶ÐºÐ¾Ð¹": 27192,
  "Ð¶ÐºÑĥ": 9476,
  "Ð¶Ð¼Ð¸ÑĤÐµ": 14465,
  "Ð¶Ð½Ð°": 30333,
  "Ð¶Ð½Ð°Ñı": 11601,
  "Ð¶Ð½ÐµÐµ": 45994,
  "Ð¶Ð½Ð¸Ðº": 29790,
  "Ð¶Ð½Ð¾": 3205,
  "Ð¶Ð½Ð¾Ð³Ð¾": 9406,
  "Ð¶Ð½Ð¾Ðµ": 17780,
  "Ð¶Ð½Ð¾Ð¹": 4422,
  "Ð¶Ð½Ð¾Ð¼": 13983,
  "Ð¶Ð½Ð¾ÑģÑĤÐ¸": 14271,
  "Ð¶Ð½Ð¾ÑģÑĤÑĮ": 15808,
  "Ð¶Ð½ÑĥÑİ": 14137,
  "Ð¶Ð½Ñĭ": 37590,
  "Ð¶Ð½ÑĭÐµ": 6343,
  "Ð¶Ð½ÑĭÐ¹": 5937,
  "Ð¶Ð½ÑĭÐ¼": 13402,
  "Ð¶Ð½ÑĭÐ¼Ð¸": 23264,
  "Ð¶Ð½ÑĭÑħ": 5281,
  "Ð¶Ð¾Ð²": 34483,
  "Ð¶Ð¾Ðº": 35754,
  "Ð¶Ð¾ÑĢ": 43895,
  "Ð¶ÑģÐºÐ¾Ð³Ð¾": 33596,
  "Ð¶Ñĥ": 1744,
  "Ð¶ÑĥÑĢ": 9028,
  "Ð¶ÑĥÑģÑĮ": 16500,
  "Ð¶ÑĥÑĤ": 10304,
  "Ð¶ÑĥÑĤÑģÑı": 13471,
  "Ð¶ÑĥÑİ": 47146,
  "Ð¶ÑĮ": 24364,
  "Ð·": 288,
  "Ð·Ð°": 431,
  "Ð·Ð°Ð²": 20797,
  "Ð·Ð°Ð²Ð¸Ñģ": 18077,
  "Ð·Ð°Ð²Ð¾Ð´": 37679,
  "Ð·Ð°Ð²ÑĤÑĢÐ°": 25940,
  "Ð·Ð°Ð´": 2011,
  "Ð·Ð°Ð´Ð¸": 9995,
  "Ð·Ð°Ð´Ð¾Ð»Ð³Ð¾": 22476,
  "Ð·Ð°ÐµÑĤ": 13815,
  "Ð·Ð°Ð¸Ð¼": 37219,
  "Ð·Ð°Ð¹": 19916,
  "Ð·Ð°Ð¹Ð½": 30603,
  "Ð·Ð°Ðº": 8665,
  "Ð·Ð°ÐºÐ°Ð·": 42244,
  "Ð·Ð°ÐºÐ¾Ð½": 40242,
  "Ð·Ð°Ð»": 18758,
  "Ð·Ð°Ð»Ð°": 34233,
  "Ð·Ð°Ð»Ð¸": 41107,
  "Ð·Ð°Ð¼": 6845,
  "Ð·Ð°Ð¼Ð¸": 7899,
  "Ð·Ð°Ð½": 18301,
  "Ð·Ð°Ð½Ð°": 36706,
  "Ð·Ð°Ð½Ð¸Ðµ": 39529,
  "Ð·Ð°Ð½Ð¸Ñı": 27802,
  "Ð·Ð°Ð¿": 4354,
  "Ð·Ð°Ð¿Ð°Ð´": 14099,
  "Ð·Ð°Ð¿Ð°Ð´Ðµ": 31829,
  "Ð·Ð°Ð¿Ð°Ð´Ð½Ð¾Ð¹": 48128,
  "Ð·Ð°Ð¿Ð°Ð´Ñĥ": 41579,
  "Ð·Ð°Ð¿Ð½Ð¾": 15540,
  "Ð·Ð°ÑĢ": 6960,
  "Ð·Ð°ÑĤÐ¾ÑĢ": 29303,
  "Ð·Ð°ÑĤÑĮ": 2459,
  "Ð·Ð°Ñħ": 5107,
  "Ð·Ð°ÑĨÐ¸ÐµÐ¹": 18341,
  "Ð·Ð°ÑĨÐ¸Ð¸": 1640,
  "Ð·Ð°ÑĨÐ¸Ð¹": 34693,
  "Ð·Ð°ÑĨÐ¸Ñİ": 8902,
  "Ð·Ð°ÑĨÐ¸Ñı": 4504,
  "Ð·Ð°ÑīÐ¸ÑĤ": 10336,
  "Ð·Ð°ÑīÐ¸ÑĤÐ½Ð¸Ðº": 49812,
  "Ð·Ð°ÑİÑĤ": 20973,
  "Ð·Ð°Ñı": 22380,
  "Ð·Ð²": 10499,
  "Ð·Ð²ÐµÐ·Ð´": 41775,
  "Ð·Ð´": 12829,
  "Ð·Ð´ÐµÑģÑĮ": 49600,
  "Ð·Ð´ÑĢÐ°Ð²": 40414,
  "Ð·Ðµ": 4141,
  "Ð·ÐµÐ¹": 47121,
  "Ð·ÐµÐ»": 25038,
  "Ð·ÐµÐ»ÐµÐ½": 16744,
  "Ð·ÐµÐ»ÑĮ": 43238,
  "Ð·ÐµÐ»Ñĳ": 48461,
  "Ð·ÐµÐ¼": 4379,
  "Ð·ÐµÐ½": 13226,
  "Ð·ÐµÑĢ": 15599,
  "Ð·ÐµÑĢÐ°": 45881,
  "Ð·Ð¸": 848,
  "Ð·Ð¸Ð°ÑĤ": 19146,
  "Ð·Ð¸Ð²": 14783,
  "Ð·Ð¸Ð´Ð¸": 18010,
  "Ð·Ð¸Ð´Ð¸ÑĥÐ¼Ð°": 22696,
  "Ð·Ð¸ÐµÐ¹": 20425,
  "Ð·Ð¸Ð¸": 3199,
  "Ð·Ð¸Ð¹": 11314,
  "Ð·Ð¸Ðº": 46764,
  "Ð·Ð¸Ð»": 38879,
  "Ð·Ð¸Ð»Ð°": 24614,
  "Ð·Ð¸Ð»Ð°ÑģÑĮ": 18274,
  "Ð·Ð¸Ð»Ð¸": 23593,
  "Ð·Ð¸Ð»Ð¸ÑģÑĮ": 19255,
  "Ð·Ð¸Ð¼": 41818,
  "Ð·Ð¸Ð½": 4029,
  "Ð·Ð¸Ð½Ð°": 12469,
  "Ð·Ð¸Ð½Ð¾": 21148,
  "Ð·Ð¸Ð½Ñĭ": 18488,
  "Ð·Ð¸Ð½ÑĮ": 39616,
  "Ð·Ð¸Ð¾Ð½": 10962,
  "Ð·Ð¸ÑĢÐ°Ñı": 33278,
  "Ð·Ð¸ÑĢÐ¾Ð²Ð°ÑĤÑĮ": 12703,
  "Ð·Ð¸ÑĢÑĥÐµÑĤ": 43312,
  "Ð·Ð¸Ñģ": 9054,
  "Ð·Ð¸ÑĤ": 22700,
  "Ð·Ð¸ÑĤÑĮÑģÑı": 21778,
  "Ð·Ð¸Ñİ": 10300,
  "Ð·Ð¸Ñı": 8253,
  "Ð·Ð»Ð°": 31863,
  "Ð·Ð¼": 9351,
  "Ð·Ð¼Ð°": 8323,
  "Ð·Ð¼Ðµ": 32707,
  "Ð·Ð¼Ð¾Ð¼": 26763,
  "Ð·Ð¼Ñĥ": 33914,
  "Ð·Ð½Ð°": 885,
  "Ð·Ð½Ð°ÐºÐ¾Ð¼": 17354,
  "Ð·Ð½Ð°Ð½": 40876,
  "Ð·Ð½Ð°ÑĤÑĮ": 49861,
  "Ð·Ð½Ð°Ñĩ": 22796,
  "Ð·Ð½Ð°ÑĩÐµÐ½Ð¸Ñı": 49802,
  "Ð·Ð¾": 10320,
  "Ð·Ð¾Ð²": 1999,
  "Ð·Ð¾Ð²Ð°ÑĤÑĮ": 42426,
  "Ð·Ð¾Ð²Ð¾Ð³Ð¾": 43811,
  "Ð·Ð¾Ð¹": 41236,
  "Ð·Ð¾Ð»Ð¾ÑĤ": 48276,
  "Ð·Ð¾Ð¼": 27877,
  "Ð·Ð¾Ð½": 13924,
  "Ð·Ð¾Ð½Ð°": 45259,
  "Ð·Ð¾ÑĢ": 7157,
  "Ð·Ð¾ÑĢÐ°": 11779,
  "Ð·Ð¾ÑĤÐµÑĢÐ¸": 43735,
  "Ð·Ð¾ÑĦ": 31884,
  "Ð·Ñĥ": 6637,
  "Ð·ÑĥÑĢ": 28529,
  "Ð·Ñĭ": 936,
  "Ð·ÑĭÐº": 20586,
  "Ð·ÑĮ": 5562,
  "Ð·Ñİ": 24955,
  "Ð·Ñı": 2131,
  "Ð·ÑıÐ½": 39620,
  "Ð¸": 265,
  "Ð¸Ð°ÑĤ": 13219,
  "Ð¸Ð±": 1497,
  "Ð¸Ð±ÐµÑĢ": 20333,
  "Ð¸Ð±ÐµÑĤ": 42175,
  "Ð¸Ð±Ð»ÐµÐ¹": 25580,
  "Ð¸Ð±Ð»Ð¸": 4711,
  "Ð¸Ð±Ð¾Ð»ÐµÐµ": 3439,
  "Ð¸Ð±Ð¾Ð»ÑĮ": 13491,
  "Ð¸Ð²": 743,
  "Ð¸Ð²Ð°ÐµÑĤ": 9137,
  "Ð¸Ð²Ð°ÐµÑĤÑģÑı": 21726,
  "Ð¸Ð²Ð°Ð»": 6310,
  "Ð¸Ð²Ð°Ð»Ð°": 12321,
  "Ð¸Ð²Ð°Ð»Ð°ÑģÑĮ": 27992,
  "Ð¸Ð²Ð°Ð»Ð¸": 7092,
  "Ð¸Ð²Ð°Ð»Ð¸ÑģÑĮ": 18360,
  "Ð¸Ð²Ð°Ð»Ð¾": 18564,
  "Ð¸Ð²Ð°Ð»ÑģÑı": 17451,
  "Ð¸Ð²Ð°ÑĤÑĮ": 7726,
  "Ð¸Ð²Ð°ÑĤÑĮÑģÑı": 48969,
  "Ð¸Ð²Ð°ÑİÑĤ": 16506,
  "Ð¸Ð²Ð°Ñı": 20582,
  "Ð¸Ð²Ñĥ": 34075,
  "Ð¸Ð²ÑĪÐ°Ñı": 27723,
  "Ð¸Ð²ÑĪÐ°ÑıÑģÑı": 41698,
  "Ð¸Ð²ÑĪÐµÐ³Ð¾": 20202,
  "Ð¸Ð²ÑĪÐµÐ³Ð¾ÑģÑı": 30246,
  "Ð¸Ð²ÑĪÐµÐµ": 45411,
  "Ð¸Ð²ÑĪÐµÐ¹": 25942,
  "Ð¸Ð²ÑĪÐµÐ¹ÑģÑı": 36627,
  "Ð¸Ð²ÑĪÐ¸Ðµ": 19417,
  "Ð¸Ð²ÑĪÐ¸ÐµÑģÑı": 25536,
  "Ð¸Ð²ÑĪÐ¸Ð¹": 8694,
  "Ð¸Ð²ÑĪÐ¸Ð¹ÑģÑı": 16786,
  "Ð¸Ð²ÑĪÐ¸Ð¼": 37549,
  "Ð¸Ð²ÑĪÐ¸ÑģÑĮ": 7678,
  "Ð¸Ð²ÑĪÐ¸Ñħ": 17941,
  "Ð¸Ð²ÑĪÐ¸ÑħÑģÑı": 25172,
  "Ð¸Ð²ÑĪÑĥÑİ": 48213,
  "Ð¸Ð³": 2711,
  "Ð¸Ð³ÑĢÐ°": 4404,
  "Ð¸Ð³ÑĢÑĭ": 7470,
  "Ð¸Ð´": 578,
  "Ð¸Ð´Ð°": 11528,
  "Ð¸Ð´Ð°Ð»": 24773,
  "Ð¸Ð´Ð°Ð»Ð°": 43555,
  "Ð¸Ð´Ð°Ð»Ð¸": 32064,
  "Ð¸Ð´Ðµ": 24832,
  "Ð¸Ð´ÐµÐ¼": 16792,
  "Ð¸Ð´ÐµÐ½": 13043,
  "Ð¸Ð´ÐµÐ½ÑĨÐ¸Ð°Ð»ÑĮ": 27122,
  "Ð¸Ð´ÐµÑĢ": 12397,
  "Ð¸Ð´Ð¶": 14661,
  "Ð¸Ð´Ð¸": 49637,
  "Ð¸Ð´Ð½Ð¾": 24047,
  "Ð¸Ð´Ð¾Ð²": 17108,
  "Ð¸Ð´Ñĭ": 15446,
  "Ð¸Ðµ": 485,
  "Ð¸ÐµÐ²": 7656,
  "Ð¸ÐµÐ²Ð°": 39924,
  "Ð¸ÐµÐ³Ð¾": 35480,
  "Ð¸ÐµÐ¹": 22064,
  "Ð¸ÐµÐ¼": 3593,
  "Ð¸Ð·": 511,
  "Ð¸Ð·Ð²ÐµÑģÑĤ": 13937,
  "Ð¸Ð·Ð²Ð¾Ð´": 6850,
  "Ð¸Ð·ÐµÐ¼": 19235,
  "Ð¸Ð·Ð¸": 9153,
  "Ð¸Ð·Ð¼": 12058,
  "Ð¸Ð·Ð¼Ð°": 14064,
  "Ð¸Ð·Ð¼Ðµ": 31788,
  "Ð¸Ð·Ð¼ÐµÐ½": 40676,
  "Ð¸Ð·Ð¼Ð¾Ð¼": 38314,
  "Ð¸Ð·Ð½Ðµ": 29442,
  "Ð¸Ð·Ð½ÐµÑģ": 15617,
  "Ð¸Ð·Ð½ÐµÑģÐ°": 46685,
  "Ð¸Ð·Ð½ÑĮ": 10893,
  "Ð¸Ð·Ð¾Ð»Ñı": 17214,
  "Ð¸Ð·Ñĥ": 25561,
  "Ð¸Ð·ÑĥÑģÑĤÑĮ": 38697,
  "Ð¸Ð·Ñĭ": 35926,
  "Ð¸Ð¸": 1290,
  "Ð¸Ð¹": 509,
  "Ð¸Ð¹ÑģÐºÐ¾Ð³Ð¾": 41384,
  "Ð¸Ðº": 931,
  "Ð¸ÐºÐ°": 3245,
  "Ð¸ÐºÐ°Ð³Ð¾": 27254,
  "Ð¸ÐºÐ°Ð¼": 47242,
  "Ð¸ÐºÐ°Ð¼Ð¸": 27993,
  "Ð¸ÐºÐ°Ñħ": 43867,
  "Ð¸ÐºÐµ": 7805,
  "Ð¸ÐºÐ¸": 3047,
  "Ð¸ÐºÐ»Ð¸": 20825,
  "Ð¸ÐºÐ¾": 30433,
  "Ð¸ÐºÐ¾Ð²": 10350,
  "Ð¸ÐºÐ¾Ð¹": 36034,
  "Ð¸ÐºÐ¾Ð¼": 22859,
  "Ð¸ÐºÑĥ": 10270,
  "Ð¸Ð»": 364,
  "Ð¸Ð»Ð°": 1154,
  "Ð¸Ð»Ð°Ð½": 14604,
  "Ð¸Ð»Ð°ÑĢ": 37083,
  "Ð¸Ð»Ð°ÑģÑĮ": 2829,
  "Ð¸Ð»Ð°Ñı": 33098,
  "Ð¸Ð»Ðµ": 7507,
  "Ð¸Ð»ÐµÐ²": 32638,
  "Ð¸Ð»ÐµÐ¹": 32442,
  "Ð¸Ð»ÐµÐ¼": 36514,
  "Ð¸Ð»ÐµÐ½": 37826,
  "Ð¸Ð»ÐµÑĤ": 30788,
  "Ð¸Ð»Ð¸": 925,
  "Ð¸Ð»Ð¸ÑģÑĮ": 2602,
  "Ð¸Ð»Ð¸Ñı": 29641,
  "Ð¸Ð»ÐºÐ¸": 36845,
  "Ð¸Ð»Ð»": 8435,
  "Ð¸Ð»Ð»Ð°": 15044,
  "Ð¸Ð»Ð»Ð¸": 8632,
  "Ð¸Ð»Ð¾": 857,
  "Ð¸Ð»Ð¾Ð²": 19937,
  "Ð¸Ð»Ð¾Ð¼": 38583,
  "Ð¸Ð»Ð¾Ñģ": 4791,
  "Ð¸Ð»Ð¾ÑģÐ¾ÑĦ": 24247,
  "Ð¸Ð»Ð¾ÑģÑĮ": 1323,
  "Ð¸Ð»Ð¾ÑĤ": 19828,
  "Ð¸Ð»ÑģÑı": 811,
  "Ð¸Ð»Ñĥ": 26276,
  "Ð¸Ð»ÑĥÑĩ": 18829,
  "Ð¸Ð»Ñĭ": 23790,
  "Ð¸Ð»ÑĮ": 696,
  "Ð¸Ð»ÑĮÐ½Ð°Ñı": 44018,
  "Ð¸Ð»ÑĮÐ½Ð¸Ðº": 33744,
  "Ð¸Ð»ÑĮÐ½Ð¾": 6009,
  "Ð¸Ð»ÑĮÐ½Ð¾Ðµ": 47967,
  "Ð¸Ð»ÑĮÐ½Ð¾Ð¹": 30097,
  "Ð¸Ð»ÑĮÐ½ÑĭÐµ": 30664,
  "Ð¸Ð»ÑĮÐ½ÑĭÐ¹": 23814,
  "Ð¸Ð»ÑĮÐ½ÑĭÑħ": 47775,
  "Ð¸Ð»ÑĮÑı": 27313,
  "Ð¸Ð»ÑĮÑıÑĢÐ´": 49554,
  "Ð¸Ð»Ñİ": 34692,
  "Ð¸Ð»Ñı": 7014,
  "Ð¸Ð¼": 406,
  "Ð¸Ð¼Ð°": 4782,
  "Ð¸Ð¼Ð°Ð½Ð´": 42568,
  "Ð¸Ð¼Ð°Ñı": 13713,
  "Ð¸Ð¼Ðµ": 19033,
  "Ð¸Ð¼ÐµÐ½": 10022,
  "Ð¸Ð¼ÐµÐ½Ð½Ð¾": 49646,
  "Ð¸Ð¼ÐµÐ½Ð¾Ð²": 35061,
  "Ð¸Ð¼Ð¸": 982,
  "Ð¸Ð¼Ð¾": 878,
  "Ð¸Ð¼Ð¾Ð²": 21710,
  "Ð¸Ð¼Ð¾Ð²Ð°": 39136,
  "Ð¸Ð¼Ð¾Ð³Ð¾": 13928,
  "Ð¸Ð¼Ð¾Ðµ": 13971,
  "Ð¸Ð¼Ð¾Ð¹": 8809,
  "Ð¸Ð¼Ð¾Ð¼": 46142,
  "Ð¸Ð¼Ð¾ÑģÑĤÐ¸": 2739,
  "Ð¸Ð¼Ð¾ÑģÑĤÑĮ": 3030,
  "Ð¸Ð¼Ð¾ÑģÑĤÑĮÑİ": 14558,
  "Ð¸Ð¼ÑģÑı": 5898,
  "Ð¸Ð¼Ñĥ": 48478,
  "Ð¸Ð¼ÑĥÑīÐµ": 5234,
  "Ð¸Ð¼ÑĥÑīÐµÑģÑĤÐ²": 27889,
  "Ð¸Ð¼ÑĥÑİ": 25798,
  "Ð¸Ð¼Ñĭ": 15298,
  "Ð¸Ð¼ÑĭÐµ": 11359,
  "Ð¸Ð¼ÑĭÐ¹": 10823,
  "Ð¸Ð¼ÑĭÐ¼": 12418,
  "Ð¸Ð¼ÑĭÐ¼Ð¸": 23728,
  "Ð¸Ð¼ÑĭÑħ": 9522,
  "Ð¸Ð½": 375,
  "Ð¸Ð½Ð°": 884,
  "Ð¸Ð½Ð°Ð»": 10224,
  "Ð¸Ð½Ð°Ð¼Ð¸": 6117,
  "Ð¸Ð½Ð°Ð¼Ð¸ÐºÐ°": 50079,
  "Ð¸Ð½Ð°Ð¼Ð¾": 12628,
  "Ð¸Ð½Ð°Ð½": 2738,
  "Ð¸Ð½Ð°ÑĤÑĮ": 40036,
  "Ð¸Ð½Ð°Ñħ": 21771,
  "Ð¸Ð½Ð°Ñı": 15932,
  "Ð¸Ð½Ð²Ð°Ð»Ð¸": 47147,
  "Ð¸Ð½Ð³": 2976,
  "Ð¸Ð½Ð³Ð°": 11365,
  "Ð¸Ð½Ð³Ð²Ð¸": 25525,
  "Ð¸Ð½Ð³Ð¸": 36433,
  "Ð¸Ð½Ð³Ð¾Ð²": 46749,
  "Ð¸Ð½Ð³ÑĤÐ¾Ð½": 32446,
  "Ð¸Ð½Ð³Ñĥ": 33423,
  "Ð¸Ð½Ð´": 23270,
  "Ð¸Ð½Ð´Ð°": 43207,
  "Ð¸Ð½Ð´Ñĥ": 32231,
  "Ð¸Ð½Ðµ": 1153,
  "Ð¸Ð½ÐµÐ¹": 20684,
  "Ð¸Ð½ÐµÑĤ": 36466,
  "Ð¸Ð½ÐµÑĨ": 28410,
  "Ð¸Ð½Ð¸": 7989,
  "Ð¸Ð½Ðº": 10379,
  "Ð¸Ð½ÐºÐ°": 12021,
  "Ð¸Ð½ÐºÐ°Ð¼Ð¸": 44175,
  "Ð¸Ð½ÐºÐµ": 25361,
  "Ð¸Ð½ÐºÐ¸": 9338,
  "Ð¸Ð½ÐºÐ¾Ð¹": 36705,
  "Ð¸Ð½ÐºÑĥ": 10746,
  "Ð¸Ð½Ð¾": 14573,
  "Ð¸Ð½Ð¾Ð²": 2506,
  "Ð¸Ð½Ð¾Ð³Ð¾": 49469,
  "Ð¸Ð½Ð¾Ð¹": 2344,
  "Ð¸Ð½Ð¾Ðº": 14641,
  "Ð¸Ð½Ð¾Ð¼": 15421,
  "Ð¸Ð½ÑģÐºÐ°Ñı": 19767,
  "Ð¸Ð½ÑģÐºÐ¸Ðµ": 24817,
  "Ð¸Ð½ÑģÐºÐ¸Ð¹": 10502,
  "Ð¸Ð½ÑģÐºÐ¸Ñħ": 34131,
  "Ð¸Ð½ÑģÐºÐ¾Ð³Ð¾": 10706,
  "Ð¸Ð½ÑģÐºÐ¾Ðµ": 42387,
  "Ð¸Ð½ÑģÐºÐ¾Ð¹": 14494,
  "Ð¸Ð½ÑģÐºÐ¾Ð¼": 29875,
  "Ð¸Ð½ÑģÐ¿ÐµÐº": 42837,
  "Ð¸Ð½ÑģÑĤÐ²Ð¾": 10093,
  "Ð¸Ð½ÑĤÐµ": 45713,
  "Ð¸Ð½ÑĤÐµÑĢ": 24022,
  "Ð¸Ð½ÑĤÐµÑĢÐµ": 3827,
  "Ð¸Ð½ÑĤÐµÑĢÐµÑģ": 11984,
  "Ð¸Ð½ÑĤÐµÑĢÐµÑģÐ½Ð¾": 42126,
  "Ð¸Ð½ÑĤÐµÑĢÐµÑģÐ¾Ð²": 5046,
  "Ð¸Ð½ÑĤÐµÑĢÐµÑģÑĥ": 40493,
  "Ð¸Ð½ÑĤÐµÑĢÐ½Ð°": 41396,
  "Ð¸Ð½Ñĥ": 888,
  "Ð¸Ð½ÑĥÐ²": 16050,
  "Ð¸Ð½ÑĥÐ»": 7706,
  "Ð¸Ð½ÑĥÐ»Ð°": 17707,
  "Ð¸Ð½ÑĥÐ»Ð¸": 33552,
  "Ð¸Ð½ÑĥÐ»ÑģÑı": 31835,
  "Ð¸Ð½ÑĥÑĤ": 16810,
  "Ð¸Ð½ÑĥÑĤÑĮ": 19172,
  "Ð¸Ð½ÑĥÑıÑģÑĮ": 49115,
  "Ð¸Ð½ÑĦÐ¾ÑĢÐ¼Ð°": 22333,
  "Ð¸Ð½Ñĭ": 1730,
  "Ð¸Ð½ÑĮ": 15591,
  "Ð¸Ð½Ñİ": 47302,
  "Ð¸Ð½Ñı": 13250,
  "Ð¸ÑĢ": 1395,
  "Ð¸ÑĢÐ°": 1592,
  "Ð¸ÑĢÐ°Ð¹": 49703,
  "Ð¸Ñģ": 711,
  "Ð¸ÑģÐ°": 7900,
  "Ð¸ÑģÐµÐ¹": 45776,
  "Ð¸ÑģÐº": 8903,
  "Ð¸ÑģÐºÐ°": 29171,
  "Ð¸ÑģÐºÐ¸": 17940,
  "Ð¸ÑģÐºÑĥÑģ": 46570,
  "Ð¸ÑģÐ»": 34475,
  "Ð¸ÑģÐ»Ð¾": 17772,
  "Ð¸ÑģÐ¿": 6757,
  "Ð¸ÑģÐ¿Ðµ": 48954,
  "Ð¸ÑģÐ¿Ð¾Ð´": 48493,
  "Ð¸ÑģÐ¿Ð¾Ð»": 23666,
  "Ð¸ÑģÐ¿ÑĭÑĤÐ°": 45491,
  "Ð¸ÑģÑģ": 12545,
  "Ð¸ÑģÑģÐ»ÐµÐ´": 18859,
  "Ð¸ÑģÑģÐ»ÐµÐ´Ð¾Ð²Ð°ÑĤÐµÐ»ÑĮ": 22283,
  "Ð¸ÑģÑĤ": 5952,
  "Ð¸ÑģÑĤÐ¸": 39433,
  "Ð¸ÑģÑĤÐ¸Ð½Ñĥ": 32793,
  "Ð¸ÑģÑĤÐ¾": 12040,
  "Ð¸ÑģÑĤÐ¾Ð²": 26226,
  "Ð¸ÑģÑĤÐ¾ÑĢÐ¸": 25437,
  "Ð¸ÑģÑĤÑĭ": 32908,
  "Ð¸ÑģÑĮ": 28045,
  "Ð¸ÑĤ": 341,
  "Ð¸ÑĤÐ°": 1004,
  "Ð¸ÑĤÐ°Ð¹": 3395,
  "Ð¸ÑĤÐ°Ð¹ÑĤÐµ": 11768,
  "Ð¸ÑĤÐ°Ð¼Ð¸": 10776,
  "Ð¸ÑĤÐ°Ð½Ð°": 10248,
  "Ð¸ÑĤÐ°Ð½Ð¸Ðµ": 26681,
  "Ð¸ÑĤÐ°Ð½Ð¸Ñı": 39898,
  "Ð¸ÑĤÐ°Ð½Ñĭ": 48445,
  "Ð¸ÑĤÐ°ÑĢ": 28837,
  "Ð¸ÑĤÐ°ÑĨÐ¸Ð¸": 20752,
  "Ð¸ÑĤÐ°ÑĨÐ¸Ñı": 29621,
  "Ð¸ÑĤÐ°Ñı": 8568,
  "Ð¸ÑĤÐµ": 927,
  "Ð¸ÑĤÐµÐ±": 30693,
  "Ð¸ÑĤÐµÐº": 5919,
  "Ð¸ÑĤÐµÐ»Ðµ": 39850,
  "Ð¸ÑĤÐµÐ»ÐµÐ¹": 1643,
  "Ð¸ÑĤÐµÐ»ÐµÐ¼": 4963,
  "Ð¸ÑĤÐµÐ»ÐµÐ½": 34405,
  "Ð¸ÑĤÐµÐ»Ð¸": 1947,
  "Ð¸ÑĤÐµÐ»ÑĮ": 574,
  "Ð¸ÑĤÐµÐ»ÑĮÐ½Ð°": 27206,
  "Ð¸ÑĤÐµÐ»ÑĮÐ½Ð°Ñı": 7124,
  "Ð¸ÑĤÐµÐ»ÑĮÐ½ÐµÐµ": 27126,
  "Ð¸ÑĤÐµÐ»ÑĮÐ½Ð¸ÑĨÐ°": 22903,
  "Ð¸ÑĤÐµÐ»ÑĮÐ½Ð¾": 1151,
  "Ð¸ÑĤÐµÐ»ÑĮÐ½Ð¾Ð³Ð¾": 5708,
  "Ð¸ÑĤÐµÐ»ÑĮÐ½Ð¾Ðµ": 5552,
  "Ð¸ÑĤÐµÐ»ÑĮÐ½Ð¾Ð¹": 4699,
  "Ð¸ÑĤÐµÐ»ÑĮÐ½Ð¾Ð¼": 13882,
  "Ð¸ÑĤÐµÐ»ÑĮÐ½Ð¾Ð¼Ñĥ": 27224,
  "Ð¸ÑĤÐµÐ»ÑĮÐ½Ð¾ÑģÑĤÐ¸": 6033,
  "Ð¸ÑĤÐµÐ»ÑĮÐ½Ð¾ÑģÑĤÑĮ": 7142,
  "Ð¸ÑĤÐµÐ»ÑĮÐ½Ð¾ÑģÑĤÑĮÑİ": 19528,
  "Ð¸ÑĤÐµÐ»ÑĮÐ½ÑĥÑİ": 8984,
  "Ð¸ÑĤÐµÐ»ÑĮÐ½Ñĭ": 22103,
  "Ð¸ÑĤÐµÐ»ÑĮÐ½ÑĭÐµ": 4793,
  "Ð¸ÑĤÐµÐ»ÑĮÐ½ÑĭÐ¹": 4523,
  "Ð¸ÑĤÐµÐ»ÑĮÐ½ÑĭÐ¼": 5966,
  "Ð¸ÑĤÐµÐ»ÑĮÐ½ÑĭÐ¼Ð¸": 11956,
  "Ð¸ÑĤÐµÐ»ÑĮÐ½ÑĭÑħ": 5537,
  "Ð¸ÑĤÐµÐ»ÑĮÑģÑĤÐ²Ð°": 9396,
  "Ð¸ÑĤÐµÐ»ÑĮÑģÑĤÐ²Ð¾": 8557,
  "Ð¸ÑĤÐµÐ»Ñİ": 10294,
  "Ð¸ÑĤÐµÐ»Ñı": 1731,
  "Ð¸ÑĤÐµÐ»ÑıÐ¼": 5970,
  "Ð¸ÑĤÐµÐ»ÑıÐ¼Ð¸": 5326,
  "Ð¸ÑĤÐµÐ»ÑıÑħ": 31691,
  "Ð¸ÑĤÐµÑģÑĮ": 4251,
  "Ð¸ÑĤÐµÑĤ": 4396,
  "Ð¸ÑĤÐµÑĤÐ°": 3718,
  "Ð¸ÑĤÐµÑĤÐµ": 10088,
  "Ð¸ÑĤÐµÑĤÑĭ": 40078,
  "Ð¸ÑĤÐµÑħ": 38279,
  "Ð¸ÑĤÐ¸": 1682,
  "Ð¸ÑĤÐ¸Ð²": 9604,
  "Ð¸ÑĤÐ¸Ðº": 30506,
  "Ð¸ÑĤÐ¸ÐºÐ°": 26462,
  "Ð¸ÑĤÐ¸ÐºÐ¸": 33843,
  "Ð¸ÑĤÐ¸Ð¼": 33692,
  "Ð¸ÑĤÐ¸ÑĢÐ¾Ð²Ð°ÑĤÑĮ": 41309,
  "Ð¸ÑĤÐ¸ÑĩÐµÑģÐº": 2457,
  "Ð¸ÑĤÐºÐ¸": 47335,
  "Ð¸ÑĤÐ¾": 23227,
  "Ð¸ÑĤÐ¾Ð²": 7219,
  "Ð¸ÑĤÐ¾Ð³Ð¾": 38120,
  "Ð¸ÑĤÐ¾Ð¹": 23774,
  "Ð¸ÑĤÐ¾Ð¼": 8792,
  "Ð¸ÑĤÑģÑı": 847,
  "Ð¸ÑĤÑĥ": 1306,
  "Ð¸ÑĤÑĥÐ°": 2029,
  "Ð¸ÑĤÑĥÐ°ÑĨÐ¸Ñı": 19444,
  "Ð¸ÑĤÑĥÑĢÐ¸": 49128,
  "Ð¸ÑĤÑĥÑĤ": 4924,
  "Ð¸ÑĤÑĭ": 5782,
  "Ð¸ÑĤÑĭÐµ": 26339,
  "Ð¸ÑĤÑĭÐ¹": 22396,
  "Ð¸ÑĤÑĭÐ¼": 35711,
  "Ð¸ÑĤÑĭÑħ": 29576,
  "Ð¸ÑĤÑĮ": 649,
  "Ð¸ÑĤÑĮÑģÑı": 1920,
  "Ð¸ÑĤÑı": 18139,
  "Ð¸Ñħ": 408,
  "Ð¸ÑħÐ°": 15202,
  "Ð¸ÑĨ": 9052,
  "Ð¸ÑĨÐ°": 18367,
  "Ð¸ÑĨÐµ": 26394,
  "Ð¸ÑĨÐºÐ¸Ð¹": 46193,
  "Ð¸ÑĨÑĥ": 29421,
  "Ð¸ÑĨÑĭ": 11682,
  "Ð¸Ñĩ": 1447,
  "Ð¸ÑĩÐ°": 4254,
  "Ð¸ÑĩÐµÐ¹": 45461,
  "Ð¸ÑĩÐµÐ¼": 27635,
  "Ð¸ÑĩÐµÑģÐº": 1036,
  "Ð¸ÑĩÐµÑģÐºÐ°Ñı": 17826,
  "Ð¸ÑĩÐµÑģÐºÐ¸": 11034,
  "Ð¸ÑĩÐµÑģÐºÐ¸Ðµ": 11397,
  "Ð¸ÑĩÐµÑģÐºÐ¸Ð¹": 13485,
  "Ð¸ÑĩÐµÑģÐºÐ¸Ð¼": 25272,
  "Ð¸ÑĩÐµÑģÐºÐ¸Ð¼Ð¸": 34215,
  "Ð¸ÑĩÐµÑģÐºÐ¸Ñħ": 9836,
  "Ð¸ÑĩÐµÑģÐºÐ¾Ð³Ð¾": 11805,
  "Ð¸ÑĩÐµÑģÐºÐ¾Ðµ": 18793,
  "Ð¸ÑĩÐµÑģÐºÐ¾Ð¹": 10992,
  "Ð¸ÑĩÐµÑģÐºÐ¾Ð¼": 29578,
  "Ð¸ÑĩÐµÑģÐºÑĥÑİ": 30739,
  "Ð¸ÑĩÐ¸": 37742,
  "Ð¸ÑĩÐºÐ¸": 45164,
  "Ð¸ÑĩÐ½Ð¾": 39883,
  "Ð¸ÑĩÐ½Ð¾Ð¹": 49923,
  "Ð¸ÑĩÐ½Ð¾ÑģÑĤÑĮ": 37914,
  "Ð¸ÑĩÐ½ÑĭÐ¹": 32551,
  "Ð¸ÑĩÐ½ÑĭÐ¼": 44416,
  "Ð¸ÑĩÑĥ": 22187,
  "Ð¸ÑĪÑĮ": 8371,
  "Ð¸ÑĪÑĮÑģÑı": 14602,
  "Ð¸ÑīÐµ": 36758,
  "Ð¸Ñİ": 4143,
  "Ð¸Ñı": 746,
  "Ð¸ÑıÐ¼Ð¸": 43473,
  "Ð¹": 295,
  "Ð¹Ð¼": 27169,
  "Ð¹Ð½": 3602,
  "Ð¹Ð¾ÑĢÐº": 38114,
  "Ð¹ÑģÑı": 6800,
  "Ð¹ÑĤÐµ": 1287,
  "Ð¹ÑĤÐµÑģÑĮ": 4854,
  "Ð¹ÑĤÐ¸": 1774,
  "Ðº": 273,
  "ÐºÐ°": 343,
  "ÐºÐ°Ð²": 39753,
  "ÐºÐ°Ð´": 34064,
  "ÐºÐ°Ð´ÐµÐ¼": 4464,
  "ÐºÐ°ÐµÑĤ": 7416,
  "ÐºÐ°ÐµÑĤÑģÑı": 29328,
  "ÐºÐ°Ð¶Ð¸": 37484,
  "ÐºÐ°Ð¶Ð¸ÑĤÐµ": 30513,
  "ÐºÐ°Ð·": 614,
  "ÐºÐ°Ð·Ð°": 1088,
  "ÐºÐ°Ð¹": 28506,
  "ÐºÐ°Ðº": 4743,
  "ÐºÐ°ÐºÐ¸Ðµ": 21761,
  "ÐºÐ°Ð»": 7229,
  "ÐºÐ°Ð»Ð°": 9548,
  "ÐºÐ°Ð»Ð¸": 9714,
  "ÐºÐ°Ð»Ð¸ÑģÑĮ": 49315,
  "ÐºÐ°Ð»Ð¾": 38230,
  "ÐºÐ°Ð»ÑģÑı": 32554,
  "ÐºÐ°Ð»ÑĮ": 21824,
  "ÐºÐ°Ð¼": 1876,
  "ÐºÐ°Ð¼Ð¸": 1082,
  "ÐºÐ°Ð½": 1310,
  "ÐºÐ°Ð½Ð°": 31878,
  "ÐºÐ°Ð½Ð¸Ðµ": 44957,
  "ÐºÐ°Ð½Ð¸Ñı": 38218,
  "ÐºÐ°Ð½Ð¾Ð²": 46587,
  "ÐºÐ°Ð½Ñĭ": 36816,
  "ÐºÐ°Ð½ÑĮÐµ": 43346,
  "ÐºÐ°Ð½ÑĮÑİ": 45158,
  "ÐºÐ°Ð¿": 38093,
  "ÐºÐ°ÑĢ": 3509,
  "ÐºÐ°ÑĢÐ°": 29326,
  "ÐºÐ°ÑĢÑĤ": 45231,
  "ÐºÐ°Ñģ": 10926,
  "ÐºÐ°ÑĤ": 30075,
  "ÐºÐ°ÑĤÐµÑĢÐ¸": 6142,
  "ÐºÐ°ÑĤÐµÑĢÐ¸Ð½": 47064,
  "ÐºÐ°ÑĤÑĮ": 7425,
  "ÐºÐ°ÑĤÑĮÑģÑı": 22406,
  "ÐºÐ°ÑĥÐ½": 16710,
  "ÐºÐ°Ñħ": 1165,
  "ÐºÐ°ÑİÑĤ": 14704,
  "ÐºÐ°ÑİÑĤÑģÑı": 40152,
  "ÐºÐ°Ñı": 2135,
  "ÐºÐ°ÑıÑģÑĮ": 36455,
  "ÐºÐ²": 34082,
  "ÐºÐ²Ð°ÑĢ": 16862,
  "ÐºÐ²Ð°ÑĢÑĤÐ¸": 35649,
  "ÐºÐ²Ð¸": 6739,
  "ÐºÐ²Ð¸Ð·Ð¸": 21318,
  "ÐºÐ³": 35641,
  "ÐºÐµ": 582,
  "ÐºÐµÐ²Ð¸Ñĩ": 36357,
  "ÐºÐµÐ¹": 13086,
  "ÐºÐµÐ»ÑĮ": 37483,
  "ÐºÐµÐ½": 19377,
  "ÐºÐµÐ¿": 19379,
  "ÐºÐµÑĢ": 9058,
  "ÐºÐµÑĢÐ°": 17777,
  "ÐºÐµÑĢÐ¾Ð²": 45002,
  "ÐºÐµÑĢÑĭ": 42209,
  "ÐºÐµÑĤ": 3922,
  "ÐºÐ¸": 382,
  "ÐºÐ¸Ð²": 49758,
  "ÐºÐ¸Ð²Ð°Ñı": 41710,
  "ÐºÐ¸Ð´": 5716,
  "ÐºÐ¸Ðµ": 1775,
  "ÐºÐ¸Ð¹": 1270,
  "ÐºÐ¸Ð»": 32592,
  "ÐºÐ¸Ð¼": 2306,
  "ÐºÐ¸Ð¼Ð¸": 3570,
  "ÐºÐ¸Ð½": 2931,
  "ÐºÐ¸Ð½Ð°": 8053,
  "ÐºÐ¸Ð½Ð¾": 28041,
  "ÐºÐ¸Ð½Ð¾Ð¹": 33818,
  "ÐºÐ¸Ð½Ñģ": 38073,
  "ÐºÐ¸Ð½Ñĥ": 23003,
  "ÐºÐ¸Ð½ÑĭÐ¼": 45340,
  "ÐºÐ¸Ð¿Ð°": 39012,
  "ÐºÐ¸Ð¿ÐµÑĢ": 34544,
  "ÐºÐ¸ÑģÐ»": 27509,
  "ÐºÐ¸ÑĤÐ°Ð¹": 45156,
  "ÐºÐ¸Ñħ": 1580,
  "ÐºÐ¸ÑĪÐµ": 48106,
  "ÐºÐ»": 7515,
  "ÐºÐ»Ð°": 2561,
  "ÐºÐ»Ð°Ð´": 5254,
  "ÐºÐ»Ð°Ñģ": 16024,
  "ÐºÐ»Ð°ÑģÑģ": 24285,
  "ÐºÐ»Ð°ÑģÑģÐ°": 34122,
  "ÐºÐ»Ð°ÑģÑģÑĭ": 46572,
  "ÐºÐ»Ðµ": 28756,
  "ÐºÐ»Ð¸": 7096,
  "ÐºÐ»Ð¾": 25992,
  "ÐºÐ»Ð¾Ð½": 31065,
  "ÐºÐ»ÑĥÐ±": 27475,
  "ÐºÐ»Ñİ": 1446,
  "ÐºÐ¼": 24309,
  "ÐºÐ½ÐµÑĤ": 37043,
  "ÐºÐ½Ð¸": 33784,
  "ÐºÐ½Ð¸ÑģÑĮ": 41106,
  "ÐºÐ½Ð¾Ð²": 4932,
  "ÐºÐ½Ñĥ": 10837,
  "ÐºÐ½ÑĥÐ²": 14711,
  "ÐºÐ½ÑĥÐ²ÑĪÐ¸ÑģÑĮ": 29514,
  "ÐºÐ½ÑĥÐ»": 2345,
  "ÐºÐ½ÑĥÐ»Ð°": 6038,
  "ÐºÐ½ÑĥÐ»Ð°ÑģÑĮ": 23432,
  "ÐºÐ½ÑĥÐ»Ð¸": 15096,
  "ÐºÐ½ÑĥÐ»Ð¸ÑģÑĮ": 30526,
  "ÐºÐ½ÑĥÐ»Ð¾": 20045,
  "ÐºÐ½ÑĥÐ»ÑģÑı": 14431,
  "ÐºÐ½ÑĥÑĤÑĮ": 8438,
  "ÐºÐ½ÑĥÑĤÑĮÑģÑı": 34412,
  "ÐºÐ¾": 405,
  "ÐºÐ¾Ð±": 6444,
  "ÐºÐ¾Ð±ÑĢÐ¸ÑĤÐ°": 8229,
  "ÐºÐ¾Ð²": 523,
  "ÐºÐ¾Ð²Ð°": 3340,
  "ÐºÐ¾Ð²Ð°Ð»": 27891,
  "ÐºÐ¾Ð²Ð°Ð»Ð¸": 45397,
  "ÐºÐ¾Ð²Ð°Ð½Ð¾": 27168,
  "ÐºÐ¾Ð²Ð°ÑĤÑĮ": 19129,
  "ÐºÐ¾Ð²Ð°Ñı": 19431,
  "ÐºÐ¾Ð²Ð¸Ñĩ": 18532,
  "ÐºÐ¾Ð²Ð¸ÑĩÐ°": 27582,
  "ÐºÐ¾Ð²Ð½Ð¸Ðº": 13919,
  "ÐºÐ¾Ð²Ð¾": 8666,
  "ÐºÐ¾Ð²Ð¾Ð³Ð¾": 10043,
  "ÐºÐ¾Ð²Ð¾Ð´": 1884,
  "ÐºÐ¾Ð²Ð¾Ðµ": 19629,
  "ÐºÐ¾Ð²Ð¾Ð¹": 6589,
  "ÐºÐ¾Ð²Ð¾Ð¼": 30558,
  "ÐºÐ¾Ð²ÑģÐºÐ°Ñı": 35897,
  "ÐºÐ¾Ð²ÑģÐºÐ¸Ð¹": 11812,
  "ÐºÐ¾Ð²ÑģÐºÐ¾Ð³Ð¾": 12012,
  "ÐºÐ¾Ð²ÑģÐºÐ¾Ð¹": 30324,
  "ÐºÐ¾Ð²ÑģÐºÐ¾Ð¼": 47170,
  "ÐºÐ¾Ð²Ñĥ": 19137,
  "ÐºÐ¾Ð²ÑĥÑİ": 23674,
  "ÐºÐ¾Ð²Ñĭ": 22943,
  "ÐºÐ¾Ð²ÑĭÐµ": 8205,
  "ÐºÐ¾Ð²ÑĭÐ¹": 10890,
  "ÐºÐ¾Ð²ÑĭÐ¼": 12248,
  "ÐºÐ¾Ð²ÑĭÐ¼Ð¸": 26811,
  "ÐºÐ¾Ð²ÑĭÑħ": 7492,
  "ÐºÐ¾Ð³": 5858,
  "ÐºÐ¾Ð³Ð´Ð°": 24333,
  "ÐºÐ¾Ð³Ð¾": 2035,
  "ÐºÐ¾Ð´": 38291,
  "ÐºÐ¾Ðµ": 2844,
  "ÐºÐ¾Ð·": 48931,
  "ÐºÐ¾Ð¹": 761,
  "ÐºÐ¾Ðº": 28465,
  "ÐºÐ¾Ð»": 10202,
  "ÐºÐ¾Ð»Ð¸": 49582,
  "ÐºÐ¾Ð»ÑĮ": 23417,
  "ÐºÐ¾Ð¼": 635,
  "ÐºÐ¾Ð¼Ð°": 8904,
  "ÐºÐ¾Ð¼Ð°Ð½": 25976,
  "ÐºÐ¾Ð¼ÐµÐ½": 3896,
  "ÐºÐ¾Ð¼Ð¼Ñĥ": 38527,
  "ÐºÐ¾Ð¼Ð¼ÑĥÐ½": 39698,
  "ÐºÐ¾Ð¼Ð½Ð°ÑĤ": 24611,
  "ÐºÐ¾Ð¼Ð¿": 16493,
  "ÐºÐ¾Ð¼Ð¿Ð°Ð½Ð¸Ð¸": 48693,
  "ÐºÐ¾Ð¼Ð¿Ð»ÐµÐº": 39214,
  "ÐºÐ¾Ð¼Ð¿Ð»ÐµÐºÑĤ": 48559,
  "ÐºÐ¾Ð¼Ñĥ": 3787,
  "ÐºÐ¾Ð½": 2499,
  "ÐºÐ¾Ð½Ð°": 10352,
  "ÐºÐ¾Ð½Ðµ": 24676,
  "ÐºÐ¾Ð½ÑģÑĥÐ»ÑĮÑĤÐ°": 42565,
  "ÐºÐ¾Ð½ÑĤÐ°ÐºÑĤÐµ": 22530,
  "ÐºÐ¾Ð½ÑĤÑĢ": 16868,
  "ÐºÐ¾Ð½ÑĦÐµÑĢÐµÐ½": 15125,
  "ÐºÐ¾Ð½ÑĦÐµÑĢÐµÐ½ÑĨÐ¸Ð¸": 19858,
  "ÐºÐ¾Ð½Ñĭ": 17136,
  "ÐºÐ¾Ð¾Ð±ÑĢÐ°Ð·": 45003,
  "ÐºÐ¾Ð¿": 14624,
  "ÐºÐ¾ÑĢ": 3975,
  "ÐºÐ¾ÑĢÐ°": 9277,
  "ÐºÐ¾ÑĢÐ¸": 17995,
  "ÐºÐ¾ÑĢÐ¸Ð·": 45280,
  "ÐºÐ¾ÑĢÐ¸ÑĩÐ½Ðµ": 33610,
  "ÐºÐ¾ÑĢÐ¼": 37530,
  "ÐºÐ¾ÑĢÑĢÐµÐº": 27905,
  "ÐºÐ¾ÑĢÑĤÐ¾": 35615,
  "ÐºÐ¾Ñģ": 12888,
  "ÐºÐ¾ÑģÐ¼Ð¸": 41211,
  "ÐºÐ¾ÑģÐ½Ð¾Ð²": 28069,
  "ÐºÐ¾ÑģÑĢÐ¾": 33891,
  "ÐºÐ¾ÑģÑĤÐ¸": 7079,
  "ÐºÐ¾ÑģÑĤÑĮ": 5804,
  "ÐºÐ¾ÑģÑĤÑĮÑİ": 18266,
  "ÐºÐ¾ÑĤ": 17088,
  "ÐºÐ¾ÑĤÐ°": 41973,
  "ÐºÐ¾ÑĤÐ¾ÑĢÐ°Ñı": 46514,
  "ÐºÐ¾ÑĤÐ¾ÑĢÐ¾Ðµ": 21231,
  "ÐºÐ¾ÑĤÐ¾ÑĢÑĭ": 5380,
  "ÐºÐ¾ÑĤÐ¾ÑĢÑĭÐµ": 6433,
  "ÐºÐ¾ÑĤÐ¾ÑĢÑĭÐ¹": 30323,
  "ÐºÐ¾ÑĤÐ¾ÑĢÑĭÑħ": 47496,
  "ÐºÐ¾Ñİ": 27487,
  "ÐºÑĢ": 26644,
  "ÐºÑĢÐ°": 812,
  "ÐºÑĢÐ°Ñģ": 8719,
  "ÐºÑĢÐ°ÑģÐ¸": 27321,
  "ÐºÑĢÐ°ÑģÐ½Ð¾": 43906,
  "ÐºÑĢÐ°ÑģÐ½ÑĭÐµ": 47409,
  "ÐºÑĢÐ°ÑģÐ½ÑĭÐ¹": 39430,
  "ÐºÑĢÐ°ÑĤÐ½ÑĭÐ¹": 40886,
  "ÐºÑĢÐµ": 18467,
  "ÐºÑĢÐµÐ´Ð¸ÑĤ": 50070,
  "ÐºÑĢÐµÐ¿": 42792,
  "ÐºÑĢÐµÑĤ": 4516,
  "ÐºÑĢÐ¸": 24145,
  "ÐºÑĢÐ¾Ð²": 47875,
  "ÐºÑĢÐ¾Ð¼Ðµ": 32423,
  "ÐºÑĢÑĥ": 25569,
  "ÐºÑĢÑĭ": 1023,
  "ÐºÑģ": 3646,
  "ÐºÑģÐ°": 30035,
  "ÐºÑĤ": 37857,
  "ÐºÑĤÐ¾": 15890,
  "ÐºÑĤÑĭ": 42442,
  "ÐºÑĥ": 454,
  "ÐºÑĥÐ´Ð°": 2757,
  "ÐºÑĥÐ»Ð°": 35923,
  "ÐºÑĥÐ»Ð¸": 26173,
  "ÐºÑĥÐ»ÑĮ": 9297,
  "ÐºÑĥÐ»ÑĮÑĤÑĥÑĢ": 21639,
  "ÐºÑĥÐ»ÑĮÑĤÑĥÑĢÑĭ": 38686,
  "ÐºÑĥÐ»Ñı": 18555,
  "ÐºÑĥÐ»ÑıÑĢ": 32374,
  "ÐºÑĥÐ½": 3401,
  "ÐºÑĥÐ¿": 24379,
  "ÐºÑĥÑĢ": 8939,
  "ÐºÑĥÑĢÑģ": 21806,
  "ÐºÑĥÑĢÑģÐ°": 46930,
  "ÐºÑĥÑģ": 10907,
  "ÐºÑĥÑĤ": 9229,
  "ÐºÑĥÑİ": 3450,
  "ÐºÑĸ": 46274,
  "Ð»": 271,
  "Ð»Ð°": 332,
  "Ð»Ð°Ð±": 5720,
  "Ð»Ð°Ð²": 1277,
  "Ð»Ð°Ð²Ð°": 3897,
  "Ð»Ð°Ð²Ð»Ð¸": 32981,
  "Ð»Ð°Ð³": 3548,
  "Ð»Ð°Ð³Ð°": 2670,
  "Ð»Ð°Ð³Ð¾": 40497,
  "Ð»Ð°Ð³Ð¾Ð²": 34959,
  "Ð»Ð°Ð³Ð¾Ð´Ð°": 10457,
  "Ð»Ð°Ð³Ð¾Ð´Ð°ÑĢ": 18296,
  "Ð»Ð°Ð³Ð¾Ð´Ð°ÑĢÑİ": 40546,
  "Ð»Ð°Ð´": 1076,
  "Ð»Ð°Ð´Ð°": 36296,
  "Ð»Ð°Ð´ÐµÐ»ÑĮ": 14313,
  "Ð»Ð°Ð´ÐµÐ»ÑĮÑĨÐµÐ²": 49054,
  "Ð»Ð°Ð´ÐµÐ»ÑĮÑĨÑĭ": 46636,
  "Ð»Ð°Ð´Ð¸": 2111,
  "Ð»Ð°Ð´Ð¸Ð»": 25264,
  "Ð»Ð°Ð´Ð¸Ð»Ð°": 36561,
  "Ð»Ð°Ð´Ð¸ÑĤÑĮ": 22860,
  "Ð»Ð°Ð´Ð¸ÑĤÑĮÑģÑı": 29623,
  "Ð»Ð°Ð´Ñĭ": 34244,
  "Ð»Ð°Ð¶": 20196,
  "Ð»Ð°Ð¶Ð¸": 21830,
  "Ð»Ð°Ð·": 6538,
  "Ð»Ð°Ð¹": 12586,
  "Ð»Ð°Ð¹Ð½": 6703,
  "Ð»Ð°Ðº": 6002,
  "Ð»Ð°Ð»": 39783,
  "Ð»Ð°Ð¼": 6500,
  "Ð»Ð°Ð¼Ð°": 16803,
  "Ð»Ð°Ð¼ÐµÐ½ÑĤ": 31679,
  "Ð»Ð°Ð¼ÐµÐ½ÑĤÐ°": 41849,
  "Ð»Ð°Ð¼Ð¸": 6425,
  "Ð»Ð°Ð½": 1822,
  "Ð»Ð°Ð½Ð°": 9596,
  "Ð»Ð°Ð½Ð´": 6047,
  "Ð»Ð°Ð½Ð´Ð°": 44705,
  "Ð»Ð°Ð½Ð´Ð¸Ð¸": 12682,
  "Ð»Ð°Ð½Ð´Ð¸Ñİ": 46668,
  "Ð»Ð°Ð½Ð´Ð¸Ñı": 31299,
  "Ð»Ð°Ð½Ð¸": 25531,
  "Ð»Ð°Ð½Ð¾Ð²": 49967,
  "Ð»Ð°Ð½Ñĭ": 28852,
  "Ð»Ð°ÑĢ": 27773,
  "Ð»Ð°Ñģ": 1145,
  "Ð»Ð°ÑģÐ°": 42596,
  "Ð»Ð°ÑģÐ¸Ð»": 13089,
  "Ð»Ð°ÑģÑģ": 7509,
  "Ð»Ð°ÑģÑģÐ¸": 25702,
  "Ð»Ð°ÑģÑĤÐ¸": 15392,
  "Ð»Ð°ÑģÑĮ": 701,
  "Ð»Ð°ÑĤ": 4603,
  "Ð»Ð°ÑĤÐ°": 40534,
  "Ð»Ð°ÑĤÐ½Ð¾": 8603,
  "Ð»Ð°ÑĤÑĭ": 39688,
  "Ð»Ð°ÑĤÑĮ": 15791,
  "Ð»Ð°Ñħ": 9437,
  "Ð»Ð°Ñı": 7471,
  "Ð»Ð´": 49616,
  "Ð»Ðµ": 426,
  "Ð»ÐµÐ±": 4882,
  "Ð»ÐµÐ²": 8544,
  "Ð»ÐµÐ²Ð°": 17378,
  "Ð»ÐµÐ²Ð°ÑĤÑĮ": 21028,
  "Ð»ÐµÐ²Ð¾Ð¹": 23642,
  "Ð»ÐµÐ²Ñĭ": 46486,
  "Ð»ÐµÐ²ÑĭÐµ": 49633,
  "Ð»ÐµÐ²ÑĭÑħ": 34273,
  "Ð»ÐµÐ³": 3002,
  "Ð»ÐµÐ´": 1697,
  "Ð»ÐµÐµ": 15013,
  "Ð»ÐµÐ¶Ð°": 9205,
  "Ð»ÐµÐ¶Ð¸": 18965,
  "Ð»ÐµÐ¶Ð¸Ð²Ð°ÑĤÑĮ": 41121,
  "Ð»ÐµÐ·": 7976,
  "Ð»ÐµÐ¸": 19085,
  "Ð»ÐµÐ¹": 1476,
  "Ð»ÐµÐ¹Ð½": 31298,
  "Ð»ÐµÐ¹ÑĤÐµÐ½": 44829,
  "Ð»ÐµÐ¹ÑĤÐµÐ½Ð°Ð½ÑĤ": 33074,
  "Ð»ÐµÐº": 792,
  "Ð»ÐµÐºÐ°": 3466,
  "Ð»ÐµÐºÐ¾Ð¿": 36788,
  "Ð»ÐµÐºÐ¾Ð¿Ð¸ÑĤÐ°": 38099,
  "Ð»ÐµÐºÑģ": 1445,
  "Ð»ÐµÐºÑĤ": 2120,
  "Ð»ÐµÐºÑĤÑĢÐ¸": 5624,
  "Ð»ÐµÐ»": 38822,
  "Ð»ÐµÐ¼": 1080,
  "Ð»ÐµÐ¼Ð°": 12781,
  "Ð»ÐµÐ¼ÐµÐ½": 41482,
  "Ð»ÐµÐ¼Ñĥ": 10380,
  "Ð»ÐµÐ¼Ñĭ": 23282,
  "Ð»ÐµÐ½": 637,
  "Ð»ÐµÐ½Ð°": 2773,
  "Ð»ÐµÐ½Ð´": 16929,
  "Ð»ÐµÐ½Ð´Ð°": 47297,
  "Ð»ÐµÐ½Ð¸": 24236,
  "Ð»ÐµÐ½Ð¸Ðµ": 1070,
  "Ð»ÐµÐ½Ð¸ÐµÐ¼": 3021,
  "Ð»ÐµÐ½Ð¸Ð¸": 2431,
  "Ð»ÐµÐ½Ð¸Ð¹": 3673,
  "Ð»ÐµÐ½Ð¸Ñİ": 3707,
  "Ð»ÐµÐ½Ð¸Ñı": 917,
  "Ð»ÐµÐ½Ð¸ÑıÐ¼Ð¸": 13242,
  "Ð»ÐµÐ½ÐºÐ¾": 32813,
  "Ð»ÐµÐ½Ð½Ð°Ñı": 8518,
  "Ð»ÐµÐ½Ð½ÐµÐµ": 33093,
  "Ð»ÐµÐ½Ð½Ð¾": 2482,
  "Ð»ÐµÐ½Ð½Ð¾Ð³Ð¾": 7194,
  "Ð»ÐµÐ½Ð½Ð¾Ðµ": 9626,
  "Ð»ÐµÐ½Ð½Ð¾Ð¹": 6063,
  "Ð»ÐµÐ½Ð½Ð¾Ð¼": 16894,
  "Ð»ÐµÐ½Ð½Ð¾Ð¼Ñĥ": 27041,
  "Ð»ÐµÐ½Ð½Ð¾ÑģÑĤÐ¸": 27066,
  "Ð»ÐµÐ½Ð½Ð¾ÑģÑĤÑĮ": 26615,
  "Ð»ÐµÐ½Ð½ÑĥÑİ": 10460,
  "Ð»ÐµÐ½Ð½ÑĭÐµ": 4490,
  "Ð»ÐµÐ½Ð½ÑĭÐ¹": 4651,
  "Ð»ÐµÐ½Ð½ÑĭÐ¼": 8085,
  "Ð»ÐµÐ½Ð½ÑĭÐ¼Ð¸": 13698,
  "Ð»ÐµÐ½Ð½ÑĭÑħ": 4436,
  "Ð»ÐµÐ½Ð¾": 3890,
  "Ð»ÐµÐ½Ñĭ": 2626,
  "Ð»ÐµÐ¿": 6788,
  "Ð»ÐµÑĢ": 3327,
  "Ð»ÐµÑĢÐ°": 8367,
  "Ð»ÐµÑĢÐ¾Ð²": 14982,
  "Ð»ÐµÑĢÐ¾Ð¼": 27893,
  "Ð»ÐµÑĢÑĭ": 40577,
  "Ð»ÐµÑģ": 11425,
  "Ð»ÐµÑģÐº": 18818,
  "Ð»ÐµÑģÐºÐ¸": 25268,
  "Ð»ÐµÑģÑĤ": 19182,
  "Ð»ÐµÑĤ": 1123,
  "Ð»ÐµÑĤÐ°": 7724,
  "Ð»ÐµÑĤÐµ": 33626,
  "Ð»ÐµÑĤÐµÐ»": 26778,
  "Ð»ÐµÑĤÐ¸Ðµ": 34891,
  "Ð»ÐµÑĤÐ¸Ñİ": 22905,
  "Ð»ÐµÑĤÐ¸Ñı": 23745,
  "Ð»ÐµÑĤÐºÐ°": 42570,
  "Ð»ÐµÑĤÐºÐ¸": 36610,
  "Ð»ÐµÑĤÐ½ÐµÐ³Ð¾": 11884,
  "Ð»ÐµÑĤÐ½ÐµÐ¹": 17827,
  "Ð»ÐµÑĤÐ½ÐµÐ¼Ñĥ": 41397,
  "Ð»ÐµÑĤÐ½Ð¸Ð¹": 7745,
  "Ð»ÐµÑĤÐ½Ð¸Ð¼": 35997,
  "Ð»ÐµÑĤÐ½ÑİÑİ": 34600,
  "Ð»ÐµÑĤÐ½ÑıÑı": 16981,
  "Ð»ÐµÑĤÑĢÑıÑģ": 19049,
  "Ð»ÐµÑĤÑĤ": 46809,
  "Ð»ÐµÑĤÑĭ": 23249,
  "Ð»ÐµÑĤÑĮ": 46740,
  "Ð»ÐµÑĨ": 27316,
  "Ð»ÐµÑĩÑĮ": 9976,
  "Ð»ÐµÑĩÑĮÑģÑı": 47639,
  "Ð»ÐµÑı": 25716,
  "Ð»Ð·": 32248,
  "Ð»Ð¸": 326,
  "Ð»Ð¸Ð±Ð¾": 3697,
  "Ð»Ð¸Ð²": 3431,
  "Ð»Ð¸Ð²Ð°": 8378,
  "Ð»Ð¸Ð²Ð°ÑĤÑĮ": 27055,
  "Ð»Ð¸Ð²Ð°Ñı": 16983,
  "Ð»Ð¸Ð²Ð¾": 2591,
  "Ð»Ð¸Ð²Ð¾Ð³Ð¾": 18062,
  "Ð»Ð¸Ð²Ð¾Ðµ": 27646,
  "Ð»Ð¸Ð²Ð¾Ð¹": 18055,
  "Ð»Ð¸Ð²Ð¾ÑģÑĤÐ¸": 37615,
  "Ð»Ð¸Ð²Ð¾ÑģÑĤÑĮ": 26700,
  "Ð»Ð¸Ð²ÑĥÐ´": 27153,
  "Ð»Ð¸Ð²ÑĥÑİ": 30803,
  "Ð»Ð¸Ð²Ñĭ": 38141,
  "Ð»Ð¸Ð²ÑĭÐµ": 14485,
  "Ð»Ð¸Ð²ÑĭÐ¹": 10873,
  "Ð»Ð¸Ð²ÑĭÐ¼": 16530,
  "Ð»Ð¸Ð²ÑĭÐ¼Ð¸": 33302,
  "Ð»Ð¸Ð²ÑĭÑħ": 18366,
  "Ð»Ð¸Ð³Ð°": 49122,
  "Ð»Ð¸Ð³Ð¸": 38915,
  "Ð»Ð¸ÐµÐ¹": 36084,
  "Ð»Ð¸Ð¶Ðµ": 13970,
  "Ð»Ð¸Ð·": 5622,
  "Ð»Ð¸Ð·Ð°": 42712,
  "Ð»Ð¸Ð·Ð°ÑĨÐ¸Ð¸": 34219,
  "Ð»Ð¸Ð·Ð¼": 41399,
  "Ð»Ð¸Ð·Ð¼Ð°": 41718,
  "Ð»Ð¸Ð·Ð¾Ð²": 17847,
  "Ð»Ð¸Ð·Ð¾ÑģÑĤÐ¸": 18194,
  "Ð»Ð¸Ð¸": 7513,
  "Ð»Ð¸Ð¹": 11570,
  "Ð»Ð¸Ðº": 2798,
  "Ð»Ð¸ÐºÐ°": 18693,
  "Ð»Ð¸ÐºÐ¸": 31037,
  "Ð»Ð¸ÐºÑĥ": 44099,
  "Ð»Ð¸Ð»": 9572,
  "Ð»Ð¸Ð»Ð°": 23114,
  "Ð»Ð¸Ð»Ð°ÑģÑĮ": 29791,
  "Ð»Ð¸Ð»Ð¸": 21894,
  "Ð»Ð¸Ð»Ð¸ÑģÑĮ": 41212,
  "Ð»Ð¸Ð»Ð¾": 45467,
  "Ð»Ð¸Ð»ÑģÑı": 17146,
  "Ð»Ð¸Ð¼": 4883,
  "Ð»Ð¸Ð¼Ð¿Ð¸": 11720,
  "Ð»Ð¸Ð¼Ð¿Ð¸Ð¹": 8596,
  "Ð»Ð¸Ð½": 1452,
  "Ð»Ð¸Ð½Ð°": 4086,
  "Ð»Ð¸Ð½Ð³": 12560,
  "Ð»Ð¸Ð½Ð³Ð°": 37399,
  "Ð»Ð¸Ð½Ð³Ð¾Ð²": 38285,
  "Ð»Ð¸Ð½Ð´": 17756,
  "Ð»Ð¸Ð½Ðµ": 18770,
  "Ð»Ð¸Ð½ÑģÐºÐ¸Ð¹": 41001,
  "Ð»Ð¸Ð½Ñĭ": 46231,
  "Ð»Ð¸Ð¿": 13566,
  "Ð»Ð¸Ñģ": 27790,
  "Ð»Ð¸ÑģÐ°": 38222,
  "Ð»Ð¸ÑģÑĤ": 31743,
  "Ð»Ð¸ÑģÑĮ": 751,
  "Ð»Ð¸ÑĤ": 5700,
  "Ð»Ð¸ÑĤÑģÑı": 23807,
  "Ð»Ð¸ÑĤÑĮ": 10062,
  "Ð»Ð¸ÑĤÑĮÑģÑı": 31451,
  "Ð»Ð¸ÑĨ": 30952,
  "Ð»Ð¸ÑĨÐ°": 23967,
  "Ð»Ð¸ÑĨÑĭ": 37724,
  "Ð»Ð¸Ñĩ": 1334,
  "Ð»Ð¸ÑĩÐ½Ð¾": 9151,
  "Ð»Ð¸ÑĩÐ½ÑĭÐµ": 35513,
  "Ð»Ð¸ÑĪÐºÐ¾Ð¼": 14608,
  "Ð»Ð¸Ñİ": 14976,
  "Ð»Ð¸Ñı": 1921,
  "Ð»Ð¸ÑıÐ½Ð¸Ðµ": 40177,
  "Ð»ÐºÐ°": 29735,
  "Ð»ÐºÐ¸": 38679,
  "Ð»Ð»": 8313,
  "Ð»Ð»Ð°": 26413,
  "Ð»Ð»ÐµÑĤ": 31091,
  "Ð»Ð»Ð¸": 9589,
  "Ð»Ð»Ñİ": 7217,
  "Ð»Ð½": 23630,
  "Ð»Ð¾": 435,
  "Ð»Ð¾Ð±": 10829,
  "Ð»Ð¾Ð²": 1388,
  "Ð»Ð¾Ð²Ð°": 7408,
  "Ð»Ð¾Ð²Ð¸": 25668,
  "Ð»Ð¾Ð²Ð¸Ñĩ": 31260,
  "Ð»Ð¾Ð²Ð¾": 32637,
  "Ð»Ð¾Ð²Ð¾Ð¹": 28146,
  "Ð»Ð¾Ð²Ð¾Ð»Ð¾Ñģ": 48446,
  "Ð»Ð¾Ð²ÑģÐºÐ¸Ð¹": 45884,
  "Ð»Ð¾Ð³": 28151,
  "Ð»Ð¾Ð³Ð¸": 29858,
  "Ð»Ð¾Ð³Ð¾": 11458,
  "Ð»Ð¾Ð´": 3704,
  "Ð»Ð¾Ðµ": 14111,
  "Ð»Ð¾Ð¶": 1163,
  "Ð»Ð¾Ð¶ÐµÐ½Ð¸Ðµ": 16467,
  "Ð»Ð¾Ð¶ÐµÐ½Ð¸Ñı": 14580,
  "Ð»Ð¾Ð¶Ð¸ÑĤÑĮ": 10588,
  "Ð»Ð¾Ð¹": 5499,
  "Ð»Ð¾Ðº": 2460,
  "Ð»Ð¾ÐºÐ°": 33564,
  "Ð»Ð¾ÐºÐ¸": 11160,
  "Ð»Ð¾ÐºÐ¾ÑĤ": 38146,
  "Ð»Ð¾Ð¼": 1683,
  "Ð»Ð¾Ð¼Ñĥ": 45699,
  "Ð»Ð¾Ð½": 2221,
  "Ð»Ð¾Ð½Ð°": 15969,
  "Ð»Ð¾Ð½Ð´Ð¸Ð½": 17235,
  "Ð»Ð¾Ð½Ðµ": 23451,
  "Ð»Ð¾Ð½Ð¸": 4495,
  "Ð»Ð¾Ð½Ð¸Ð²ÑĪÐ¸ÑģÑĮ": 20947,
  "Ð»Ð¾Ð½Ð¸Ð»": 31241,
  "Ð»Ð¾Ð½Ð¸Ð»Ð°ÑģÑĮ": 20123,
  "Ð»Ð¾Ð½Ð¸Ð»ÑģÑı": 9369,
  "Ð»Ð¾Ð½Ð¸ÑĤÑĮÑģÑı": 33475,
  "Ð»Ð¾Ð½Ð¾Ð²": 24884,
  "Ð»Ð¾Ð½Ð¾Ð¼": 30767,
  "Ð»Ð¾Ð½Ñĭ": 27130,
  "Ð»Ð¾Ð¿": 3200,
  "Ð»Ð¾ÑĢ": 12790,
  "Ð»Ð¾ÑĢÐ°": 46712,
  "Ð»Ð¾ÑĢÐ¸": 17612,
  "Ð»Ð¾Ñģ": 10003,
  "Ð»Ð¾ÑģÑĤÐ¸": 33902,
  "Ð»Ð¾ÑģÑĤÑĮ": 32043,
  "Ð»Ð¾ÑģÑĥ": 21571,
  "Ð»Ð¾ÑģÑĮ": 1374,
  "Ð»Ð¾ÑĤ": 2362,
  "Ð»Ð¾ÑĤÐ°": 8366,
  "Ð»Ð¾ÑĤÐ¸": 42871,
  "Ð»Ð¾ÑĤÐ½ÑĥÑİ": 20724,
  "Ð»Ð¾ÑĤÑĮ": 11036,
  "Ð»Ð¾Ñĥ": 22269,
  "Ð»Ð¾Ñħ": 11164,
  "Ð»Ð¾ÑħÐ¾": 19525,
  "Ð»Ð¾ÑīÐ°": 13114,
  "Ð»Ð¾ÑīÐ°Ð´ÑĮ": 20999,
  "Ð»Ñģ": 38278,
  "Ð»ÑģÑı": 706,
  "Ð»Ñĥ": 1528,
  "Ð»ÑĥÐ±": 1392,
  "Ð»ÑĥÐ±Ðµ": 15010,
  "Ð»ÑĥÐ¶": 18269,
  "Ð»ÑĥÐ¿": 13359,
  "Ð»ÑĥÑĩ": 7592,
  "Ð»ÑĥÑĩÐ°": 22539,
  "Ð»ÑĥÑĪ": 8652,
  "Ð»ÑĥÑĪÐ°": 6451,
  "Ð»ÑĥÑĪÐ°Ð¹": 10458,
  "Ð»ÑĥÑĪÐ°Ð¹ÑĤÐµ": 20698,
  "Ð»ÑĥÑİ": 22020,
  "Ð»Ñĭ": 1018,
  "Ð»ÑĭÐ±": 16128,
  "Ð»ÑĭÐµ": 7363,
  "Ð»ÑĭÐ¹": 6094,
  "Ð»ÑĭÐº": 32177,
  "Ð»ÑĭÐ»": 36151,
  "Ð»ÑĭÐ»Ð¸": 45553,
  "Ð»ÑĭÐ¼": 7213,
  "Ð»ÑĭÐ¼Ð¸": 13084,
  "Ð»ÑĭÑĤÑĮ": 45425,
  "Ð»ÑĭÑħ": 11592,
  "Ð»ÑĮ": 526,
  "Ð»ÑĮÐµ": 38909,
  "Ð»ÑĮÐ½Ð°Ñı": 18104,
  "Ð»ÑĮÐ½Ð¾": 37268,
  "Ð»ÑĮÐ½Ð¾Ð³Ð¾": 5946,
  "Ð»ÑĮÐ½Ð¾Ðµ": 24483,
  "Ð»ÑĮÐ½Ð¾Ð¹": 7468,
  "Ð»ÑĮÐ½Ð¾Ð¼": 41042,
  "Ð»ÑĮÐ½Ð¾Ð¼Ñĥ": 38458,
  "Ð»ÑĮÐ½ÑĥÑİ": 29190,
  "Ð»ÑĮÐ½ÑĭÐµ": 17251,
  "Ð»ÑĮÐ½ÑĭÐ¹": 6792,
  "Ð»ÑĮÐ½ÑĭÐ¼": 15296,
  "Ð»ÑĮÐ½ÑĭÐ¼Ð¸": 43038,
  "Ð»ÑĮÐ½ÑĭÑħ": 14764,
  "Ð»ÑĮÐ¿": 12172,
  "Ð»ÑĮÑİ": 44040,
  "Ð»ÑĮÑı": 5660,
  "Ð»Ñİ": 623,
  "Ð»ÑİÐ±": 5218,
  "Ð»ÑİÐ´": 5400,
  "Ð»ÑİÐ·Ð¸Ð²": 19686,
  "Ð»ÑİÐº": 25701,
  "Ð»ÑİÐºÐ°": 38633,
  "Ð»ÑİÑģ": 15673,
  "Ð»ÑİÑģÑĮ": 12485,
  "Ð»ÑİÑĤ": 34827,
  "Ð»ÑİÑĩ": 2330,
  "Ð»ÑİÑĩÐµÐ½Ð¸Ðµ": 33157,
  "Ð»Ñı": 379,
  "Ð»ÑıÐµÐ¼": 9306,
  "Ð»ÑıÐµÐ¼Ð°Ñı": 48714,
  "Ð»ÑıÐµÐ¼ÑĭÑħ": 47527,
  "Ð»ÑıÐµÑĤ": 3576,
  "Ð»ÑıÐµÑĤÐµ": 50121,
  "Ð»ÑıÐµÑĤÑģÑı": 3108,
  "Ð»ÑıÐ¹": 28689,
  "Ð»ÑıÐ¹ÑĤÐµ": 34704,
  "Ð»ÑıÐ»": 5077,
  "Ð»ÑıÐ»Ð°": 12143,
  "Ð»ÑıÐ»Ð°ÑģÑĮ": 12558,
  "Ð»ÑıÐ»Ð¸": 6355,
  "Ð»ÑıÐ»Ð¸ÑģÑĮ": 9748,
  "Ð»ÑıÐ»Ð¾": 35697,
  "Ð»ÑıÐ»Ð¾ÑģÑĮ": 29366,
  "Ð»ÑıÐ»ÑģÑı": 7831,
  "Ð»ÑıÐ¼": 37929,
  "Ð»ÑıÐ¼Ð¸": 13722,
  "Ð»ÑıÐ½": 4472,
  "Ð»ÑıÐ½Ð´": 47449,
  "Ð»ÑıÐ½Ðµ": 30188,
  "Ð»ÑıÑĢ": 2547,
  "Ð»ÑıÑĤ": 36943,
  "Ð»ÑıÑĤÑģÑı": 47212,
  "Ð»ÑıÑĤÑĮ": 2666,
  "Ð»ÑıÑĤÑĮÐµ": 38418,
  "Ð»ÑıÑĤÑĮÑģÑı": 5170,
  "Ð»ÑıÑħ": 14005,
  "Ð»ÑıÑĨÐ¸Ð¸": 8239,
  "Ð»ÑıÑĨÐ¸Ñı": 16335,
  "Ð»ÑıÑİ": 12518,
  "Ð»ÑıÑİÑģÑĮ": 43539,
  "Ð»ÑıÑİÑĤ": 5802,
  "Ð»ÑıÑİÑĤÑģÑı": 5985,
  "Ð»ÑıÑİÑīÐ¸Ðµ": 39996,
  "Ð»ÑıÑİÑīÐ¸Ð¹": 26790,
  "Ð»ÑıÑİÑīÐ¸Ñħ": 44059,
  "Ð»ÑıÑı": 7892,
  "Ð»ÑıÑıÑģÑĮ": 12345,
  "Ð»Ñĳ": 10922,
  "Ð»ÑĳÐ¹": 46180,
  "Ð»ÑĳÐº": 41018,
  "Ð»ÑĳÐ¼": 50142,
  "Ð»ÑĳÐ½": 11514,
  "Ð»ÑĳÐ½Ð½Ð¾": 39080,
  "Ð»ÑĳÑĤ": 44293,
  "Ð»Ñĸ": 36262,
  "Ð¼": 277,
  "Ð¼Ð°": 429,
  "Ð¼Ð°Ð³": 31771,
  "Ð¼Ð°Ð³Ð°": 12064,
  "Ð¼Ð°Ð³Ð°Ð·": 29024,
  "Ð¼Ð°Ð³Ð°Ð·Ð¸Ð½": 28050,
  "Ð¼Ð°Ð³Ð°Ð·Ð¸Ð½Ð°": 43737,
  "Ð¼Ð°Ð³Ð°Ð·Ð¸Ð½Ðµ": 35889,
  "Ð¼Ð°Ð´": 47751,
  "Ð¼Ð°Ð·": 7527,
  "Ð¼Ð°Ð¹": 8812,
  "Ð¼Ð°Ð¹Ð¾ÑĢ": 32743,
  "Ð¼Ð°Ðº": 15526,
  "Ð¼Ð°Ð»": 14375,
  "Ð¼Ð°Ð»Ð°": 47211,
  "Ð¼Ð°Ð»ÑĮ": 34541,
  "Ð¼Ð°Ð¼": 25498,
  "Ð¼Ð°Ð¼Ð¸": 12915,
  "Ð¼Ð°Ð½": 1496,
  "Ð¼Ð°Ð½Ð°": 5687,
  "Ð¼Ð°Ð½Ð¸": 19638,
  "Ð¼Ð°Ð½Ð¸Ñı": 39014,
  "Ð¼Ð°Ð½Ð¾Ð²": 21676,
  "Ð¼Ð°Ð½Ð¾Ð¼": 24206,
  "Ð¼Ð°Ð½ÑģÐºÐ¾Ð¹": 36094,
  "Ð¼Ð°Ð½Ñĥ": 22875,
  "Ð¼Ð°Ð½Ñĭ": 11183,
  "Ð¼Ð°ÑĢ": 3852,
  "Ð¼Ð°ÑĢÐ°": 22218,
  "Ð¼Ð°ÑĢÐº": 23173,
  "Ð¼Ð°ÑĢÐºÐµÑĤ": 26600,
  "Ð¼Ð°ÑĢÑĤ": 11765,
  "Ð¼Ð°Ñģ": 35713,
  "Ð¼Ð°ÑģÑĤÐµÑĢ": 28959,
  "Ð¼Ð°ÑĤ": 7821,
  "Ð¼Ð°ÑĤÐ°": 47396,
  "Ð¼Ð°ÑĤÐµÐ¼Ð°": 43402,
  "Ð¼Ð°ÑĤÐµÑĢÐ¸": 18938,
  "Ð¼Ð°ÑĤÐ¸": 20892,
  "Ð¼Ð°ÑĤÐ¾Ð²": 40903,
  "Ð¼Ð°ÑĤÑĢÐ¸": 2609,
  "Ð¼Ð°ÑĤÑĢÐ¸Ð²Ð°ÑĤÑĮ": 47108,
  "Ð¼Ð°ÑĤÑĢÐ¸Ð²Ð°Ñı": 39933,
  "Ð¼Ð°ÑĤÑĭ": 13886,
  "Ð¼Ð°ÑĤÑĮ": 11627,
  "Ð¼Ð°Ñħ": 3462,
  "Ð¼Ð°ÑħÐ¸": 17216,
  "Ð¼Ð°ÑĨÐµÐ²": 29778,
  "Ð¼Ð°Ñĩ": 49918,
  "Ð¼Ð°ÑĪ": 39414,
  "Ð¼Ð°Ñı": 11878,
  "Ð¼Ðµ": 482,
  "Ð¼ÐµÐ³Ð°": 47383,
  "Ð¼ÐµÐ´": 15508,
  "Ð¼ÐµÐ´Ð°": 35945,
  "Ð¼ÐµÐ´Ð¸": 26670,
  "Ð¼ÐµÐ´Ð¸ÑĨÐ¸Ð½": 49217,
  "Ð¼ÐµÐ¶Ð´Ñĥ": 44440,
  "Ð¼ÐµÐ¹": 5983,
  "Ð¼ÐµÐ¹ÑģÑĤÐµÑĢ": 29642,
  "Ð¼ÐµÐ»": 13560,
  "Ð¼ÐµÐ»ÑĮ": 9672,
  "Ð¼ÐµÐ¼": 36009,
  "Ð¼ÐµÐ½": 503,
  "Ð¼ÐµÐ½Ð°": 4111,
  "Ð¼ÐµÐ½ÐµÐ´Ð¶": 23390,
  "Ð¼ÐµÐ½ÐµÐµ": 25249,
  "Ð¼ÐµÐ½ÐµÐ½Ð¸Ðµ": 21459,
  "Ð¼ÐµÐ½Ð¸": 1627,
  "Ð¼ÐµÐ½Ð¸ÑĤÑĮ": 7207,
  "Ð¼ÐµÐ½ÐºÐ¾": 39316,
  "Ð¼ÐµÐ½Ð½Ð°Ñı": 46732,
  "Ð¼ÐµÐ½Ð½Ð¾": 1370,
  "Ð¼ÐµÐ½Ð½Ð¾Ð¹": 35716,
  "Ð¼ÐµÐ½Ð½ÑĭÐµ": 38558,
  "Ð¼ÐµÐ½Ð½ÑĭÐ¹": 30692,
  "Ð¼ÐµÐ½Ð¾Ð²": 46365,
  "Ð¼ÐµÐ½ÑĤ": 2272,
  "Ð¼ÐµÐ½ÑĤÐ°": 1778,
  "Ð¼ÐµÐ½ÑĤÐ°Ð¼Ð¸": 31208,
  "Ð¼ÐµÐ½ÑĤÐµ": 11153,
  "Ð¼ÐµÐ½ÑĤÐ¸": 5770,
  "Ð¼ÐµÐ½ÑĤÐ¸ÑĢÐ¾Ð²Ð°ÑĤÑĮ": 41475,
  "Ð¼ÐµÐ½ÑĤÐ¾Ð²": 7245,
  "Ð¼ÐµÐ½ÑĤÐ¾Ð¼": 12230,
  "Ð¼ÐµÐ½ÑĤÑĥ": 26310,
  "Ð¼ÐµÐ½ÑĤÑĭ": 5676,
  "Ð¼ÐµÐ½Ñĭ": 6328,
  "Ð¼ÐµÐ½ÑĮ": 4780,
  "Ð¼ÐµÐ½Ñı": 16588,
  "Ð¼ÐµÑĢ": 788,
  "Ð¼ÐµÑĢÐ°": 17889,
  "Ð¼ÐµÑĢÐ·": 33604,
  "Ð¼ÐµÑĢÐ¸": 1755,
  "Ð¼ÐµÑĢÐ¸ÐºÐ°": 26420,
  "Ð¼ÐµÑĢÐ¸ÐºÐ°Ð½": 2428,
  "Ð¼ÐµÑĢÑĤ": 45837,
  "Ð¼ÐµÑĢÑĤÑĮ": 14143,
  "Ð¼ÐµÑĢÑĭ": 37214,
  "Ð¼ÐµÑģ": 44933,
  "Ð¼ÐµÑģÑĤÐµ": 31023,
  "Ð¼ÐµÑģÑĤÐ¾": 27088,
  "Ð¼ÐµÑģÑı": 22653,
  "Ð¼ÐµÑĤ": 921,
  "Ð¼ÐµÑĤÐ¾Ð´": 33433,
  "Ð¼ÐµÑĤÑĢÐ°": 47372,
  "Ð¼ÐµÑĤÑĢÐ¸": 24861,
  "Ð¼ÐµÑĤÑĢÐ¾Ð²": 9150,
  "Ð¼ÐµÑĤÑĮ": 21065,
  "Ð¼ÐµÑħÐ°": 43623,
  "Ð¼ÐµÑĨ": 3804,
  "Ð¼ÐµÑĩ": 34062,
  "Ð¼ÐµÑĩÐ°": 8948,
  "Ð¼ÐµÑĪÑĮ": 20869,
  "Ð¼Ð¸": 353,
  "Ð¼Ð¸Ð³": 11235,
  "Ð¼Ð¸Ð¸": 27730,
  "Ð¼Ð¸Ð¹": 33500,
  "Ð¼Ð¸Ðº": 28939,
  "Ð¼Ð¸ÐºÐ¾Ð¼": 36381,
  "Ð¼Ð¸Ð»": 25688,
  "Ð¼Ð¸Ð»Ð°": 17049,
  "Ð¼Ð¸Ð»Ð¸": 11679,
  "Ð¼Ð¸Ð»Ð»Ð¸": 21325,
  "Ð¼Ð¸Ð½": 3841,
  "Ð¼Ð¸Ð½Ð°": 7001,
  "Ð¼Ð¸Ð½Ð°Ð»": 32360,
  "Ð¼Ð¸Ð½Ð°Ð»Ð¸": 41160,
  "Ð¼Ð¸Ð½Ð³": 47464,
  "Ð¼Ð¸Ð½Ð¸": 2168,
  "Ð¼Ð¸Ð½Ð¸ÑģÑĤÑĢ": 13522,
  "Ð¼Ð¸Ð½Ð¸ÑģÑĤÑĢÐ°": 2589,
  "Ð¼Ð¸Ð½Ð¸ÑģÑĤÑĢÐ¾Ð¼": 41854,
  "Ð¼Ð¸Ð½Ñĥ": 20796,
  "Ð¼Ð¸Ð½ÑĥÑĤ": 25822,
  "Ð¼Ð¸ÑĢ": 6952,
  "Ð¼Ð¸ÑĢÐ°": 3905,
  "Ð¼Ð¸ÑĢÐ°Ð»": 12742,
  "Ð¼Ð¸ÑĢÐ°Ð»Ð°": 23675,
  "Ð¼Ð¸ÑĢÐ¾Ð²Ð°Ð½Ð¸Ðµ": 38292,
  "Ð¼Ð¸ÑĤ": 2952,
  "Ð¼Ð¸ÑĤÐ°": 21564,
  "Ð¼Ð¸ÑĤÐµ": 7972,
  "Ð¼Ð¸ÑĤÐ¸Ð²": 18415,
  "Ð¼Ð¸ÑĤÑĮ": 12590,
  "Ð¼Ð¸Ñı": 21953,
  "Ð¼Ð»Ð°Ð´": 25253,
  "Ð¼Ð»Ð°Ð´ÑĪÐ¸Ð¹": 39121,
  "Ð¼Ð»Ð¸": 40001,
  "Ð¼Ð¼": 9097,
  "Ð¼Ð½Ðµ": 40604,
  "Ð¼Ð½Ð¾Ð³Ð¾": 33861,
  "Ð¼Ð¾": 1024,
  "Ð¼Ð¾Ð²": 3536,
  "Ð¼Ð¾Ð³": 42579,
  "Ð¼Ð¾Ð³Ð¾": 16310,
  "Ð¼Ð¾Ð´": 28720,
  "Ð¼Ð¾Ðµ": 27548,
  "Ð¼Ð¾ÐµÐ¼Ñĥ": 10087,
  "Ð¼Ð¾Ð¶": 923,
  "Ð¼Ð¾Ð¶ÐµÑĤ": 26915,
  "Ð¼Ð¾Ð¶Ð½Ð¾": 2605,
  "Ð¼Ð¾Ð·": 8796,
  "Ð¼Ð¾Ð·Ð°": 41130,
  "Ð¼Ð¾Ð·Ð³": 37374,
  "Ð¼Ð¾Ð¹": 3851,
  "Ð¼Ð¾Ðº": 22526,
  "Ð¼Ð¾Ð»": 5495,
  "Ð¼Ð¾Ð»Ð¸Ð½ÐµÐ¹": 48176,
  "Ð¼Ð¾Ð»Ð¾Ð´": 42359,
  "Ð¼Ð¾Ð¼": 4019,
  "Ð¼Ð¾Ð½": 2810,
  "Ð¼Ð¾Ð½Ð°": 19318,
  "Ð¼Ð¾Ð½Ð´": 26660,
  "Ð¼Ð¾Ð½Ð¸": 44266,
  "Ð¼Ð¾Ð½Ð¸Ð¸": 39591,
  "Ð¼Ð¾Ð½Ð¾Ð²": 31234,
  "Ð¼Ð¾Ð½Ð¾Ð¿Ð¾Ð»ÑĮ": 38702,
  "Ð¼Ð¾ÑĢ": 5350,
  "Ð¼Ð¾ÑĢÐ°": 14693,
  "Ð¼Ð¾ÑĢÐ¾Ð·": 40775,
  "Ð¼Ð¾ÑĢÑģÐºÐ¾Ð¹": 47542,
  "Ð¼Ð¾Ñģ": 4133,
  "Ð¼Ð¾ÑģÐºÐ¾Ð²": 13023,
  "Ð¼Ð¾ÑĤ": 902,
  "Ð¼Ð¾ÑĤÐ°": 29805,
  "Ð¼Ð¾ÑĤÐ°Ð»": 23538,
  "Ð¼Ð¾ÑĤÐ°Ð»Ð°": 47539,
  "Ð¼Ð¾ÑĤÑĢÐ¸": 31856,
  "Ð¼Ð¾ÑĤÑĢÐ¸ÑĤÐµ": 42377,
  "Ð¼Ð¾ÑĤÑĢÑı": 3192,
  "Ð¼Ð¾ÑĨÐ¸Ð¾Ð½": 48884,
  "Ð¼Ñģ": 10905,
  "Ð¼ÑģÐ°": 26741,
  "Ð¼ÑģÑı": 26087,
  "Ð¼Ñĥ": 597,
  "Ð¼ÑĥÐ´": 30573,
  "Ð¼ÑĥÐ¶": 25747,
  "Ð¼ÑĥÐ·Ñĭ": 37323,
  "Ð¼ÑĥÐ»Ð¸": 9041,
  "Ð¼ÑĥÐ»ÑĮ": 41161,
  "Ð¼ÑĥÐ»Ñı": 12905,
  "Ð¼ÑĥÐ½": 9152,
  "Ð¼ÑĥÐ½Ð´": 27850,
  "Ð¼ÑĥÐ½Ð¸ÐºÐ°": 26912,
  "Ð¼ÑĥÑĢ": 10812,
  "Ð¼ÑĥÑĢÐ°": 43983,
  "Ð¼ÑĥÑģ": 32512,
  "Ð¼ÑĥÑģÑĮ": 47124,
  "Ð¼ÑĥÑĤ": 13805,
  "Ð¼ÑĥÑİ": 12363,
  "Ð¼Ñĭ": 918,
  "Ð¼ÑĭÐµ": 35771,
  "Ð¼ÑĭÐ¹": 30577,
  "Ð¼ÑĭÐ¼": 11105,
  "Ð¼ÑĭÐ¼Ð¸": 25853,
  "Ð¼ÑĭÑģÐ»": 6326,
  "Ð¼ÑĭÑģÐ»Ð¸": 12551,
  "Ð¼ÑĭÑģÐ»Ð¸ÑĤÑĮ": 38282,
  "Ð¼ÑĭÑħ": 42940,
  "Ð¼ÑĭÑĪ": 5604,
  "Ð¼ÑįÐ½": 46623,
  "Ð¼Ñı": 5059,
  "Ð¼ÑıÐ³": 38061,
  "Ð¼ÑıÐ½": 15263,
  "Ð¼Ñĸ": 46254,
  "Ð½": 268,
  "Ð½Ð°": 324,
  "Ð½Ð°Ð±": 9445,
  "Ð½Ð°Ð±Ð¶ÐµÐ½Ð¸Ðµ": 35976,
  "Ð½Ð°Ð±Ð¶ÐµÐ½Ð¸Ñı": 19322,
  "Ð½Ð°Ð±Ð»Ñİ": 33495,
  "Ð½Ð°Ð²": 18906,
  "Ð½Ð°Ð²ÑģÐµÐ³Ð¾": 49220,
  "Ð½Ð°Ð³Ð¾": 49652,
  "Ð½Ð°Ð´": 2260,
  "Ð½Ð°Ð´Ðµ": 10888,
  "Ð½Ð°Ð´Ð·Ð¾ÑĢ": 22813,
  "Ð½Ð°Ð´Ð·Ð¾ÑĢÐ°": 21100,
  "Ð½Ð°Ð´Ð»Ðµ": 3530,
  "Ð½Ð°Ð´Ð¾": 34239,
  "Ð½Ð°Ð´Ð¾Ð±": 7055,
  "Ð½Ð°Ð´ÑĨÐ°": 10805,
  "Ð½Ð°Ð´ÑĨÐ°ÑĤÐ¸": 9356,
  "Ð½Ð°Ð´ÑĨÐ°ÑĤÐ¾Ð³Ð¾": 23212,
  "Ð½Ð°Ð´ÑĨÐ°ÑĤÐ¾Ð¼": 45514,
  "Ð½Ð°Ð´ÑĨÐ°ÑĤÑĭÐ¹": 37722,
  "Ð½Ð°Ð´ÑĨÐ°ÑĤÑĮ": 5485,
  "Ð½Ð°Ð·": 43923,
  "Ð½Ð°Ð·Ð½Ð°": 5256,
  "Ð½Ð°Ð¹": 12427,
  "Ð½Ð°Ð¹ÑĤÐµÐ´": 34080,
  "Ð½Ð°Ðº": 29237,
  "Ð½Ð°ÐºÐ°Ð·": 34422,
  "Ð½Ð°ÐºÐ¾": 1339,
  "Ð½Ð°ÐºÐ¾Ð¼": 30358,
  "Ð½Ð°Ð»": 1501,
  "Ð½Ð°Ð»Ð°": 2858,
  "Ð½Ð°Ð»Ð¸": 2251,
  "Ð½Ð°Ð»ÑģÑı": 40715,
  "Ð½Ð°Ð¼": 2986,
  "Ð½Ð°Ð¼ÐµÑĢ": 37180,
  "Ð½Ð°Ð¼Ð¸": 2535,
  "Ð½Ð°Ð½": 7769,
  "Ð½Ð°Ð¿ÑĢÐ¸Ð¼ÐµÑĢ": 11838,
  "Ð½Ð°Ð¿ÑĢÐ¾ÑģÑĤÐ¾": 47232,
  "Ð½Ð°ÑĢ": 10474,
  "Ð½Ð°ÑĢÐ¾Ð´": 2583,
  "Ð½Ð°ÑĢÑĥ": 16076,
  "Ð½Ð°ÑĢÑĥÐ¶": 46275,
  "Ð½Ð°ÑĢÑĥÐ¶Ð¸": 35247,
  "Ð½Ð°Ñģ": 22420,
  "Ð½Ð°ÑģÐ»ÐµÐ´": 25764,
  "Ð½Ð°ÑģÑĤÐ¾Ñı": 10548,
  "Ð½Ð°ÑģÑĤÐ¾ÑıÑīÐµÐ¼Ñĥ": 11863,
  "Ð½Ð°ÑĤ": 4752,
  "Ð½Ð°ÑĤÐ°": 16185,
  "Ð½Ð°ÑĤÑĮ": 8475,
  "Ð½Ð°ÑĥÑĩ": 38430,
  "Ð½Ð°Ñħ": 2165,
  "Ð½Ð°ÑĨÐ¸Ð¾Ð½": 13674,
  "Ð½Ð°Ñĩ": 1821,
  "Ð½Ð°ÑĩÐ°Ð»Ð°": 3293,
  "Ð½Ð°ÑĩÐ°Ð»Ðµ": 11544,
  "Ð½Ð°ÑĩÐ°Ð»Ñĥ": 13170,
  "Ð½Ð°ÑĩÐ°Ð»ÑĮ": 39654,
  "Ð½Ð°ÑĩÐ°Ð»ÑĮÐ½Ð¾": 8571,
  "Ð½Ð°ÑĩÐµ": 3681,
  "Ð½Ð°ÑĪÐ¸": 41730,
  "Ð½Ð°Ñı": 549,
  "Ð½Ð³": 9851,
  "Ð½Ð³Ð°": 17543,
  "Ð½Ð´": 19913,
  "Ð½Ðµ": 404,
  "Ð½ÐµÐ²": 2325,
  "Ð½ÐµÐ²Ð°": 25113,
  "Ð½ÐµÐ²ÐµÐº": 13452,
  "Ð½ÐµÐ²Ð½Ð¾": 10584,
  "Ð½ÐµÐ²Ð¾ÑģÑĤÐ¾": 23510,
  "Ð½ÐµÐ³": 49194,
  "Ð½ÐµÐ³Ð¾": 1672,
  "Ð½ÐµÐ´": 6240,
  "Ð½ÐµÐ´Ð¸": 29840,
  "Ð½ÐµÐµ": 968,
  "Ð½ÐµÐµÑĤ": 29513,
  "Ð½ÐµÐ¶": 8981,
  "Ð½ÐµÐ·": 32058,
  "Ð½ÐµÐ¹": 845,
  "Ð½ÐµÐ¹ÑĪÐ°Ñı": 23763,
  "Ð½ÐµÐ¹ÑĪÐµÐ³Ð¾": 30746,
  "Ð½ÐµÐ¹ÑĪÐµÐµ": 22867,
  "Ð½ÐµÐ¹ÑĪÐµÐ¹": 25206,
  "Ð½ÐµÐ¹ÑĪÐ¸Ðµ": 17241,
  "Ð½ÐµÐ¹ÑĪÐ¸Ð¹": 14456,
  "Ð½ÐµÐ¹ÑĪÐ¸Ð¼": 20298,
  "Ð½ÐµÐ¹ÑĪÐ¸Ñħ": 7483,
  "Ð½ÐµÐ¹ÑĪÑĥÑİ": 43949,
  "Ð½ÐµÐº": 12090,
  "Ð½ÐµÐ»": 11827,
  "Ð½ÐµÐ»Ð°": 19477,
  "Ð½ÐµÐ»Ð¸": 21682,
  "Ð½ÐµÐ»Ð¾": 20589,
  "Ð½ÐµÐ»ÑĮ": 49980,
  "Ð½ÐµÐ¼": 1555,
  "Ð½ÐµÐ¼ÐµÑĨ": 37355,
  "Ð½ÐµÐ¼ÑģÑı": 18721,
  "Ð½ÐµÐ¼Ñĥ": 3756,
  "Ð½ÐµÐ½": 2847,
  "Ð½ÐµÐ½Ð°": 15786,
  "Ð½ÐµÐ½Ð¸Ðµ": 3162,
  "Ð½ÐµÐ½Ð¸ÐµÐ¼": 11772,
  "Ð½ÐµÐ½Ð¸Ð¸": 7025,
  "Ð½ÐµÐ½Ð¸Ð¹": 6208,
  "Ð½ÐµÐ½Ð¸Ñİ": 5489,
  "Ð½ÐµÐ½Ð¸Ñı": 2166,
  "Ð½ÐµÐ½Ð¸ÑıÐ¼Ð¸": 39369,
  "Ð½ÐµÐ½ÐºÐ¾": 34437,
  "Ð½ÐµÐ½Ð½Ð°Ñı": 19198,
  "Ð½ÐµÐ½Ð½Ð¾": 7057,
  "Ð½ÐµÐ½Ð½Ð¾Ð³Ð¾": 26589,
  "Ð½ÐµÐ½Ð½Ð¾Ðµ": 21008,
  "Ð½ÐµÐ½Ð½Ð¾Ð¹": 19439,
  "Ð½ÐµÐ½Ð½Ð¾Ð¼": 38334,
  "Ð½ÐµÐ½Ð½ÑĥÑİ": 24131,
  "Ð½ÐµÐ½Ð½ÑĭÐµ": 15367,
  "Ð½ÐµÐ½Ð½ÑĭÐ¹": 13777,
  "Ð½ÐµÐ½Ð½ÑĭÐ¼": 17450,
  "Ð½ÐµÐ½Ð½ÑĭÐ¼Ð¸": 32600,
  "Ð½ÐµÐ½Ð½ÑĭÑħ": 19057,
  "Ð½ÐµÐ½Ð¾": 22166,
  "Ð½ÐµÐ½Ñĭ": 17011,
  "Ð½ÐµÐ½ÑĮÐºÐ¾": 28395,
  "Ð½ÐµÐ¿": 10161,
  "Ð½ÐµÑĢ": 1458,
  "Ð½ÐµÑĢÐ°": 7671,
  "Ð½ÐµÑĢÐ°Ð´Ð¾": 34353,
  "Ð½ÐµÑĢÐ¾Ð²": 38982,
  "Ð½ÐµÑĢÑĥÑģ": 40046,
  "Ð½ÐµÑĢÑĭ": 36343,
  "Ð½ÐµÑģ": 1208,
  "Ð½ÐµÑģÐ¸": 34151,
  "Ð½ÐµÑģÐ»Ð¸": 7432,
  "Ð½ÐµÑģÐ»Ð¸ÑģÑĮ": 30226,
  "Ð½ÐµÑģÑģÐ°": 40827,
  "Ð½ÐµÑģÑĤ": 31021,
  "Ð½ÐµÑģÑĤÐ¸": 5068,
  "Ð½ÐµÑģÑĤÑĢÐ¾Ð²": 30184,
  "Ð½ÐµÑģÑı": 32886,
  "Ð½ÐµÑĤ": 1344,
  "Ð½ÐµÑĤÐ°": 10964,
  "Ð½ÐµÑĤÐµ": 7844,
  "Ð½ÐµÑĤÑģÑı": 6050,
  "Ð½ÐµÑĤÑĮ": 36574,
  "Ð½ÐµÑĦ": 15207,
  "Ð½ÐµÑĦÑĤÑĮ": 50060,
  "Ð½ÐµÑĨ": 6147,
  "Ð½ÐµÑĨÐ¾Ð²": 18273,
  "Ð½ÐµÑĨÑĭ": 34836,
  "Ð½ÐµÑĪÑĮ": 11668,
  "Ð½ÐµÑĪÑĮÑģÑı": 25789,
  "Ð½ÐµÑı": 30835,
  "Ð½Ð¸": 307,
  "Ð½Ð¸Ð±": 41256,
  "Ð½Ð¸Ð±ÑĥÐ´ÑĮ": 1796,
  "Ð½Ð¸Ð²": 6954,
  "Ð½Ð¸Ð²ÐµÑĢÑģ": 11565,
  "Ð½Ð¸Ðµ": 564,
  "Ð½Ð¸ÐµÐ¹": 5885,
  "Ð½Ð¸ÐµÐ¼": 1525,
  "Ð½Ð¸ÐµÐ½Ð¾Ñģ": 36277,
  "Ð½Ð¸Ð·": 1766,
  "Ð½Ð¸Ð·Ð°ÑĨÐ¸Ð¸": 36712,
  "Ð½Ð¸Ð·Ð°ÑĨÐ¸Ñı": 45112,
  "Ð½Ð¸Ð·Ð¸": 28962,
  "Ð½Ð¸Ð·Ð¼": 14735,
  "Ð½Ð¸Ð·Ð¼Ð°": 15261,
  "Ð½Ð¸Ð·Ð¼Ð¾Ð¼": 45527,
  "Ð½Ð¸Ð·Ñĥ": 23099,
  "Ð½Ð¸Ð¸": 750,
  "Ð½Ð¸Ð¹": 883,
  "Ð½Ð¸Ðº": 742,
  "Ð½Ð¸ÐºÐ°": 837,
  "Ð½Ð¸ÐºÐ°ÐµÑĤ": 46700,
  "Ð½Ð¸ÐºÐ°Ðº": 26707,
  "Ð½Ð¸ÐºÐ°Ð¼": 4151,
  "Ð½Ð¸ÐºÐ°Ð¼Ð¸": 3317,
  "Ð½Ð¸ÐºÐ°Ñħ": 7478,
  "Ð½Ð¸ÐºÐµ": 4044,
  "Ð½Ð¸ÐºÐ¸": 1157,
  "Ð½Ð¸ÐºÐ¾Ð²": 1051,
  "Ð½Ð¸ÐºÐ¾Ð²Ð°": 12084,
  "Ð½Ð¸ÐºÐ¾Ð²Ð¾Ð¹": 42952,
  "Ð½Ð¸ÐºÐ¾Ð¹": 16693,
  "Ð½Ð¸ÐºÐ¾Ð¼": 2409,
  "Ð½Ð¸ÐºÑĥ": 3033,
  "Ð½Ð¸Ð»": 1737,
  "Ð½Ð¸Ð»Ð°": 3391,
  "Ð½Ð¸Ð»Ð°ÑģÑĮ": 11225,
  "Ð½Ð¸Ð»Ð¸": 3457,
  "Ð½Ð¸Ð»Ð¸ÑģÑĮ": 10065,
  "Ð½Ð¸Ð»Ð¾": 17576,
  "Ð½Ð¸Ð»Ð¾ÑģÑĮ": 6000,
  "Ð½Ð¸Ð»ÑģÑı": 8382,
  "Ð½Ð¸Ð¼": 966,
  "Ð½Ð¸Ð¼Ð°": 724,
  "Ð½Ð¸Ð¼Ð°ÐµÑĤ": 19152,
  "Ð½Ð¸Ð¼Ð°Ð»": 4131,
  "Ð½Ð¸Ð¼Ð°Ð»Ð°": 8701,
  "Ð½Ð¸Ð¼Ð°Ð»Ð°ÑģÑĮ": 45049,
  "Ð½Ð¸Ð¼Ð°Ð»Ð¸": 7444,
  "Ð½Ð¸Ð¼Ð°Ð»Ð¸ÑģÑĮ": 30894,
  "Ð½Ð¸Ð¼Ð°Ð»ÑģÑı": 29155,
  "Ð½Ð¸Ð¼Ð°Ð½Ð¸Ðµ": 12218,
  "Ð½Ð¸Ð¼Ð°Ð½Ð¸Ñı": 48543,
  "Ð½Ð¸Ð¼Ð°ÑĤÑĮ": 19945,
  "Ð½Ð¸Ð¼Ð°Ñİ": 29917,
  "Ð½Ð¸Ð¼Ð°Ñı": 19430,
  "Ð½Ð¸Ð¼Ð¸": 5681,
  "Ð½Ð¸Ð¼Ð¾": 38848,
  "Ð½Ð¸Ð½": 3141,
  "Ð½Ð¸Ð½Ð°": 5539,
  "Ð½Ð¸Ð½Ð³": 19579,
  "Ð½Ð¸Ð½Ðµ": 33816,
  "Ð½Ð¸Ð½Ð¾Ð¹": 35489,
  "Ð½Ð¸Ð½Ð¾Ð¼": 25937,
  "Ð½Ð¸Ð½Ñĥ": 16028,
  "Ð½Ð¸Ð½Ñĭ": 20873,
  "Ð½Ð¸ÑĢ": 33972,
  "Ð½Ð¸Ñģ": 10119,
  "Ð½Ð¸ÑģÐ°": 36528,
  "Ð½Ð¸ÑģÑĤ": 22191,
  "Ð½Ð¸ÑģÑĤÐ°": 46699,
  "Ð½Ð¸ÑģÑĤÐ¸": 9649,
  "Ð½Ð¸ÑģÑĤÐ¾Ð²": 37836,
  "Ð½Ð¸ÑģÑĤÑĭ": 34319,
  "Ð½Ð¸ÑģÑĮ": 16142,
  "Ð½Ð¸ÑĤ": 3213,
  "Ð½Ð¸ÑĤÐ°": 19081,
  "Ð½Ð¸ÑĤÐ°ÑĢ": 8273,
  "Ð½Ð¸ÑĤÐµ": 3325,
  "Ð½Ð¸ÑĤÐµÐ»ÐµÐ¹": 23850,
  "Ð½Ð¸ÑĤÐµÐ»ÐµÐ¼": 29250,
  "Ð½Ð¸ÑĤÐµÐ»Ð¸": 22056,
  "Ð½Ð¸ÑĤÐµÐ»ÑĮ": 2116,
  "Ð½Ð¸ÑĤÐµÐ»ÑĮÐ½Ð°Ñı": 34200,
  "Ð½Ð¸ÑĤÐµÐ»ÑĮÐ½Ð¾": 8630,
  "Ð½Ð¸ÑĤÐµÐ»ÑĮÐ½Ð¾Ð³Ð¾": 37348,
  "Ð½Ð¸ÑĤÐµÐ»ÑĮÐ½Ð¾Ðµ": 40356,
  "Ð½Ð¸ÑĤÐµÐ»ÑĮÐ½Ð¾Ð¹": 27299,
  "Ð½Ð¸ÑĤÐµÐ»ÑĮÐ½ÑĥÑİ": 45297,
  "Ð½Ð¸ÑĤÐµÐ»ÑĮÐ½ÑĭÐµ": 22625,
  "Ð½Ð¸ÑĤÐµÐ»ÑĮÐ½ÑĭÐ¹": 26446,
  "Ð½Ð¸ÑĤÐµÐ»ÑĮÐ½ÑĭÑħ": 36001,
  "Ð½Ð¸ÑĤÐµÐ»Ñı": 22879,
  "Ð½Ð¸ÑĤÐµÑģÑĮ": 29245,
  "Ð½Ð¸ÑĤÑģÑı": 9496,
  "Ð½Ð¸ÑĤÑĮ": 1507,
  "Ð½Ð¸ÑĤÑĮÑģÑı": 9902,
  "Ð½Ð¸Ñħ": 1608,
  "Ð½Ð¸ÑĨ": 2543,
  "Ð½Ð¸ÑĨÐ°": 2016,
  "Ð½Ð¸ÑĨÐ°Ð¼": 26935,
  "Ð½Ð¸ÑĨÐ°Ð¼Ð¸": 15855,
  "Ð½Ð¸ÑĨÐ°Ñħ": 10298,
  "Ð½Ð¸ÑĨÐµ": 2827,
  "Ð½Ð¸ÑĨÐµÐ¹": 5793,
  "Ð½Ð¸ÑĨÐ¸Ð¿": 5718,
  "Ð½Ð¸ÑĨÐºÐ¸Ð¹": 30278,
  "Ð½Ð¸ÑĨÐºÐ¾Ð³Ð¾": 39405,
  "Ð½Ð¸ÑĨÑĥ": 2825,
  "Ð½Ð¸ÑĨÑĭ": 2203,
  "Ð½Ð¸Ñĩ": 1625,
  "Ð½Ð¸ÑĩÐ°": 40345,
  "Ð½Ð¸ÑĩÐ°ÐµÑĤ": 42306,
  "Ð½Ð¸ÑĩÐ°Ð»": 23159,
  "Ð½Ð¸ÑĩÐ°Ð»Ð°": 41609,
  "Ð½Ð¸ÑĩÐ°Ð»Ð¸": 43975,
  "Ð½Ð¸ÑĩÐ°ÑĤÑĮ": 18621,
  "Ð½Ð¸ÑĩÐµÐ³Ð¾": 39943,
  "Ð½Ð¸ÑĩÐµÑģÐºÐ°Ñı": 27846,
  "Ð½Ð¸ÑĩÐµÑģÐºÐ¸Ðµ": 17990,
  "Ð½Ð¸ÑĩÐµÑģÐºÐ¸Ð¹": 21099,
  "Ð½Ð¸ÑĩÐµÑģÐºÐ¸Ñħ": 23041,
  "Ð½Ð¸ÑĩÐµÑģÐºÐ¾Ð³Ð¾": 24248,
  "Ð½Ð¸ÑĩÐµÑģÐºÐ¾Ðµ": 46082,
  "Ð½Ð¸ÑĩÐµÑģÐºÐ¾Ð¹": 23706,
  "Ð½Ð¸ÑĩÐµÑģÑĤÐ²Ð°": 19637,
  "Ð½Ð¸ÑĩÐµÑģÑĤÐ²Ðµ": 26146,
  "Ð½Ð¸ÑĩÐµÑģÑĤÐ²Ð¾": 16253,
  "Ð½Ð¸ÑĩÐºÐ¸": 47521,
  "Ð½Ð¸ÑĩÐ½Ð°Ñı": 26516,
  "Ð½Ð¸ÑĩÐ½Ð¾": 26223,
  "Ð½Ð¸ÑĩÐ½Ð¾Ð³Ð¾": 28590,
  "Ð½Ð¸ÑĩÐ½Ð¾Ðµ": 46741,
  "Ð½Ð¸ÑĩÐ½Ð¾Ð¹": 16648,
  "Ð½Ð¸ÑĩÐ½Ð¾Ð¼": 45526,
  "Ð½Ð¸ÑĩÐ½ÑĥÑİ": 40985,
  "Ð½Ð¸ÑĩÐ½ÑĭÐµ": 25725,
  "Ð½Ð¸ÑĩÐ½ÑĭÐ¹": 21444,
  "Ð½Ð¸ÑĩÐ½ÑĭÐ¼": 40189,
  "Ð½Ð¸ÑĩÐ½ÑĭÑħ": 24620,
  "Ð½Ð¸ÑĩÑĤÐ¾Ð¶": 32071,
  "Ð½Ð¸ÑĩÑĮÑİ": 42351,
  "Ð½Ð¸ÑĪÑĮ": 9800,
  "Ð½Ð¸Ñİ": 1433,
  "Ð½Ð¸Ñı": 542,
  "Ð½Ð¸ÑıÐ¼": 12944,
  "Ð½Ð¸ÑıÐ¼Ð¸": 9061,
  "Ð½Ð¸ÑıÑħ": 6585,
  "Ð½Ðº": 3054,
  "Ð½ÐºÐ°": 19305,
  "Ð½ÐºÐµ": 50045,
  "Ð½ÐºÐ¸": 25231,
  "Ð½ÐºÑĥ": 27586,
  "Ð½Ð¾": 315,
  "Ð½Ð¾Ð±": 18751,
  "Ð½Ð¾Ð±Ð¾Ð¹": 45644,
  "Ð½Ð¾Ð±Ñĭ": 36825,
  "Ð½Ð¾Ð±ÑĭÐ»ÑĮ": 47120,
  "Ð½Ð¾Ð²": 609,
  "Ð½Ð¾Ð²Ð°": 1043,
  "Ð½Ð¾Ð²Ð°Ð½Ð¸Ñı": 38752,
  "Ð½Ð¾Ð²Ð°ÑĤÐ¾": 26995,
  "Ð½Ð¾Ð²Ð°ÑĤÑĮ": 41948,
  "Ð½Ð¾Ð²Ð°Ñı": 32513,
  "Ð½Ð¾Ð²Ðµ": 10635,
  "Ð½Ð¾Ð²ÐµÐ½Ð¸Ðµ": 15292,
  "Ð½Ð¾Ð²ÐµÐ½Ð¸Ñı": 9669,
  "Ð½Ð¾Ð²Ð¸Ð´": 9757,
  "Ð½Ð¾Ð²Ð¸Ñĩ": 14121,
  "Ð½Ð¾Ð²Ð¾": 12386,
  "Ð½Ð¾Ð²Ð¾Ð³Ð¾": 36953,
  "Ð½Ð¾Ð²Ð¾Ð´": 25920,
  "Ð½Ð¾Ð²Ð¾Ð¹": 16875,
  "Ð½Ð¾Ð²Ð¾Ð»Ð¾Ñģ": 27921,
  "Ð½Ð¾Ð²Ð¾Ð¼Ñĥ": 29413,
  "Ð½Ð¾Ð²ÑĢÐµÐ¼ÐµÐ½": 28936,
  "Ð½Ð¾Ð²ÑĢÐµÐ¼ÐµÐ½Ð½Ð¾": 4311,
  "Ð½Ð¾Ð²ÑģÐºÐ¸Ð¹": 28150,
  "Ð½Ð¾Ð²ÑģÐºÐ¾Ð³Ð¾": 39737,
  "Ð½Ð¾Ð²Ñĥ": 28499,
  "Ð½Ð¾Ð²ÑĭÐµ": 23951,
  "Ð½Ð¾Ð²ÑĭÐ¹": 33032,
  "Ð½Ð¾Ð²ÑĭÐ¼": 26550,
  "Ð½Ð¾Ð²ÑĭÑħ": 20968,
  "Ð½Ð¾Ð²ÑĮ": 3295,
  "Ð½Ð¾Ð³": 3488,
  "Ð½Ð¾Ð³Ð¸Ðµ": 5795,
  "Ð½Ð¾Ð³Ð»Ð°": 22203,
  "Ð½Ð¾Ð³Ð»Ð°Ð·": 41592,
  "Ð½Ð¾Ð³Ð¾": 434,
  "Ð½Ð¾Ð³Ñĥ": 23873,
  "Ð½Ð¾Ð´": 5388,
  "Ð½Ð¾Ð´Ð°ÑĢ": 13720,
  "Ð½Ð¾Ð´Ð¾ÑĢÐ¾Ð¶": 8680,
  "Ð½Ð¾Ð´Ñĥ": 9629,
  "Ð½Ð¾Ðµ": 539,
  "Ð½Ð¾Ð¶": 7103,
  "Ð½Ð¾Ð¶Ð°": 32602,
  "Ð½Ð¾Ð¶ÐºÐ¾": 17962,
  "Ð½Ð¾Ð·": 5321,
  "Ð½Ð¾Ð·Ð°": 32790,
  "Ð½Ð¾Ð·Ð½Ð°Ñĩ": 20863,
  "Ð½Ð¾Ð¹": 416,
  "Ð½Ð¾Ðº": 3305,
  "Ð½Ð¾ÐºÐ°": 38533,
  "Ð½Ð¾ÐºÐ¸ÑģÐ»": 42193,
  "Ð½Ð¾ÐºÐ»Ð°ÑģÑģ": 42645,
  "Ð½Ð¾ÐºÐ¾Ð¶": 30021,
  "Ð½Ð¾ÐºÐ¾Ð¼": 17927,
  "Ð½Ð¾ÐºÐ¾Ð¼Ð°Ð½Ð´": 21114,
  "Ð½Ð¾ÐºÑĢÐ¾Ð²": 25126,
  "Ð½Ð¾Ð»ÐµÑĤ": 14727,
  "Ð½Ð¾Ð»Ñĭ": 34916,
  "Ð½Ð¾Ð¼": 547,
  "Ð½Ð¾Ð¼Ð¾ÑĢ": 15735,
  "Ð½Ð¾Ð¼Ð¾Ñĩ": 14260,
  "Ð½Ð¾Ð¼Ñĥ": 1147,
  "Ð½Ð¾Ð½": 32686,
  "Ð½Ð¾Ð½Ð¸Ð¼": 35667,
  "Ð½Ð¾Ð¾Ð±ÑĢÐ°Ð·": 37547,
  "Ð½Ð¾Ð¿": 4258,
  "Ð½Ð¾Ð¿ÑĢÐ°Ð²": 33545,
  "Ð½Ð¾ÑĢ": 9606,
  "Ð½Ð¾ÑĢÐ°": 14878,
  "Ð½Ð¾ÑĢÐ¸": 11535,
  "Ð½Ð¾ÑĢÐ¼": 29525,
  "Ð½Ð¾Ñģ": 2248,
  "Ð½Ð¾ÑģÐ°": 27395,
  "Ð½Ð¾ÑģÐµÑĨ": 44678,
  "Ð½Ð¾ÑģÐ¸": 14430,
  "Ð½Ð¾ÑģÐ¸Ð»": 16788,
  "Ð½Ð¾ÑģÐ¸Ð»Ð¸ÑģÑĮ": 24436,
  "Ð½Ð¾ÑģÐ¸Ð¼": 45030,
  "Ð½Ð¾ÑģÐ¸ÑĤ": 8586,
  "Ð½Ð¾ÑģÐ¸ÑĤÐµÐ»ÑĮÐ½Ð¾": 36470,
  "Ð½Ð¾ÑģÐ¸ÑĤÑģÑı": 17647,
  "Ð½Ð¾ÑģÐ¸ÑĤÑĮ": 9091,
  "Ð½Ð¾ÑģÐ¾Ð²": 37277,
  "Ð½Ð¾ÑģÐ¾Ð²Ð°": 41866,
  "Ð½Ð¾ÑģÑĤÐµÐ¹": 5122,
  "Ð½Ð¾ÑģÑĤÐ¸": 617,
  "Ð½Ð¾ÑģÑĤÑĢÐ¾": 23146,
  "Ð½Ð¾ÑģÑĤÑĮ": 622,
  "Ð½Ð¾ÑģÑĤÑĮÑİ": 1330,
  "Ð½Ð¾ÑģÑĤÑıÐ¼": 32392,
  "Ð½Ð¾ÑģÑĤÑıÐ¼Ð¸": 23400,
  "Ð½Ð¾ÑģÑĤÑıÑħ": 33221,
  "Ð½Ð¾ÑģÑĨÐµÐ²": 43129,
  "Ð½Ð¾ÑģÑı": 16557,
  "Ð½Ð¾ÑĤ": 22888,
  "Ð½Ð¾ÑĤÐ°": 32941,
  "Ð½Ð¾ÑĩÐºÐ°": 34588,
  "Ð½Ð¾ÑĪÐ°": 30968,
  "Ð½Ð¾ÑĪÐµÐ½Ð¸Ðµ": 41809,
  "Ð½Ð¾ÑĪÐµÐ½Ð¸Ñı": 25928,
  "Ð½Ð¾Ñİ": 7864,
  "Ð½ÑĢÐ°Ð²": 34180,
  "Ð½Ñģ": 29593,
  "Ð½ÑģÐºÐ¸Ð¹": 24112,
  "Ð½ÑģÐºÐ¾Ð³Ð¾": 23380,
  "Ð½ÑģÐºÐ¾Ð¹": 35228,
  "Ð½ÑĤ": 30376,
  "Ð½Ñĥ": 392,
  "Ð½ÑĥÐ²": 2617,
  "Ð½ÑĥÐ²ÑĪÐµÐ³Ð¾": 39297,
  "Ð½ÑĥÐ²ÑĪÐµÐ³Ð¾ÑģÑı": 46659,
  "Ð½ÑĥÐ²ÑĪÐµÐ¹": 44541,
  "Ð½ÑĥÐ²ÑĪÐµÐ¹ÑģÑı": 49409,
  "Ð½ÑĥÐ²ÑĪÐ¸Ð¹": 34372,
  "Ð½ÑĥÐ²ÑĪÐ¸Ð¹ÑģÑı": 32566,
  "Ð½ÑĥÐ²ÑĪÐ¸ÑģÑĮ": 4448,
  "Ð½ÑĥÐ²ÑĪÐ¸Ñħ": 45288,
  "Ð½ÑĥÐ¶Ð´": 4610,
  "Ð½ÑĥÐ»": 905,
  "Ð½ÑĥÐ»Ð°": 1424,
  "Ð½ÑĥÐ»Ð°ÑģÑĮ": 2082,
  "Ð½ÑĥÐ»Ð¸": 3306,
  "Ð½ÑĥÐ»Ð¸ÑģÑĮ": 3768,
  "Ð½ÑĥÐ»Ð¾": 5799,
  "Ð½ÑĥÐ»Ð¾ÑģÑĮ": 11394,
  "Ð½ÑĥÐ»ÑģÑı": 1309,
  "Ð½ÑĥÐ½Ðµ": 10506,
  "Ð½ÑĥÑģ": 15393,
  "Ð½ÑĥÑģÑĮ": 10439,
  "Ð½ÑĥÑĤ": 1578,
  "Ð½ÑĥÑĤÐ°": 16005,
  "Ð½ÑĥÑĤÐ°Ñı": 23464,
  "Ð½ÑĥÑĤÐ¾": 19848,
  "Ð½ÑĥÑĤÐ¾Ð³Ð¾": 25348,
  "Ð½ÑĥÑĤÐ¾Ðµ": 32221,
  "Ð½ÑĥÑĤÐ¾Ð¹": 14029,
  "Ð½ÑĥÑĤÐ¾Ð¼": 29829,
  "Ð½ÑĥÑĤÑĢÐµÐ½": 18444,
  "Ð½ÑĥÑĤÑĢÐ¸": 9428,
  "Ð½ÑĥÑĤÑģÑı": 12304,
  "Ð½ÑĥÑĤÑĥÑİ": 24514,
  "Ð½ÑĥÑĤÑĭ": 13689,
  "Ð½ÑĥÑĤÑĭÐµ": 13214,
  "Ð½ÑĥÑĤÑĭÐ¹": 14259,
  "Ð½ÑĥÑĤÑĭÐ¼": 23167,
  "Ð½ÑĥÑĤÑĭÐ¼Ð¸": 25729,
  "Ð½ÑĥÑĤÑĭÑħ": 18285,
  "Ð½ÑĥÑĤÑĮ": 1558,
  "Ð½ÑĥÑĤÑĮÑģÑı": 3124,
  "Ð½ÑĥÑİ": 668,
  "Ð½ÑĨÐµ": 34660,
  "Ð½ÑĨÐµÐ²": 36644,
  "Ð½ÑĩÐµ": 20878,
  "Ð½Ñĭ": 318,
  "Ð½ÑĭÐµ": 448,
  "Ð½ÑĭÐ¹": 451,
  "Ð½ÑĭÐ¼": 536,
  "Ð½ÑĭÐ¼Ð¸": 758,
  "Ð½ÑĭÐ½Ðµ": 11445,
  "Ð½ÑĭÑĢ": 28301,
  "Ð½ÑĭÑħ": 432,
  "Ð½ÑĭÑĩ": 23008,
  "Ð½ÑĭÑĪÐºÐ¾": 26195,
  "Ð½ÑĭÑı": 47802,
  "Ð½ÑĮ": 1068,
  "Ð½ÑĮÐµ": 13763,
  "Ð½ÑĮÐµÐ¼": 42783,
  "Ð½ÑĮÐ¸": 40695,
  "Ð½ÑĮÐºÐ°": 42547,
  "Ð½ÑĮÑĪÐµ": 3211,
  "Ð½ÑĮÑİ": 19557,
  "Ð½Ñİ": 1427,
  "Ð½ÑİÐ´ÑĮ": 12516,
  "Ð½ÑİÑħ": 45723,
  "Ð½ÑİÑİ": 3675,
  "Ð½Ñı": 465,
  "Ð½ÑıÐ²": 16779,
  "Ð½ÑıÐ²ÑĪÐ¸ÑģÑĮ": 29702,
  "Ð½ÑıÐµÑĤ": 5252,
  "Ð½ÑıÐµÑĤÑģÑı": 5432,
  "Ð½ÑıÐ¹ÑĤÐµ": 38047,
  "Ð½ÑıÐº": 15441,
  "Ð½ÑıÐºÐ°": 5250,
  "Ð½ÑıÐºÐ¸": 44430,
  "Ð½ÑıÐºÐ¾Ð²": 34413,
  "Ð½ÑıÐ»": 4165,
  "Ð½ÑıÐ»Ð°": 10501,
  "Ð½ÑıÐ»Ð°ÑģÑĮ": 18756,
  "Ð½ÑıÐ»Ð¸": 9529,
  "Ð½ÑıÐ»Ð¸ÑģÑĮ": 17824,
  "Ð½ÑıÐ»Ð¾": 40611,
  "Ð½ÑıÐ»Ð¾ÑģÑĮ": 49340,
  "Ð½ÑıÐ»ÑģÑı": 13910,
  "Ð½ÑıÐ¼": 19223,
  "Ð½ÑıÐ¼Ð¸": 7054,
  "Ð½ÑıÑĤ": 10329,
  "Ð½ÑıÑĤÐ½Ð¾": 40137,
  "Ð½ÑıÑĤÑģÑı": 21554,
  "Ð½ÑıÑĤÑĮ": 2795,
  "Ð½ÑıÑĤÑĮÑģÑı": 12271,
  "Ð½ÑıÑħ": 10284,
  "Ð½ÑıÑİ": 48703,
  "Ð½ÑıÑİÑĤ": 10531,
  "Ð½ÑıÑİÑĤÑģÑı": 12744,
  "Ð½ÑıÑı": 2636,
  "Ð½Ñĳ": 19580,
  "Ð½ÑĳÐ¼": 13932,
  "Ð½ÑĳÑĢ": 45104,
  "Ð½ÑĳÑģ": 14920,
  "Ð½ÑĳÑĤ": 33805,
  "Ð½ÑĳÑĤÑģÑı": 26832,
  "Ð½Ñĸ": 11115,
  "Ð¾": 262,
  "Ð¾Ð": 270,
  "Ð¾Ð°Ð½": 6689,
  "Ð¾Ð±": 348,
  "Ð¾Ð±Ð°": 10478,
  "Ð¾Ð±Ð°Ð²Ð¾Ðº": 37430,
  "Ð¾Ð±Ðµ": 4931,
  "Ð¾Ð±ÐµÐ´": 18297,
  "Ð¾Ð±ÐµÐ´Ð°": 29406,
  "Ð¾Ð±ÐµÐ»ÐµÐ²": 27599,
  "Ð¾Ð±ÐµÑģÐ¿Ðµ": 31787,
  "Ð¾Ð±ÐµÑĤÐ¾Ð½": 33109,
  "Ð¾Ð±Ð¸": 16892,
  "Ð¾Ð±Ð¸Ð´": 28922,
  "Ð¾Ð±Ð¸Ð»Ð¸": 11740,
  "Ð¾Ð±Ð¸Ð»ÑĮ": 5431,
  "Ð¾Ð±Ð»Ð°": 7511,
  "Ð¾Ð±Ð»Ð°Ð´Ð°": 38556,
  "Ð¾Ð±Ð»Ð¾Ðº": 49638,
  "Ð¾Ð±Ð¼ÐµÐ½": 41393,
  "Ð¾Ð±Ð½Ð¾": 8228,
  "Ð¾Ð±Ð½Ð¾Ð²": 10555,
  "Ð¾Ð±Ð¾": 17617,
  "Ð¾Ð±Ð¾Ð´": 1944,
  "Ð¾Ð±Ð¾Ð´Ð°": 33693,
  "Ð¾Ð±Ð¾Ð¹": 3642,
  "Ð¾Ð±Ð¾ÑĢ": 19568,
  "Ð¾Ð±Ð¾ÑĢÐ¾": 4485,
  "Ð¾Ð±Ð¾ÑĢÐ¾Ð½Ñĭ": 14538,
  "Ð¾Ð±Ð¾ÑĢÐ¾ÑĤ": 5818,
  "Ð¾Ð±Ð¾ÑĢÐ¾ÑĤÐ°": 42821,
  "Ð¾Ð±Ð¾ÑĢÑĥÐ´": 30390,
  "Ð¾Ð±ÑĢÐ°": 3031,
  "Ð¾Ð±ÑĢÐ°Ð¶": 3241,
  "Ð¾Ð±ÑĢÐ°Ð¶Ð°": 10371,
  "Ð¾Ð±ÑĢÐ°Ð¶Ð°ÑĤÑĮ": 36217,
  "Ð¾Ð±ÑĢÐ°Ð¶ÐµÐ½Ð¸Ðµ": 34193,
  "Ð¾Ð±ÑĢÐ°Ð·": 2134,
  "Ð¾Ð±ÑĢÐ°Ð·Ð¾Ð²Ð°Ð½Ð¸Ñı": 32324,
  "Ð¾Ð±ÑĢÐ°Ð·Ð¾Ð²Ð°ÑĤÐµÐ»ÑĮ": 21851,
  "Ð¾Ð±ÑĢÐ°Ð½": 23091,
  "Ð¾Ð±Ñĥ": 14811,
  "Ð¾Ð±ÑħÐ¾Ð´": 10796,
  "Ð¾Ð±ÑīÐµ": 1859,
  "Ð¾Ð±ÑīÐµÐ¼": 46825,
  "Ð¾Ð±ÑĬ": 24867,
  "Ð¾Ð±Ñĭ": 627,
  "Ð¾Ð±ÑĭÑĤÐ¸Ñı": 35062,
  "Ð¾Ð±ÑıÐ·Ð°ÑĤÐµÐ»ÑĮÐ½Ð¾": 47027,
  "Ð¾Ð²": 291,
  "Ð¾Ð²Ð°": 401,
  "Ð¾Ð²Ð°Ð²": 9935,
  "Ð¾Ð²Ð°Ð²ÑĪÐ¸Ðµ": 49058,
  "Ð¾Ð²Ð°Ð²ÑĪÐ¸Ð¹": 36173,
  "Ð¾Ð²Ð°Ð²ÑĪÐ¸ÑģÑĮ": 19617,
  "Ð¾Ð²Ð°Ð²ÑĪÐ¸Ñħ": 29017,
  "Ð¾Ð²Ð°Ð»": 1475,
  "Ð¾Ð²Ð°Ð»Ð°": 5656,
  "Ð¾Ð²Ð°Ð»Ð°ÑģÑĮ": 15814,
  "Ð¾Ð²Ð°Ð»Ð¸": 3637,
  "Ð¾Ð²Ð°Ð»Ð¸ÑģÑĮ": 10316,
  "Ð¾Ð²Ð°Ð»Ð¾": 6191,
  "Ð¾Ð²Ð°Ð»Ð¾ÑģÑĮ": 11182,
  "Ð¾Ð²Ð°Ð»ÑģÑı": 10146,
  "Ð¾Ð²Ð°Ð½": 11646,
  "Ð¾Ð²Ð°Ð½Ð°": 8140,
  "Ð¾Ð²Ð°Ð½Ð¸Ðµ": 1700,
  "Ð¾Ð²Ð°Ð½Ð¸ÐµÐ¼": 4838,
  "Ð¾Ð²Ð°Ð½Ð¸Ð¸": 4543,
  "Ð¾Ð²Ð°Ð½Ð¸Ð¹": 4766,
  "Ð¾Ð²Ð°Ð½Ð¸Ñİ": 6216,
  "Ð¾Ð²Ð°Ð½Ð¸Ñı": 1237,
  "Ð¾Ð²Ð°Ð½Ð½ÑĭÐµ": 33574,
  "Ð¾Ð²Ð°Ð½Ð½ÑĭÐ¹": 36804,
  "Ð¾Ð²Ð°Ð½Ð½ÑĭÑħ": 28641,
  "Ð¾Ð²Ð°Ð½Ð¾": 9368,
  "Ð¾Ð²Ð°Ð½Ñĭ": 6225,
  "Ð¾Ð²Ð°ÑĢ": 9698,
  "Ð¾Ð²Ð°ÑĢÐ´": 48890,
  "Ð¾Ð²Ð°ÑĢÐ¸": 3374,
  "Ð¾Ð²Ð°ÑĢÐ¸Ð²Ð°Ð»": 38048,
  "Ð¾Ð²Ð°ÑĢÐ¸Ð²Ð°ÑĤÑĮ": 42063,
  "Ð¾Ð²Ð°ÑĢÐ¸Ð²Ð°Ñı": 50007,
  "Ð¾Ð²Ð°ÑĢÐ¸Ñī": 26629,
  "Ð¾Ð²Ð°ÑĢÐ¸ÑīÐ¸": 43965,
  "Ð¾Ð²Ð°ÑĢÑĭ": 50085,
  "Ð¾Ð²Ð°ÑĤ": 33419,
  "Ð¾Ð²Ð°ÑĤÐµÐ»ÐµÐ¹": 13499,
  "Ð¾Ð²Ð°ÑĤÐµÐ»Ð¸": 10292,
  "Ð¾Ð²Ð°ÑĤÐµÐ»ÑĮ": 3169,
  "Ð¾Ð²Ð°ÑĤÐµÐ»ÑĮÐ½Ð¾": 8041,
  "Ð¾Ð²Ð°ÑĤÐµÐ»Ñı": 47696,
  "Ð¾Ð²Ð°ÑĤÐ¾": 14252,
  "Ð¾Ð²Ð°ÑĤÐ¾Ð¹": 49067,
  "Ð¾Ð²Ð°ÑĤÑĭÐµ": 43633,
  "Ð¾Ð²Ð°ÑĤÑĭÐ¹": 29688,
  "Ð¾Ð²Ð°ÑĤÑĭÐ¼": 46927,
  "Ð¾Ð²Ð°ÑĤÑĮ": 1086,
  "Ð¾Ð²Ð°ÑĤÑĮÑģÑı": 2998,
  "Ð¾Ð²Ð°Ñı": 2232,
  "Ð¾Ð²Ðµ": 7871,
  "Ð¾Ð²ÐµÐ´": 7274,
  "Ð¾Ð²ÐµÐ´Ð¸": 23166,
  "Ð¾Ð²ÐµÐ´Ñĥ": 49711,
  "Ð¾Ð²ÐµÐ´ÑĮ": 25680,
  "Ð¾Ð²ÐµÑĢ": 5565,
  "Ð¾Ð²ÐµÑĢÑĪÐµÐ½Ð½Ð¾": 44832,
  "Ð¾Ð²ÐµÑĤ": 7731,
  "Ð¾Ð²ÐµÑĤÑĥ": 47178,
  "Ð¾Ð²Ð¸": 5202,
  "Ð¾Ð²Ð¸Ð´": 30796,
  "Ð¾Ð²Ð¸ÐºÐ¸": 32756,
  "Ð¾Ð²Ð¸Ñĩ": 10754,
  "Ð¾Ð²Ð¸ÑĩÐ°": 40325,
  "Ð¾Ð²ÐºÐ°": 41346,
  "Ð¾Ð²ÐºÐ¸": 44931,
  "Ð¾Ð²ÐºÑĥ": 45566,
  "Ð¾Ð²Ð»ÐµÑĤ": 5047,
  "Ð¾Ð²Ð½Ð°": 41586,
  "Ð¾Ð²Ð¾": 615,
  "Ð¾Ð²Ð¾Ð³Ð¾": 4593,
  "Ð¾Ð²Ð¾Ð´": 39581,
  "Ð¾Ð²Ð¾Ðµ": 4139,
  "Ð¾Ð²Ð¾Ð·": 22185,
  "Ð¾Ð²Ð¾Ð¹": 1161,
  "Ð¾Ð²Ð¾Ð»ÑĮ": 1557,
  "Ð¾Ð²Ð¾Ð»ÑĮÐ½Ð¾": 16815,
  "Ð¾Ð²Ð¾Ð¼": 12077,
  "Ð¾Ð²Ð¾Ð¼Ñĥ": 24925,
  "Ð¾Ð²Ð¾ÑĢ": 1093,
  "Ð¾Ð²Ð¾ÑĢÐ°": 4047,
  "Ð¾Ð²Ð¾ÑĢÐ°Ð¼": 30806,
  "Ð¾Ð²Ð¾ÑĢÐ°Ð¼Ð¸": 35898,
  "Ð¾Ð²Ð¾ÑĢÐ°Ñħ": 18715,
  "Ð¾Ð²Ð¾ÑĢÐµ": 12049,
  "Ð¾Ð²Ð¾ÑĢÐ¸": 826,
  "Ð¾Ð²Ð¾ÑĢÐ¸Ð»": 4978,
  "Ð¾Ð²Ð¾ÑĢÐ¸Ð»Ð°": 10227,
  "Ð¾Ð²Ð¾ÑĢÐ¸Ð»Ð¸": 19412,
  "Ð¾Ð²Ð¾ÑĢÐ¸Ð»Ð¸ÑģÑĮ": 30832,
  "Ð¾Ð²Ð¾ÑĢÐ¸ÑĤ": 36007,
  "Ð¾Ð²Ð¾ÑĢÐ¸ÑĤÑĮ": 5528,
  "Ð¾Ð²Ð¾ÑĢÐ¾": 34214,
  "Ð¾Ð²Ð¾ÑĢÐ¾Ð¶Ð´": 20016,
  "Ð¾Ð²Ð¾ÑĢÐ¾ÑĤ": 23901,
  "Ð¾Ð²Ð¾ÑĢÑĥ": 14163,
  "Ð¾Ð²ÑģÐºÐ°Ñı": 48426,
  "Ð¾Ð²ÑģÐºÐ¸Ð¹": 15334,
  "Ð¾Ð²ÑģÐºÐ¾Ð³Ð¾": 17484,
  "Ð¾Ð²ÑģÐºÐ¾Ð¹": 35590,
  "Ð¾Ð²Ñĥ": 11118,
  "Ð¾Ð²ÑĥÑİ": 7576,
  "Ð¾Ð²Ñĭ": 642,
  "Ð¾Ð²ÑĭÐ²Ð°ÑĤÑĮ": 17639,
  "Ð¾Ð²ÑĭÐµ": 1505,
  "Ð¾Ð²ÑĭÐ¹": 1742,
  "Ð¾Ð²ÑĭÐ¼": 2509,
  "Ð¾Ð²ÑĭÐ¼Ð¸": 4697,
  "Ð¾Ð²ÑĭÑħ": 1385,
  "Ð¾Ð²ÑĮÑı": 38698,
  "Ð¾Ð³": 317,
  "Ð¾Ð³Ð°": 1041,
  "Ð¾Ð³Ð°Ð·": 38547,
  "Ð¾Ð³Ð°Ð¼Ð¸": 16948,
  "Ð¾Ð³Ð°Ð½": 20986,
  "Ð¾Ð³Ð°ÑĤ": 38151,
  "Ð¾Ð³Ð°Ñħ": 17175,
  "Ð¾Ð³Ð´Ð°": 556,
  "Ð¾Ð³Ðµ": 2517,
  "Ð¾Ð³ÐµÐ½": 25427,
  "Ð¾Ð³Ð¸": 801,
  "Ð¾Ð³Ð¸Ð¼Ð¸": 15854,
  "Ð¾Ð³Ð»Ð°": 11383,
  "Ð¾Ð³Ð»Ð°Ð·": 36540,
  "Ð¾Ð³Ð»Ð°Ñģ": 4616,
  "Ð¾Ð³Ð»Ð°ÑģÐ½Ð¾": 5650,
  "Ð¾Ð³Ð»Ð¸": 28165,
  "Ð¾Ð³Ð¾": 346,
  "Ð¾Ð³Ð¾Ð²": 8301,
  "Ð¾Ð³Ð¾Ð²Ð¾ÑĢ": 31591,
  "Ð¾Ð³Ð¾Ð´": 8142,
  "Ð¾Ð³Ð¾Ð¹": 21266,
  "Ð¾Ð³Ð¾Ð»": 44412,
  "Ð¾Ð³Ð¾Ð¼": 11502,
  "Ð¾Ð³Ð¾Ð¾Ð±": 24811,
  "Ð¾Ð³ÑĢÐ°": 1022,
  "Ð¾Ð³ÑĢÐ°Ð´": 8905,
  "Ð¾Ð³ÑĢÐ°Ð´Ð°": 24736,
  "Ð¾Ð³ÑĢÐ°Ð´Ðµ": 32098,
  "Ð¾Ð³ÑĢÐ°Ð¼": 1603,
  "Ð¾Ð³ÑĢÐ°Ð¼Ð¼Ð°": 47294,
  "Ð¾Ð³ÑĢÐ°Ð¼Ð¼Ñĭ": 48747,
  "Ð¾Ð³ÑĢÐ°Ð½Ð¸": 24015,
  "Ð¾Ð³ÑĢÐ°Ð½Ð¸Ñĩ": 12255,
  "Ð¾Ð³ÑĢÐ°ÑĦ": 4397,
  "Ð¾Ð³ÑĢÐ°ÑĦÐ°": 24598,
  "Ð¾Ð³ÑĢÐ°ÑĦÐ¸": 2771,
  "Ð¾Ð³ÑĢÐ°ÑĦÐ¸Ð¸": 5006,
  "Ð¾Ð³ÑĢÐ°ÑĦÐ¸ÑĩÐµÑģÐºÐ¸Ðµ": 38849,
  "Ð¾Ð³ÑĢÐ°ÑĦÐ¸ÑĩÐµÑģÐºÐ¸Ð¹": 42190,
  "Ð¾Ð³ÑĢÐ°ÑĦÐ¸ÑĩÐµÑģÐºÐ¸Ñħ": 40235,
  "Ð¾Ð³ÑĢÐ°ÑĦÐ¸ÑĩÐµÑģÐºÐ¾Ð³Ð¾": 46694,
  "Ð¾Ð³ÑĢÐ°ÑĦÐ¸ÑĩÐµÑģÐºÐ¾Ð¹": 37282,
  "Ð¾Ð³ÑĢÐ°ÑĦÐ¸Ñİ": 27523,
  "Ð¾Ð³ÑĢÐ°ÑĦÐ¸Ñı": 12904,
  "Ð¾Ð³Ñĥ": 1864,
  "Ð¾Ð´": 314,
  "Ð¾Ð´Ð°": 540,
  "Ð¾Ð´Ð°Ð»ÑĮ": 42393,
  "Ð¾Ð´Ð°Ð¼Ð¸": 9242,
  "Ð¾Ð´Ð°Ñħ": 17537,
  "Ð¾Ð´Ðµ": 7774,
  "Ð¾Ð´ÐµÐ´": 49330,
  "Ð¾Ð´ÐµÐ¹": 48182,
  "Ð¾Ð´ÐµÐ¹ÑģÑĤÐ²": 4582,
  "Ð¾Ð´ÐµÐ»": 46015,
  "Ð¾Ð´ÐµÐ»Ð¸": 40084,
  "Ð¾Ð´ÐµÐ»ÑĮ": 14159,
  "Ð¾Ð´ÐµÑĢ": 1996,
  "Ð¾Ð´ÐµÑĢÐ¶Ð°": 16436,
  "Ð¾Ð´ÐµÑĢÐ¶Ð°Ð½Ð¸Ðµ": 33783,
  "Ð¾Ð´ÐµÑĤ": 28140,
  "Ð¾Ð´Ð¸": 5735,
  "Ð¾Ð´Ð¸Ð½": 24239,
  "Ð¾Ð´Ð¸Ð½Ð¾": 39963,
  "Ð¾Ð´Ð½ÐµÐ²": 49712,
  "Ð¾Ð´Ð½Ð¾": 10525,
  "Ð¾Ð´Ð¾": 33272,
  "Ð¾Ð´Ð¾Ð±": 11054,
  "Ð¾Ð´Ð¾Ð²": 20459,
  "Ð¾Ð´Ð¾Ð·": 22780,
  "Ð¾Ð´Ð¾Ð»": 25925,
  "Ð¾Ð´Ð¾Ð¼": 24977,
  "Ð¾Ð´Ð¾ÑĢ": 13936,
  "Ð¾Ð´ÑģÑĤÐ²Ð°": 48307,
  "Ð¾Ð´Ñĥ": 721,
  "Ð¾Ð´ÑĥÑĪÐµÐ²": 26425,
  "Ð¾Ð´ÑĥÑĪÐ½Ð¾": 32503,
  "Ð¾Ð´Ñĭ": 6074,
  "Ð¾Ðµ": 647,
  "Ð¾Ð¶": 362,
  "Ð¾Ð¶Ð°": 3206,
  "Ð¾Ð¶Ð°Ð»ÑĥÐ¹": 20497,
  "Ð¾Ð¶Ð°Ð»ÑĥÐ¹ÑģÑĤÐ°": 32002,
  "Ð¾Ð¶Ð°ÑĢ": 29226,
  "Ð¾Ð¶Ð´": 1266,
  "Ð¾Ð¶Ð´Ð°": 6647,
  "Ð¾Ð¶Ð´Ðµ": 7074,
  "Ð¾Ð¶Ð´ÐµÐ½Ð¸Ðµ": 5247,
  "Ð¾Ð¶Ð´ÐµÐ½Ð¸ÐµÐ¼": 36391,
  "Ð¾Ð¶Ð´ÐµÐ½Ð¸Ð¸": 8256,
  "Ð¾Ð¶Ð´ÐµÐ½Ð¸Ð¹": 30360,
  "Ð¾Ð¶Ð´ÐµÐ½Ð¸Ñİ": 33153,
  "Ð¾Ð¶Ð´ÐµÐ½Ð¸Ñı": 2981,
  "Ð¾Ð¶Ð´ÐµÑģÑĤÐ²": 30337,
  "Ð¾Ð¶Ð´ÐµÑģÑĤÐ²ÐµÐ½": 25968,
  "Ð¾Ð¶Ð´Ð¸": 24156,
  "Ð¾Ð¶Ð´Ð¸ÑĤÐµ": 37710,
  "Ð¾Ð¶Ð´ÑĮ": 25590,
  "Ð¾Ð¶Ðµ": 875,
  "Ð¾Ð¶ÐµÐ³Ð¾": 39050,
  "Ð¾Ð¶ÐµÐ¼": 28399,
  "Ð¾Ð¶ÐµÐ½": 20505,
  "Ð¾Ð¶ÐµÑģÑĤÐ²Ð¾": 29529,
  "Ð¾Ð¶ÐµÑĤ": 1900,
  "Ð¾Ð¶ÐµÑĤÐµ": 45329,
  "Ð¾Ð¶ÐµÑĪÑĮ": 10155,
  "Ð¾Ð¶Ð¸": 1596,
  "Ð¾Ð¶Ð¸Ð´Ð°Ð½": 3567,
  "Ð¾Ð¶Ð¸Ð´Ð°Ð½Ð½Ð¾": 20370,
  "Ð¾Ð¶Ð¸Ðµ": 41333,
  "Ð¾Ð¶Ð¸Ð¹": 49163,
  "Ð¾Ð¶Ð¸Ð»": 39597,
  "Ð¾Ð¶Ð¸Ð»Ð°ÑģÑĮ": 17833,
  "Ð¾Ð¶Ð¸Ð»Ð¸ÑģÑĮ": 18119,
  "Ð¾Ð¶Ð¸ÑĤÑĮÑģÑı": 20272,
  "Ð¾Ð¶ÐºÐ¸": 42263,
  "Ð¾Ð¶Ð½Ð¸Ðº": 32072,
  "Ð¾Ð¶Ð½Ð¾": 3803,
  "Ð¾Ð¶Ñĥ": 4285,
  "Ð¾Ð·": 389,
  "Ð¾Ð·Ð°": 3158,
  "Ð¾Ð·Ð°Ð²": 22346,
  "Ð¾Ð·Ð°Ð²Ð¾Ð´": 46580,
  "Ð¾Ð·Ð°Ð¼Ðµ": 44538,
  "Ð¾Ð·Ð°ÑīÐ¸ÑĤ": 17745,
  "Ð¾Ð·Ð²Ð¾Ð»": 44932,
  "Ð¾Ð·Ð³": 22705,
  "Ð¾Ð·Ð³Ð»Ð°": 13020,
  "Ð¾Ð·Ð´": 11749,
  "Ð¾Ð·Ðµ": 18895,
  "Ð¾Ð·ÐµÐ¼": 30738,
  "Ð¾Ð·ÐµÑĢ": 30196,
  "Ð¾Ð·ÐµÑĦ": 27261,
  "Ð¾Ð·Ð·": 23460,
  "Ð¾Ð·Ð¸": 3190,
  "Ð¾Ð·Ð¸Ð½": 43499,
  "Ð¾Ð·Ð¸ÑĨÐ¸Ñı": 47217,
  "Ð¾Ð·Ð¼Ð¾Ð¶Ð½Ð¾": 21627,
  "Ð¾Ð·Ð½Ð°": 2375,
  "Ð¾Ð·Ð½Ð°ÐºÐ¾Ð¼": 37477,
  "Ð¾Ð·Ð½Ð°Ð½": 28091,
  "Ð¾Ð·Ð½Ð°Ð½Ð¸Ðµ": 18158,
  "Ð¾Ð·Ð½Ð°Ð½Ð¸Ñı": 20304,
  "Ð¾Ð·Ð½Ð°Ñĩ": 23415,
  "Ð¾Ð·Ð½Ð°ÑĩÐ½Ð¾": 17148,
  "Ð¾Ð·Ð¾": 48825,
  "Ð¾Ð·Ð¾Ð²": 31740,
  "Ð¾Ð·Ð¾Ð¼": 40418,
  "Ð¾Ð·Ñĥ": 45850,
  "Ð¾Ð·Ñĭ": 7558,
  "Ð¾Ð·Ñı": 1885,
  "Ð¾Ð·ÑıÐ¹": 7582,
  "Ð¾Ð¹": 323,
  "Ð¾Ð¹Ð´": 7460,
  "Ð¾Ð¹Ð´ÐµÐ¼": 26673,
  "Ð¾Ð¹Ð´ÐµÑĤ": 4634,
  "Ð¾Ð¹Ð´Ð¸": 39865,
  "Ð¾Ð¹Ð´Ð¸ÑĤÐµ": 25558,
  "Ð¾Ð¹Ð´Ñĥ": 33575,
  "Ð¾Ð¹Ð´ÑĥÑĤ": 19097,
  "Ð¾Ð¹Ð´Ñı": 14221,
  "Ð¾Ð¹Ð´ÑĳÑĤ": 20434,
  "Ð¾Ð¹ÑĤÐ¸": 3339,
  "Ð¾Ðº": 368,
  "Ð¾ÐºÐ°": 1214,
  "Ð¾ÐºÐ°Ð·": 28277,
  "Ð¾ÐºÐ°Ð·Ð°": 15701,
  "Ð¾ÐºÐ°Ð½": 48365,
  "Ð¾ÐºÐ°ÑĢ": 42111,
  "Ð¾ÐºÐ°ÑĤ": 11557,
  "Ð¾ÐºÐ°ÑĩÐµ": 22192,
  "Ð¾ÐºÐµ": 11624,
  "Ð¾ÐºÐ¸": 7447,
  "Ð¾ÐºÐ¸Ð¹": 45926,
  "Ð¾ÐºÐ¸Ð½": 26330,
  "Ð¾ÐºÐ¸Ð¾": 28113,
  "Ð¾ÐºÐºÐ¾": 31475,
  "Ð¾ÐºÐ»Ð°ÑģÑģ": 29597,
  "Ð¾ÐºÐ¾": 1972,
  "Ð¾ÐºÐ¾Ð²": 29078,
  "Ð¾ÐºÐ¾ÐµÐ½": 36280,
  "Ð¾ÐºÐ¾Ð¹": 2063,
  "Ð¾ÐºÐ¾Ð¹Ð½Ð¾": 27323,
  "Ð¾ÐºÐ¾Ð¹ÑģÑı": 31370,
  "Ð¾ÐºÐ¾Ð»": 8488,
  "Ð¾ÐºÐ¾Ð»Ð°Ð´": 16993,
  "Ð¾ÐºÐ¾Ð»Ð¾": 25807,
  "Ð¾ÐºÐ¾Ð¼": 9960,
  "Ð¾ÐºÐ¾Ð½": 9483,
  "Ð¾ÐºÐ¾ÑĢÐµÐ¹": 35392,
  "Ð¾ÐºÑĢÐ°": 2885,
  "Ð¾ÐºÑĢÑĥÐ³": 13987,
  "Ð¾ÐºÑĢÑĥÐ¶": 25296,
  "Ð¾ÐºÑģ": 17134,
  "Ð¾ÐºÑģÐ¸": 27602,
  "Ð¾ÐºÑĥ": 5927,
  "Ð¾ÐºÑĥÐ·Ð½ÐµÑĨ": 45324,
  "Ð¾ÐºÑĥÐ¿": 12828,
  "Ð¾ÐºÑĥÑģÐ¸": 27984,
  "Ð¾Ð»": 303,
  "Ð¾Ð»Ð°": 1869,
  "Ð¾Ð»Ð°Ð³Ð°": 7575,
  "Ð¾Ð»Ð°Ð³Ð°Ñİ": 24914,
  "Ð¾Ð»Ð°Ð·": 46028,
  "Ð¾Ð»Ð°Ð¹": 27950,
  "Ð¾Ð»Ð°ÑģÑĮ": 47127,
  "Ð¾Ð»Ð³Ð¾": 4482,
  "Ð¾Ð»Ðµ": 707,
  "Ð¾Ð»ÐµÐ±": 25004,
  "Ð¾Ð»ÐµÐ²": 3979,
  "Ð¾Ð»ÐµÐ²Ð°": 13430,
  "Ð¾Ð»ÐµÐµ": 909,
  "Ð¾Ð»ÐµÐ·": 7293,
  "Ð¾Ð»ÐµÐ¹": 13789,
  "Ð¾Ð»ÐµÐ¼": 10166,
  "Ð¾Ð»ÐµÐ½": 10606,
  "Ð¾Ð»ÐµÐ¿": 7397,
  "Ð¾Ð»ÐµÑĤ": 2292,
  "Ð¾Ð»ÐµÑĨ": 42674,
  "Ð¾Ð»Ð¶": 11478,
  "Ð¾Ð»Ð¶ÐµÐ½": 14759,
  "Ð¾Ð»Ð¸": 823,
  "Ð¾Ð»Ð¸Ð¸": 21316,
  "Ð¾Ð»Ð¸Ðº": 23610,
  "Ð¾Ð»Ð¸Ð½": 31536,
  "Ð¾Ð»Ð¸Ð½Ð°": 19920,
  "Ð¾Ð»Ð¸ÑģÑĮ": 28210,
  "Ð¾Ð»Ð¸ÑĤ": 10593,
  "Ð¾Ð»Ð¸ÑĤÐ°": 26909,
  "Ð¾Ð»Ð¸ÑĨÑĭ": 26718,
  "Ð¾Ð»Ð¸ÑĩÐ½Ð¾": 40677,
  "Ð¾Ð»Ðº": 37452,
  "Ð¾Ð»ÐºÐ°": 45590,
  "Ð¾Ð»Ð¾": 1412,
  "Ð¾Ð»Ð¾Ð²": 2347,
  "Ð¾Ð»Ð¾Ð²Ð¸Ð½Ñĥ": 18999,
  "Ð¾Ð»Ð¾Ð³": 2414,
  "Ð¾Ð»Ð¾Ð³Ð°": 13103,
  "Ð¾Ð»Ð¾Ð³Ð°Ð¼Ð¸": 43095,
  "Ð¾Ð»Ð¾Ð³Ð¸": 1340,
  "Ð¾Ð»Ð¾Ð³Ð¸ÐµÐ¹": 28400,
  "Ð¾Ð»Ð¾Ð³Ð¸Ð¸": 3063,
  "Ð¾Ð»Ð¾Ð³Ð¸Ð¹": 7921,
  "Ð¾Ð»Ð¾Ð³Ð¸ÑĩÐµÑģÐºÐ°Ñı": 21952,
  "Ð¾Ð»Ð¾Ð³Ð¸ÑĩÐµÑģÐºÐ¸": 26539,
  "Ð¾Ð»Ð¾Ð³Ð¸ÑĩÐµÑģÐºÐ¸Ðµ": 13193,
  "Ð¾Ð»Ð¾Ð³Ð¸ÑĩÐµÑģÐºÐ¸Ð¹": 15834,
  "Ð¾Ð»Ð¾Ð³Ð¸ÑĩÐµÑģÐºÐ¸Ð¼": 29899,
  "Ð¾Ð»Ð¾Ð³Ð¸ÑĩÐµÑģÐºÐ¸Ð¼Ð¸": 41126,
  "Ð¾Ð»Ð¾Ð³Ð¸ÑĩÐµÑģÐºÐ¸Ñħ": 8043,
  "Ð¾Ð»Ð¾Ð³Ð¸ÑĩÐµÑģÐºÐ¾Ð³Ð¾": 14328,
  "Ð¾Ð»Ð¾Ð³Ð¸ÑĩÐµÑģÐºÐ¾Ðµ": 24121,
  "Ð¾Ð»Ð¾Ð³Ð¸ÑĩÐµÑģÐºÐ¾Ð¹": 14040,
  "Ð¾Ð»Ð¾Ð³Ð¸ÑĩÐµÑģÐºÐ¾Ð¼": 30895,
  "Ð¾Ð»Ð¾Ð³Ð¸ÑĩÐµÑģÐºÑĥÑİ": 38191,
  "Ð¾Ð»Ð¾Ð³Ð¸Ñİ": 20415,
  "Ð¾Ð»Ð¾Ð³Ð¸Ñı": 5311,
  "Ð¾Ð»Ð¾Ð³Ð¾": 31727,
  "Ð¾Ð»Ð¾Ð³Ð¾Ð²": 13405,
  "Ð¾Ð»Ð¾Ð³Ð¾Ð¼": 26583,
  "Ð¾Ð»Ð¾Ð³Ñĥ": 38390,
  "Ð¾Ð»Ð¾Ð´": 1905,
  "Ð¾Ð»Ð¾Ð¶": 15187,
  "Ð¾Ð»Ð¾Ðº": 27556,
  "Ð¾Ð»Ð¾ÐºÐ°": 41061,
  "Ð¾Ð»Ð¾Ð¼": 10667,
  "Ð¾Ð»Ð¾Ð½": 41952,
  "Ð¾Ð»Ð¾Ñģ": 6875,
  "Ð¾Ð»Ð¾ÑĤ": 3273,
  "Ð¾Ð»Ð¾ÑĤÐ¾Ð¹": 17189,
  "Ð¾Ð»Ð¾ÑĤÑĮ": 44359,
  "Ð¾Ð»Ð¾Ñĩ": 13351,
  "Ð¾Ð»Ð¾ÑĩÑĮ": 36323,
  "Ð¾Ð»ÑģÑı": 27758,
  "Ð¾Ð»Ñĥ": 7170,
  "Ð¾Ð»Ñĭ": 8076,
  "Ð¾Ð»ÑĮ": 380,
  "Ð¾Ð»ÑĮÐ´": 18422,
  "Ð¾Ð»ÑĮÐ´Ð°": 38861,
  "Ð¾Ð»ÑĮÐµ": 49645,
  "Ð¾Ð»ÑĮÐ·": 841,
  "Ð¾Ð»ÑĮÐºÐ¾": 533,
  "Ð¾Ð»ÑĮÐ½Ð°Ñı": 20627,
  "Ð¾Ð»ÑĮÐ½Ð¸ÐºÐ¾Ð²": 45373,
  "Ð¾Ð»ÑĮÐ½Ð¾": 5618,
  "Ð¾Ð»ÑĮÐ½Ð¾Ð³Ð¾": 10358,
  "Ð¾Ð»ÑĮÐ½Ð¾Ðµ": 32285,
  "Ð¾Ð»ÑĮÐ½Ð¾Ð¹": 10365,
  "Ð¾Ð»ÑĮÐ½Ð¾Ð¼": 35484,
  "Ð¾Ð»ÑĮÐ½ÑĥÑİ": 43513,
  "Ð¾Ð»ÑĮÐ½ÑĭÐµ": 14791,
  "Ð¾Ð»ÑĮÐ½ÑĭÐ¹": 11267,
  "Ð¾Ð»ÑĮÐ½ÑĭÐ¼": 35208,
  "Ð¾Ð»ÑĮÐ½ÑĭÑħ": 11536,
  "Ð¾Ð»ÑĮÑģÐºÐ¸Ð¹": 33324,
  "Ð¾Ð»ÑĮÑģÐºÐ¾Ð³Ð¾": 40437,
  "Ð¾Ð»ÑĮÑĦ": 13426,
  "Ð¾Ð»ÑĮÑĦÐ°": 36921,
  "Ð¾Ð»ÑĮÑĪ": 2315,
  "Ð¾Ð»ÑĮÑĪÐµ": 4184,
  "Ð¾Ð»ÑĮÑĪÐ¾Ð¹": 20031,
  "Ð¾Ð»ÑĮÑĪÑĥÑİ": 45194,
  "Ð¾Ð»ÑĮÑıÑĤ": 37473,
  "Ð¾Ð»ÑĮÑıÑĤÑĤÐ¸": 44720,
  "Ð¾Ð»Ñİ": 4295,
  "Ð¾Ð»ÑİÐ±": 13159,
  "Ð¾Ð»ÑİÐ±Ð¸": 18570,
  "Ð¾Ð»ÑİÐ±Ð¸Ðµ": 32271,
  "Ð¾Ð»ÑİÐ±Ð¸Ñı": 50148,
  "Ð¾Ð»Ñı": 2446,
  "Ð¾Ð¼": 304,
  "Ð¾Ð¼Ð°": 3372,
  "Ð¾Ð¼Ð°ÑĤ": 20757,
  "Ð¾Ð¼Ð°ÑĤÐµÑĢÐ¸": 27233,
  "Ð¾Ð¼Ð±Ð¸": 21054,
  "Ð¾Ð¼ÐµÑĢ": 15152,
  "Ð¾Ð¼ÐµÑĤ": 3606,
  "Ð¾Ð¼ÐµÑĤÑĢ": 44962,
  "Ð¾Ð¼ÐµÑĤÑĢÐ°": 49634,
  "Ð¾Ð¼ÐµÑĤÑĢÐ¾Ð²": 27282,
  "Ð¾Ð¼Ð¸": 21163,
  "Ð¾Ð¼Ð¸Ð½Ð°": 2157,
  "Ð¾Ð¼Ð¸Ð½Ð°Ð½Ð¸Ñı": 37964,
  "Ð¾Ð¼Ð¸Ð½Ð°Ñİ": 46558,
  "Ð¾Ð¼Ð¼ÐµÐ½ÑĤÐ¸": 12844,
  "Ð¾Ð¼Ð½ÐµÐ½Ð½Ð¾": 10755,
  "Ð¾Ð¼Ð¾": 5933,
  "Ð¾Ð¼Ð¾ÑĢ": 39525,
  "Ð¾Ð¼Ð¾Ñī": 14622,
  "Ð¾Ð¼Ñĥ": 825,
  "Ð¾Ð¼Ñĭ": 14453,
  "Ð¾Ð¼Ñı": 29321,
  "Ð¾Ð½": 356,
  "Ð¾Ð½Ð°": 853,
  "Ð¾Ð½Ð°Ð±Ð»ÑİÐ´": 30836,
  "Ð¾Ð½Ð°Ð²": 22638,
  "Ð¾Ð½Ð°Ð»": 25332,
  "Ð¾Ð½Ð°Ð»Ð°": 34158,
  "Ð¾Ð½Ð°Ð¼Ð¸": 24959,
  "Ð¾Ð½Ð°Ð½": 15914,
  "Ð¾Ð½Ð°Ñħ": 15101,
  "Ð¾Ð½Ð³": 37800,
  "Ð¾Ð½Ð´": 3201,
  "Ð¾Ð½Ð´Ð°": 14675,
  "Ð¾Ð½Ð´ÐµÐ½": 15567,
  "Ð¾Ð½Ð´ÐµÐ½ÑĤ": 13442,
  "Ð¾Ð½Ð´ÐµÐ½ÑĤÐ¾Ð²": 33141,
  "Ð¾Ð½Ð´Ð¾Ð½": 18920,
  "Ð¾Ð½Ðµ": 913,
  "Ð¾Ð½ÐµÑĨ": 1985,
  "Ð¾Ð½ÐµÑĩÐ½Ð¾": 2996,
  "Ð¾Ð½Ð¸": 2603,
  "Ð¾Ð½ÐºÐ°": 27309,
  "Ð¾Ð½ÐºÐ¸": 26964,
  "Ð¾Ð½Ð½Ð°": 32598,
  "Ð¾Ð½Ð½Ð°Ñı": 49433,
  "Ð¾Ð½Ð½Ð¾": 41630,
  "Ð¾Ð½Ð½Ð¾Ð¹": 36786,
  "Ð¾Ð½Ð½ÑĭÐµ": 41528,
  "Ð¾Ð½Ð½ÑĭÐ¹": 32081,
  "Ð¾Ð½Ð¾": 22664,
  "Ð¾Ð½Ð¾Ð²": 1970,
  "Ð¾Ð½Ð¾Ð²Ð°": 22686,
  "Ð¾Ð½Ð¾Ð²Ð¸Ñĩ": 44898,
  "Ð¾Ð½Ð¾Ðº": 21319,
  "Ð¾Ð½Ð¾Ð¼": 1305,
  "Ð¾Ð½Ð¾Ñģ": 19517,
  "Ð¾Ð½Ñģ": 13823,
  "Ð¾Ð½ÑģÐºÐ¸Ð¹": 34265,
  "Ð¾Ð½ÑģÐºÐ¾Ð³Ð¾": 30868,
  "Ð¾Ð½ÑģÐºÐ¾Ð¹": 44001,
  "Ð¾Ð½ÑĤ": 5394,
  "Ð¾Ð½ÑĤÐ°": 31038,
  "Ð¾Ð½ÑĤÐ°Ð½": 11491,
  "Ð¾Ð½ÑĤÑĢ": 30790,
  "Ð¾Ð½Ñĥ": 4681,
  "Ð¾Ð½ÑĩÐ°": 42660,
  "Ð¾Ð½Ñĭ": 2899,
  "Ð¾Ð½ÑĮ": 3035,
  "Ð¾Ð½ÑĮÐºÐ¾": 13833,
  "Ð¾Ð½ÑĮÐºÑĥ": 18641,
  "Ð¾Ð½Ñı": 35831,
  "Ð¾Ð¾": 29863,
  "Ð¾Ð¾Ð±ÑĢÐ°Ð·": 45053,
  "Ð¾Ð¿": 412,
  "Ð¾Ð¿Ð°": 4290,
  "Ð¾Ð¿Ð°Ð´": 19775,
  "Ð¾Ð¿Ð°Ð»": 47179,
  "Ð¾Ð¿Ð°ÑĢ": 16691,
  "Ð¾Ð¿Ð°ÑĢÐº": 45064,
  "Ð¾Ð¿Ð°Ñģ": 2378,
  "Ð¾Ð¿Ð°ÑģÐ½Ð¾ÑģÑĤÐ¸": 22484,
  "Ð¾Ð¿Ð°ÑģÐ½Ð¾ÑģÑĤÑĮ": 44326,
  "Ð¾Ð¿Ð°ÑĤ": 25306,
  "Ð¾Ð¿Ðµ": 11607,
  "Ð¾Ð¿ÐµÑĢÐ°": 9165,
  "Ð¾Ð¿ÐµÑĢÐµ": 21517,
  "Ð¾Ð¿ÐµÑĢÐµÐ²Ð¾Ð·": 44960,
  "Ð¾Ð¿Ð¸": 5322,
  "Ð¾Ð¿Ð¸Ð»": 25752,
  "Ð¾Ð¿Ð¸Ñģ": 9203,
  "Ð¾Ð¿Ð¸ÑģÐ°": 41237,
  "Ð¾Ð¿Ð¸ÑģÐµÑĨ": 40817,
  "Ð¾Ð¿Ð¸ÑģÐ¸": 12716,
  "Ð¾Ð¿Ð¸ÑģÑĮ": 15007,
  "Ð¾Ð¿Ð»Ð°": 8412,
  "Ð¾Ð¿Ð»Ð°Ð½ÐµÑĤ": 21370,
  "Ð¾Ð¿Ð»Ð°ÑĤÐµÐ»ÑĮ": 29990,
  "Ð¾Ð¿Ð»Ðµ": 34713,
  "Ð¾Ð¿Ð»Ð¾": 43758,
  "Ð¾Ð¿Ð¾": 8845,
  "Ð¾Ð¿Ð¾Ð²": 28946,
  "Ð¾Ð¿Ð¾Ð´": 18458,
  "Ð¾Ð¿Ð¾Ð´Ð¾Ð±": 21826,
  "Ð¾Ð¿Ð¾Ð´ÑĬÐµÐ¼": 46309,
  "Ð¾Ð¿Ð¾Ð»": 1724,
  "Ð¾Ð¿Ð¾Ð»Ð°Ð³Ð°": 41394,
  "Ð¾Ð¿Ð¾Ð»Ðµ": 23852,
  "Ð¾Ð¿Ð¾Ð»Ð¸": 29067,
  "Ð¾Ð¿Ð¾Ð»Ð¾Ð¶": 6487,
  "Ð¾Ð¿Ð¾Ð»ÑĥÑĩ": 31840,
  "Ð¾Ð¿Ð¾Ð»ÑĮ": 9201,
  "Ð¾Ð¿Ð¾Ð»ÑĮÐ·": 45331,
  "Ð¾Ð¿Ð¾Ð»Ñı": 18610,
  "Ð¾Ð¿Ð¾Ð¼": 26572,
  "Ð¾Ð¿Ð¾ÑĢ": 43330,
  "Ð¾Ð¿Ð¾ÑģÑĤÐ°Ð²": 17730,
  "Ð¾Ð¿ÑĢÐ°Ð²": 29154,
  "Ð¾Ð¿ÑĢÐµÐ´ÐµÐ»": 32562,
  "Ð¾Ð¿ÑĢÐ¸": 5634,
  "Ð¾Ð¿ÑĢÐ¸Ð¼ÐµÑĩÐ°": 19857,
  "Ð¾Ð¿ÑĢÐ¸Ñı": 3980,
  "Ð¾Ð¿ÑĢÐ¸ÑıÑĤ": 10154,
  "Ð¾Ð¿ÑĢÐ¾": 6087,
  "Ð¾Ð¿ÑĢÐ¾Ð±": 40561,
  "Ð¾Ð¿ÑĢÐ¾Ð²": 12812,
  "Ð¾Ð¿ÑĢÐ¾Ð²Ð¾Ð´": 15184,
  "Ð¾Ð¿ÑĢÐ¾Ð²Ð¾Ð´Ð°": 26800,
  "Ð¾Ð¿ÑĢÐ¾Ð²Ð¾Ð·Ð³Ð»Ð°": 29968,
  "Ð¾Ð¿ÑĢÐ¾Ð¸Ð·Ð²Ð¾Ð´": 23766,
  "Ð¾Ð¿ÑĢÐ¾Ñģ": 7035,
  "Ð¾Ð¿ÑĢÐ¾ÑĨÐµÐ½ÑĤ": 40392,
  "Ð¾Ð¿Ñĥ": 8650,
  "Ð¾Ð¿ÑĥÐ»ÑıÑĢ": 36918,
  "Ð¾Ð¿ÑĥÑĤ": 22864,
  "Ð¾Ð¿Ñĭ": 19996,
  "Ð¾Ð¿ÑĭÑĤ": 4799,
  "Ð¾ÐĲ": 41906,
  "Ð¾ÐĲÐŁ": 47460,
  "Ð¾ÐĴ": 46852,
  "Ð¾ÑĢ": 350,
  "Ð¾ÑĢÐ°": 1891,
  "Ð¾ÑĢÐ°Ð¼Ð¸": 22521,
  "Ð¾ÑĢÐ°Ð½": 39561,
  "Ð¾ÑĢÐ°Ð½Ð¶Ðµ": 49937,
  "Ð¾ÑĢÐ³": 7016,
  "Ð¾ÑĢÐ³Ð°Ð½Ð¸": 11619,
  "Ð¾ÑĢÐ³Ð°Ð½Ð¸Ð·": 37154,
  "Ð¾ÑĢÐ´": 5551,
  "Ð¾ÑĢÐ´Ð°": 15110,
  "Ð¾ÑĢÐ´Ð°Ð½": 48710,
  "Ð¾ÑĢÐ´Ð¸Ð½Ð°": 8351,
  "Ð¾ÑĢÐ´Ð¸Ð½Ð¸": 32332,
  "Ð¾ÑĢÐµ": 4642,
  "Ð¾ÑĢÐ¸": 1838,
  "Ð¾ÑĢÐ¸ÐµÐ½ÑĤÐ¸": 34680,
  "Ð¾ÑĢÐ¸Ð½": 21835,
  "Ð¾ÑĢÐ¸Ñģ": 33369,
  "Ð¾ÑĢÐ¸ÑĤ": 29615,
  "Ð¾ÑĢÐ¸ÑĤÑĮ": 11403,
  "Ð¾ÑĢÐº": 21026,
  "Ð¾ÑĢÐ¼": 16880,
  "Ð¾ÑĢÐ½Ð¾Ð¹": 34677,
  "Ð¾ÑĢÐ½ÑĭÐµ": 35080,
  "Ð¾ÑĢÐ½ÑĭÐ¹": 38514,
  "Ð¾ÑĢÐ½ÑĭÑħ": 31654,
  "Ð¾ÑĢÐ¾": 762,
  "Ð¾ÑĢÐ¾Ð²": 3690,
  "Ð¾ÑĢÐ¾Ð²Ð°": 31816,
  "Ð¾ÑĢÐ¾Ð³": 9411,
  "Ð¾ÑĢÐ¾Ð³Ð°": 39719,
  "Ð¾ÑĢÐ¾Ð³Ð¾": 30915,
  "Ð¾ÑĢÐ¾Ð´": 5141,
  "Ð¾ÑĢÐ¾Ð´Ð°": 17903,
  "Ð¾ÑĢÐ¾Ð¶": 2265,
  "Ð¾ÑĢÐ¾Ð¶Ð½Ð¾": 14696,
  "Ð¾ÑĢÐ¾Ð¼": 4520,
  "Ð¾ÑĢÐ¾Ð½": 26969,
  "Ð¾ÑĢÐ¾Ð½ÑĤÐ¾": 48577,
  "Ð¾ÑĢÐ¾ÑĤ": 37925,
  "Ð¾ÑĢÐ¾ÑĤÑĮ": 45863,
  "Ð¾ÑĢÐ¾ÑĤÑĮÑģÑı": 10318,
  "Ð¾ÑĢÐ¾ÑĪÐ¾": 4129,
  "Ð¾ÑĢÑĤ": 1701,
  "Ð¾ÑĢÑĤÐ°": 4121,
  "Ð¾ÑĢÑĤÐ¸": 6286,
  "Ð¾ÑĢÑĤÑĥ": 8546,
  "Ð¾ÑĢÑĥ": 3399,
  "Ð¾ÑĢÑĥÐ±": 40740,
  "Ð¾ÑĢÑĥÐ¶": 2830,
  "Ð¾ÑĢÑĥÐ¶Ð¸": 38254,
  "Ð¾ÑĢÑĦ": 29117,
  "Ð¾ÑĢÑĭ": 4607,
  "Ð¾ÑĢÑı": 2781,
  "Ð¾ÑĢÑıÐ´ÐºÐ°": 31146,
  "Ð¾ÑĢÑıÐ´Ð¾": 21863,
  "Ð¾ÑĢÑıÐ´Ð¾Ðº": 25551,
  "Ð¾Ñģ": 397,
  "Ð¾ÑģÐ°": 4654,
  "Ð¾ÑģÐ°Ð±Ð»Ð¸": 48361,
  "Ð¾ÑģÐ²ÑıÑī": 37723,
  "Ð¾ÑģÐµ": 16460,
  "Ð¾ÑģÐµÐº": 21965,
  "Ð¾ÑģÐµÐºÑģÑĥ": 24327,
  "Ð¾ÑģÐ¸": 4401,
  "Ð¾ÑģÐ¸Ð±Ð¸ÑĢ": 10613,
  "Ð¾ÑģÐ¸ÐºÐ¾Ð¼": 45669,
  "Ð¾ÑģÐ¸ÑģÑĤ": 40330,
  "Ð¾ÑģÐº": 26520,
  "Ð¾ÑģÐ»Ð°": 42013,
  "Ð¾ÑģÐ»Ð°Ð²": 6932,
  "Ð¾ÑģÐ»ÐµÐ´": 5232,
  "Ð¾ÑģÐ»ÐµÐ´Ð¾Ðº": 30501,
  "Ð¾ÑģÐ»ÐµÐ´ÑģÑĤÐ²Ð¸Ð¸": 8024,
  "Ð¾ÑģÐ»Ð¾Ð²": 15368,
  "Ð¾ÑģÐ¼Ð¾Ñģ": 33092,
  "Ð¾ÑģÐ¼Ð¾ÑĤ": 42957,
  "Ð¾ÑģÐ½Ð¾Ð²": 5918,
  "Ð¾ÑģÐ½Ð¾Ð²Ð°": 13711,
  "Ð¾ÑģÐ¾Ð±": 1259,
  "Ð¾ÑģÐ¾Ð±ÐµÐ½Ð½Ð¾": 30459,
  "Ð¾ÑģÐ¾Ð±Ñĭ": 13427,
  "Ð¾ÑģÐ¾Ð²": 25540,
  "Ð¾ÑģÐ¾Ð¼": 24386,
  "Ð¾ÑģÐ¾ÑĩÐµÑĤÐ°": 28853,
  "Ð¾ÑģÐ¿": 7011,
  "Ð¾ÑģÐ¿Ð°Ð»": 44401,
  "Ð¾ÑģÐ¿Ð¾Ð´": 16257,
  "Ð¾ÑģÐ¿Ð¾ÑģÐ¾Ð±": 30320,
  "Ð¾ÑģÐ¿Ð¾ÑĤÑĢÐµÐ±": 33623,
  "Ð¾ÑģÑģ": 11496,
  "Ð¾ÑģÑģÐµ": 10797,
  "Ð¾ÑģÑģÐ¸": 858,
  "Ð¾ÑģÑģÐ¸Ð¹": 7822,
  "Ð¾ÑģÑĤ": 4476,
  "Ð¾ÑģÑĤÐ°": 16978,
  "Ð¾ÑģÑĤÐ°Ð²": 17888,
  "Ð¾ÑģÑĤÐ°Ð½Ð¾Ð²": 13434,
  "Ð¾ÑģÑĤÐ¸": 3283,
  "Ð¾ÑģÑĤÐ¾Ð¹": 44638,
  "Ð¾ÑģÑĤÐ¾ÑĢÐ¾Ð¶": 23514,
  "Ð¾ÑģÑĤÑĮ": 5384,
  "Ð¾ÑģÑĤÑĮÑİ": 42610,
  "Ð¾ÑģÑħÐ¾Ð´": 7364,
  "Ð¾ÑģÑĭ": 15766,
  "Ð¾ÑĤ": 370,
  "Ð¾ÑĤÐ°": 4970,
  "Ð¾ÑĤÐ°Ð»": 36465,
  "Ð¾ÑĤÐ°Ð¼Ð¸": 45383,
  "Ð¾ÑĤÐ²ÐµÑĤ": 1786,
  "Ð¾ÑĤÐ²Ð¾ÑĢ": 14590,
  "Ð¾ÑĤÐ²ÑĢÐ°": 10543,
  "Ð¾ÑĤÐ´ÐµÐ»": 38350,
  "Ð¾ÑĤÐµ": 2843,
  "Ð¾ÑĤÐµÐºÐ°": 36251,
  "Ð¾ÑĤÐµÑĢ": 33581,
  "Ð¾ÑĤÐµÑĢÐ°": 14460,
  "Ð¾ÑĤÐµÑĢÐ°Ð¿Ð¸Ð¸": 49132,
  "Ð¾ÑĤÐµÑĢÐ¸": 36060,
  "Ð¾ÑĤÐµÑħ": 17202,
  "Ð¾ÑĤÐµÑħÐ½": 26033,
  "Ð¾ÑĤÐµÑĩÐµ": 19023,
  "Ð¾ÑĤÐ¸": 10965,
  "Ð¾ÑĤÐºÐ°": 45330,
  "Ð¾ÑĤÐºÑĢÑĭ": 11393,
  "Ð¾ÑĤÐºÑĥÐ´Ð°": 42461,
  "Ð¾ÑĤÐ½Ð¾": 6762,
  "Ð¾ÑĤÐ¾": 2649,
  "Ð¾ÑĤÐ¾Ð²": 6587,
  "Ð¾ÑĤÐ¾Ð³ÑĢÐ°ÑĦÐ¸": 30366,
  "Ð¾ÑĤÐ¾Ð¹": 8964,
  "Ð¾ÑĤÐ¾Ðº": 39146,
  "Ð¾ÑĤÐ¾Ð¼": 8988,
  "Ð¾ÑĤÐ¾Ð¼Ñĥ": 20278,
  "Ð¾ÑĤÐ¾Ð¿": 35545,
  "Ð¾ÑĤÐ¾Ñĩ": 20091,
  "Ð¾ÑĤÑĢÐµÐ±": 4658,
  "Ð¾ÑĤÑĢÐ¾Ð¿": 41228,
  "Ð¾ÑĤÑĥ": 5255,
  "Ð¾ÑĤÑĭ": 3244,
  "Ð¾ÑĤÑı": 19558,
  "Ð¾Ñĥ": 6194,
  "Ð¾ÑĦ": 3822,
  "Ð¾ÑĦÐ°": 40200,
  "Ð¾ÑĦÐ¸": 7355,
  "Ð¾ÑĦÐ¸Ð·": 43440,
  "Ð¾ÑĦÐ¸ÑĨÐ¸Ð°Ð»ÑĮ": 22741,
  "Ð¾ÑĦÐ¾Ð±": 45036,
  "Ð¾ÑĦÑĦ": 21131,
  "Ð¾Ñħ": 3345,
  "Ð¾ÑħÐ¸Ð¼Ð¸": 36699,
  "Ð¾ÑħÐ¾Ð¶Ðµ": 26499,
  "Ð¾ÑħÐ¾Ð·ÑıÐ¹": 22278,
  "Ð¾ÑħÐ¾ÑĤ": 45586,
  "Ð¾ÑħÑĢÐ°": 7742,
  "Ð¾ÑħÑĢÐ°Ð½": 34867,
  "Ð¾ÑħÑĢÐ°Ð½Ð¸Ð»Ð¸": 30912,
  "Ð¾ÑĨÐµÐ½": 22978,
  "Ð¾ÑĨÐµÐ½Ð¸": 23453,
  "Ð¾ÑĨÐ¸Ð°": 7588,
  "Ð¾ÑĨÐ¸Ð¸": 24881,
  "Ð¾Ñĩ": 717,
  "Ð¾ÑĩÐ°": 37817,
  "Ð¾ÑĩÐµ": 16549,
  "Ð¾ÑĩÐµÐº": 14988,
  "Ð¾ÑĩÐµÐ¼Ñĥ": 8949,
  "Ð¾ÑĩÐµÐ½ÑĮ": 19696,
  "Ð¾ÑĩÐµÑĢÐµÐ´": 19072,
  "Ð¾ÑĩÐµÑĤ": 11713,
  "Ð¾ÑĩÐµÑĤÐ°": 22725,
  "Ð¾ÑĩÐµÑĤÑģÑı": 19181,
  "Ð¾ÑĩÐ¸": 24849,
  "Ð¾ÑĩÐ¸Ð»": 7710,
  "Ð¾ÑĩÐ¸Ð½": 36006,
  "Ð¾ÑĩÐºÐ°": 7489,
  "Ð¾ÑĩÐºÐ°Ð¼Ð¸": 28965,
  "Ð¾ÑĩÐºÐµ": 17215,
  "Ð¾ÑĩÐºÐ¸": 6901,
  "Ð¾ÑĩÐºÐ¾Ð²": 41547,
  "Ð¾ÑĩÐºÐ¾Ð¹": 30229,
  "Ð¾ÑĩÐºÐ¾Ð¼": 48285,
  "Ð¾ÑĩÐºÑĥ": 9984,
  "Ð¾ÑĩÐ½Ð°Ñı": 17954,
  "Ð¾ÑĩÐ½Ð¾": 13878,
  "Ð¾ÑĩÐ½Ð¾Ð³Ð¾": 16902,
  "Ð¾ÑĩÐ½Ð¾Ðµ": 29341,
  "Ð¾ÑĩÐ½Ð¾Ð¹": 10217,
  "Ð¾ÑĩÐ½Ð¾Ð¼": 42350,
  "Ð¾ÑĩÐ½ÑĥÑİ": 26165,
  "Ð¾ÑĩÐ½ÑĭÐµ": 10699,
  "Ð¾ÑĩÐ½ÑĭÐ¹": 13725,
  "Ð¾ÑĩÐ½ÑĭÐ¼": 30757,
  "Ð¾ÑĩÐ½ÑĭÐ¼Ð¸": 41388,
  "Ð¾ÑĩÐ½ÑĭÑħ": 10903,
  "Ð¾ÑĩÑĥ": 9769,
  "Ð¾ÑĩÑĥÐ²": 19004,
  "Ð¾ÑĩÑĮ": 3460,
  "Ð¾ÑĩÑĮÑİ": 20786,
  "Ð¾ÑĪ": 46081,
  "Ð¾ÑĪÐµÐ»": 36209,
  "Ð¾ÑĪÐ»Ð°": 46241,
  "Ð¾ÑĪÐ»Ð¾": 40305,
  "Ð¾Ñī": 12015,
  "Ð¾ÑīÐ°": 17323,
  "Ð¾ÑīÑĮ": 37768,
  "Ð¾Ñİ": 7673,
  "Ð¾Ñı": 9329,
  "Ð¿": 293,
  "Ð¿Ð°": 513,
  "Ð¿Ð°Ð´": 1896,
  "Ð¿Ð°Ð´Ð°": 6372,
  "Ð¿Ð°Ð´Ð°ÐµÑĤ": 15109,
  "Ð¿Ð°Ð´Ð°ÑİÑīÐ¸Ð¹": 45546,
  "Ð¿Ð°Ð´Ðµ": 14275,
  "Ð¿Ð°Ð´ÐµÐ½Ð¸Ðµ": 46458,
  "Ð¿Ð°Ð´Ñĥ": 26982,
  "Ð¿Ð°ÐµÑĤ": 30260,
  "Ð¿Ð°Ð¹": 30458,
  "Ð¿Ð°Ðº": 22980,
  "Ð¿Ð°Ð»": 13310,
  "Ð¿Ð°Ð»Ð°": 22413,
  "Ð¿Ð°Ð»Ð¸": 26108,
  "Ð¿Ð°Ð»Ð¸ÑģÑĮ": 24976,
  "Ð¿Ð°Ð»Ð¾": 45805,
  "Ð¿Ð°Ð¼": 47164,
  "Ð¿Ð°Ð¼Ð¸": 10816,
  "Ð¿Ð°Ð½": 7127,
  "Ð¿Ð°Ð½Ð°": 26458,
  "Ð¿Ð°Ð½Ð¸": 40689,
  "Ð¿Ð°Ð½Ð¸Ð¸": 7421,
  "Ð¿Ð°Ð½Ð¸Ð¹": 32948,
  "Ð¿Ð°Ð½Ð¸Ñı": 5581,
  "Ð¿Ð°Ð½Ñĭ": 39355,
  "Ð¿Ð°ÑĢ": 3533,
  "Ð¿Ð°ÑĢÐ°": 3446,
  "Ð¿Ð°ÑĢÐ°ÑĤ": 7414,
  "Ð¿Ð°ÑĢÐ¸": 42289,
  "Ð¿Ð°ÑĢÑĤÐ°": 9036,
  "Ð¿Ð°ÑĢÑĤÐ°Ðº": 12196,
  "Ð¿Ð°Ñģ": 2226,
  "Ð¿Ð°ÑģÐ°": 43947,
  "Ð¿Ð°ÑģÐ¸Ð±Ð¾": 4384,
  "Ð¿Ð°ÑĤ": 19308,
  "Ð¿Ð°ÑĤÑĢÐ¸": 24689,
  "Ð¿Ð°ÑĤÑĢÐ¸Ð¾": 43690,
  "Ð¿Ð°ÑĤÑĮ": 11968,
  "Ð¿Ð°ÑĤÑĮÑģÑı": 45307,
  "Ð¿Ð°Ñħ": 10375,
  "Ð¿Ð°ÑİÑĤ": 40960,
  "Ð¿Ð°Ñı": 16232,
  "Ð¿Ðµ": 1035,
  "Ð¿ÐµÐ²": 8595,
  "Ð¿ÐµÐ´": 9273,
  "Ð¿ÐµÐ´Ð°Ð³Ð¾Ð³Ð¸": 44968,
  "Ð¿ÐµÐ´Ð¸": 36482,
  "Ð¿ÐµÐ´Ð¾": 42956,
  "Ð¿ÐµÐ´Ñĭ": 43079,
  "Ð¿ÐµÐ»": 8139,
  "Ð¿ÐµÐ»Ð°": 14851,
  "Ð¿ÐµÐ»ÑĮ": 41959,
  "Ð¿ÐµÐ½": 10089,
  "Ð¿ÐµÐ½Ð´Ð¸": 40714,
  "Ð¿ÐµÐ½Ñĥ": 36848,
  "Ð¿ÐµÑĢ": 872,
  "Ð¿ÐµÑĢÐ°": 2314,
  "Ð¿ÐµÑĢÐ²Ð°": 30972,
  "Ð¿ÐµÑĢÐ²ÑĭÐµ": 3713,
  "Ð¿ÐµÑĢÐ²ÑĭÑħ": 7329,
  "Ð¿ÐµÑĢÐµ": 6781,
  "Ð¿ÐµÑĢÐµÐ²Ð¾Ð·": 44472,
  "Ð¿ÐµÑĢÐµÐ´": 18521,
  "Ð¿ÐµÑĢÐµÐ´Ð¸": 21034,
  "Ð¿ÐµÑĢÐ¸": 31792,
  "Ð¿ÐµÑĢÑĤÑĥ": 32328,
  "Ð¿ÐµÑĢÑĮ": 1150,
  "Ð¿ÐµÑģ": 40450,
  "Ð¿ÐµÑĤ": 4991,
  "Ð¿ÐµÑĤÐµÐ½ÑĤ": 47523,
  "Ð¿ÐµÑĨ": 23345,
  "Ð¿ÐµÑĩÐ°": 21747,
  "Ð¿ÐµÑĩÐ°ÑĤ": 8373,
  "Ð¿ÐµÑĩÐ°ÑĤÐºÐ°": 47973,
  "Ð¿Ð¸": 589,
  "Ð¿Ð¸Ð²": 24691,
  "Ð¿Ð¸Ð¸": 12990,
  "Ð¿Ð¸Ð¹": 7608,
  "Ð¿Ð¸Ðº": 47989,
  "Ð¿Ð¸Ð»": 18204,
  "Ð¿Ð¸Ð»Ð°": 14081,
  "Ð¿Ð¸Ð»Ð°ÑģÑĮ": 47390,
  "Ð¿Ð¸Ð»Ð¸": 10820,
  "Ð¿Ð¸Ð»Ð¸ÑģÑĮ": 32449,
  "Ð¿Ð¸Ð½": 12285,
  "Ð¿Ð¸Ð½Ð°": 20801,
  "Ð¿Ð¸Ð½Ð³": 48462,
  "Ð¿Ð¸Ð½Ñĭ": 36504,
  "Ð¿Ð¸Ð¾Ð½": 14945,
  "Ð¿Ð¸Ð¾Ð½Ð°": 11562,
  "Ð¿Ð¸ÑĢ": 34737,
  "Ð¿Ð¸ÑĢÐ°": 44802,
  "Ð¿Ð¸Ñģ": 1594,
  "Ð¿Ð¸ÑģÐ°": 1982,
  "Ð¿Ð¸ÑģÐ°Ð»": 36531,
  "Ð¿Ð¸ÑģÐ°Ð½Ð¸Ðµ": 17408,
  "Ð¿Ð¸ÑģÐ°Ð½Ð¾": 46675,
  "Ð¿Ð¸ÑģÐ°ÑĤÑĮ": 13627,
  "Ð¿Ð¸ÑģÐ°ÑĤÑĮÑģÑı": 33674,
  "Ð¿Ð¸ÑģÐ¸": 8472,
  "Ð¿Ð¸ÑģÐºÐ°": 39363,
  "Ð¿Ð¸ÑģÐºÐ¸": 43007,
  "Ð¿Ð¸ÑģÐºÐ¾Ð¿": 9819,
  "Ð¿Ð¸ÑģÐºÐ¾Ð¿Ð°": 23059,
  "Ð¿Ð¸ÑģÐ¾Ðº": 20036,
  "Ð¿Ð¸ÑģÑĮ": 6573,
  "Ð¿Ð¸ÑĤ": 1748,
  "Ð¿Ð¸ÑĤÐ°Ð½": 11037,
  "Ð¿Ð¸ÑĤÑĮ": 3299,
  "Ð¿Ð¸ÑĪ": 10578,
  "Ð¿Ð¸ÑĪÐµÑĤ": 36843,
  "Ð¿Ð¸ÑĪÐ¸ÑĤÐµ": 21103,
  "Ð¿Ð¸ÑĪÐ¸ÑĤÐµÑģÑĮ": 37470,
  "Ð¿Ð¸Ñİ": 40837,
  "Ð¿Ð¸Ñı": 17762,
  "Ð¿ÐºÐ°": 21736,
  "Ð¿ÐºÐ¸": 13846,
  "Ð¿ÐºÑĥ": 15928,
  "Ð¿Ð»": 16949,
  "Ð¿Ð»Ð°": 2592,
  "Ð¿Ð»Ð°Ð½": 36107,
  "Ð¿Ð»Ð°Ð½Ð¸": 30931,
  "Ð¿Ð»Ð°ÑĤÐ°": 26260,
  "Ð¿Ð»Ðµ": 32122,
  "Ð¿Ð»ÐµÐ¹": 47695,
  "Ð¿Ð»ÐµÐ½": 48655,
  "Ð¿Ð»Ð¸": 9116,
  "Ð¿Ð»Ð¸ÐºÐ°": 35427,
  "Ð¿Ð»Ð¾Ð¼": 5386,
  "Ð¿Ð»Ð¾ÑīÐ°": 39542,
  "Ð¿Ð»Ñı": 13182,
  "Ð¿Ð»ÑıÑĢ": 36498,
  "Ð¿Ð½Ð¾": 40588,
  "Ð¿Ð¾": 1369,
  "Ð¿Ð¾Ð²": 3899,
  "Ð¿Ð¾Ð²Ð°": 22403,
  "Ð¿Ð¾Ð²ÐµÐ´": 39611,
  "Ð¿Ð¾Ð³": 37387,
  "Ð¿Ð¾Ð´": 1567,
  "Ð¿Ð¾Ð´Ð³Ð¾ÑĤÐ¾Ð²": 36885,
  "Ð¿Ð¾Ð´Ð¾Ð±": 32582,
  "Ð¿Ð¾Ð·": 26296,
  "Ð¿Ð¾Ð·Ð¸": 6809,
  "Ð¿Ð¾Ð¹": 10738,
  "Ð¿Ð¾Ðº": 14845,
  "Ð¿Ð¾ÐºÐ°": 36635,
  "Ð¿Ð¾Ð»": 911,
  "Ð¿Ð¾Ð»Ð·": 48238,
  "Ð¿Ð¾Ð»Ð¸": 22160,
  "Ð¿Ð¾Ð»Ð¸Ñģ": 49750,
  "Ð¿Ð¾Ð»Ð¸ÑĤ": 35812,
  "Ð¿Ð¾Ð»Ð¸ÑĤÐ¸ÑĩÐµÑģÐº": 12920,
  "Ð¿Ð¾Ð»Ð¸ÑĤÐ¸ÑĩÐµÑģÐºÐ¾Ð¹": 48850,
  "Ð¿Ð¾Ð»ÐºÐ¾Ð²Ð½Ð¸Ðº": 42617,
  "Ð¿Ð¾Ð»Ð½Ðµ": 2939,
  "Ð¿Ð¾Ð»Ð½Ð¾Ð¼Ð¾Ñĩ": 15663,
  "Ð¿Ð¾Ð»Ð¾Ð¶": 42025,
  "Ð¿Ð¾Ð»ÑĮ": 29519,
  "Ð¿Ð¾Ð»ÑĮÐ·": 44084,
  "Ð¿Ð¾Ð¼": 3258,
  "Ð¿Ð¾Ð¼Ð°Ð»Ñĥ": 48848,
  "Ð¿Ð¾Ð½": 4031,
  "Ð¿Ð¾Ð¿": 44451,
  "Ð¿Ð¾ÑĢ": 11415,
  "Ð¿Ð¾ÑĢÐ°": 5934,
  "Ð¿Ð¾ÑĢÑĤ": 11800,
  "Ð¿Ð¾ÑĢÑĤÐ°": 37234,
  "Ð¿Ð¾ÑĢÑĥ": 31445,
  "Ð¿Ð¾Ñģ": 9129,
  "Ð¿Ð¾ÑģÐ»Ðµ": 27946,
  "Ð¿Ð¾ÑģÐ»ÐµÐ´": 25882,
  "Ð¿Ð¾ÑģÑĢÐµÐ´": 41263,
  "Ð¿Ð¾ÑģÑĤ": 13715,
  "Ð¿Ð¾ÑģÑĤÐ°": 33393,
  "Ð¿Ð¾ÑģÑĤÐ¾Ð»": 25243,
  "Ð¿Ð¾ÑĤ": 5570,
  "Ð¿Ð¾ÑĤÐ°": 43399,
  "Ð¿Ð¾ÑĤÐµ": 16673,
  "Ð¿Ð¾ÑĤÐ¾Ð¼": 13658,
  "Ð¿Ð¾ÑĤÐ¾Ð¼Ñĥ": 40510,
  "Ð¿Ð¾Ñĩ": 3390,
  "Ð¿Ð¾ÑĩÐµÐ¼Ñĥ": 41784,
  "Ð¿Ð¾ÑĩÐºÐ°": 25709,
  "Ð¿Ð¾ÑĩÐºÐ°Ñħ": 43113,
  "Ð¿Ð¾ÑĩÐºÐ¸": 22488,
  "Ð¿Ð¾ÑĩÐºÑĥ": 39778,
  "Ð¿Ð¾ÑĩÑĤÐ¸": 47190,
  "Ð¿Ð¿": 23530,
  "Ð¿Ð¿Ð¸": 46202,
  "Ð¿ÑĢ": 22332,
  "Ð¿ÑĢÐ°": 28083,
  "Ð¿ÑĢÐ°Ð²": 1599,
  "Ð¿ÑĢÐ°Ð²Ð´Ð°": 35110,
  "Ð¿ÑĢÐ°Ð²Ð¸ÑĤÐµÐ»ÑĮ": 43853,
  "Ð¿ÑĢÐ°Ð²Ð»ÐµÐ½Ð¸Ðµ": 35215,
  "Ð¿ÑĢÐ°Ðº": 24837,
  "Ð¿ÑĢÐ°Ñģ": 47715,
  "Ð¿ÑĢÐµ": 8108,
  "Ð¿ÑĢÐµÐ´": 8844,
  "Ð¿ÑĢÐµÐ´ÑģÑĤÐ°Ð²": 40872,
  "Ð¿ÑĢÐµÐ¶": 5899,
  "Ð¿ÑĢÐµÐ¶Ð½ÐµÐ¼Ñĥ": 6093,
  "Ð¿ÑĢÐµÐ·Ð¸Ð´": 27394,
  "Ð¿ÑĢÐµÐ·Ð¸Ð´ÐµÐ½ÑĤ": 22079,
  "Ð¿ÑĢÐµÐ·Ð¸Ð´ÐµÐ½ÑĤÐ°": 40000,
  "Ð¿ÑĢÐµÐ»ÑĮ": 49518,
  "Ð¿ÑĢÐµÐ¼ÑĮÐµÑĢ": 24339,
  "Ð¿ÑĢÐµÑĤÐ°": 23722,
  "Ð¿ÑĢÐ¸": 960,
  "Ð¿ÑĢÐ¸Ð·": 12014,
  "Ð¿ÑĢÐ¸Ð¸Ð¼": 20290,
  "Ð¿ÑĢÐ¸Ð¼ÐµÑĢ": 3927,
  "Ð¿ÑĢÐ¸Ð½": 35470,
  "Ð¿ÑĢÐ¸Ð¿Ð°": 16781,
  "Ð¿ÑĢÐ¸ÑıÑĤ": 48190,
  "Ð¿ÑĢÐ¾": 1961,
  "Ð¿ÑĢÐ¾Ð±": 34913,
  "Ð¿ÑĢÐ¾Ð²": 28845,
  "Ð¿ÑĢÐ¾Ð²Ð¾Ð´": 40953,
  "Ð¿ÑĢÐ¾Ð³ÑĢÐ°Ð¼": 28503,
  "Ð¿ÑĢÐ¾Ð´": 31713,
  "Ð¿ÑĢÐ¾Ð´Ð°": 23715,
  "Ð¿ÑĢÐ¾Ð´Ð°Ð¶Ð¸": 43462,
  "Ð¿ÑĢÐ¾Ð´ÑĥÐº": 41020,
  "Ð¿ÑĢÐ¾ÐµÐºÑĤ": 36741,
  "Ð¿ÑĢÐ¾Ð¸Ð·Ð²Ð¾Ð´": 20697,
  "Ð¿ÑĢÐ¾Ðº": 16795,
  "Ð¿ÑĢÐ¾ÐºÑĥÑĢÐ°": 29283,
  "Ð¿ÑĢÐ¾Ð¼": 8764,
  "Ð¿ÑĢÐ¾Ð¼Ð°": 29347,
  "Ð¿ÑĢÐ¾Ð¼ÑĭÑĪÐ»ÐµÐ½": 29646,
  "Ð¿ÑĢÐ¾Ð½Ð¸ÑĨÐ°": 47625,
  "Ð¿ÑĢÐ¾Ð¿": 26376,
  "Ð¿ÑĢÐ¾Ñģ": 33516,
  "Ð¿ÑĢÐ¾ÑģÑĤÐ¾": 22251,
  "Ð¿ÑĢÐ¾ÑģÑĤÑĢÐ°Ð½": 37642,
  "Ð¿ÑĢÐ¾ÑĤÐ¸Ð²": 16010,
  "Ð¿ÑĢÐ¾ÑĦÐµÑģÑģÐ¸Ð¾Ð½": 46256,
  "Ð¿ÑĢÐ¾ÑĨÐµÐ½ÑĤ": 45900,
  "Ð¿ÑĢÐ¾ÑĨÐµÑģ": 41531,
  "Ð¿ÑĢÐ¾ÑĩÐµÐ¼": 3650,
  "Ð¿ÑĢÑĭ": 48919,
  "Ð¿ÑĢÑı": 28495,
  "Ð¿Ñģ": 22249,
  "Ð¿ÑģÐ¸Ñħ": 21078,
  "Ð¿ÑĤÐ¸": 29551,
  "Ð¿ÑĤÐ¾Ð¼": 10377,
  "Ð¿Ñĥ": 864,
  "Ð¿ÑĥÐ»ÑĮ": 10595,
  "Ð¿ÑĥÐ½Ðº": 29781,
  "Ð¿ÑĥÑĢ": 21013,
  "Ð¿ÑĥÑģ": 27377,
  "Ð¿ÑĥÑģÐ°": 47870,
  "Ð¿ÑĥÑģÐº": 19816,
  "Ð¿ÑĥÑĤÐ°": 3252,
  "Ð¿ÑĥÑĤÐ¸": 34477,
  "Ð¿Ñĭ": 1923,
  "Ð¿ÑıÑĤ": 22878,
  "Ð¿ÑıÑĤÐ¸": 32854,
  "Ð¿ÑıÑĤÑĮ": 31562,
  "Ðģ": 26972,
  "ÐĨ": 28831,
  "ÐĲ": 618,
  "ÐĲÐ¡": 9407,
  "ÐĲÐ¡Ð¡": 5956,
  "ÐĲÐ¢": 9899,
  "ÐĲÐ¢Ð¬": 31843,
  "ÐĲÐ±": 38165,
  "ÐĲÐ²": 11636,
  "ÐĲÐ²Ð¸": 49165,
  "ÐĲÐ²ÑĤ": 46041,
  "ÐĲÐ²ÑĤÐ¾Ð¼": 44230,
  "ÐĲÐ³": 47018,
  "ÐĲÐ³Ð°": 38959,
  "ÐĲÐ´": 20636,
  "ÐĲÐ´Ð¼Ð¸ÑĢÐ°Ð»": 47518,
  "ÐĲÐ·": 43711,
  "ÐĲÐ¹": 19253,
  "ÐĲÐº": 16563,
  "ÐĲÐ»": 18163,
  "ÐĲÐ»ÐµÐºÑģ": 16443,
  "ÐĲÐ»ÐµÐºÑģÐ°Ð½Ð´ÑĢ": 28810,
  "ÐĲÐ»ÑĮ": 13945,
  "ÐĲÐ¼": 29422,
  "ÐĲÐ¼ÐµÑĢÐ¸ÐºÐ°Ð½": 33929,
  "ÐĲÐ½": 5853,
  "ÐĲÐ½Ð³": 45612,
  "ÐĲÐ½Ð´": 22579,
  "ÐĲÐ½Ð´Ð¶": 21563,
  "ÐĲÐ½Ð´Ð¶ÐµÐ»Ðµ": 32525,
  "ÐĲÐ½Ð´Ð¶ÐµÐ»ÐµÑģ": 43469,
  "ÐĲÐ½Ð´Ð¶ÐµÐ»ÐµÑģÐµ": 46013,
  "ÐĲÐ½Ð´ÑĢÐµÐ¹": 33121,
  "ÐĲÐ½Ð¶Ð¸": 45380,
  "ÐĲÐ½Ð½Ð°": 36040,
  "ÐĲÐĲ": 43480,
  "ÐĲÐĹ": 10589,
  "ÐĲÐļ": 16049,
  "ÐĲÐľ": 17388,
  "ÐĲÐĿ": 4742,
  "ÐĲÐĿÐŀ": 41324,
  "ÐĲÐŀ": 5607,
  "ÐĲÐł": 7290,
  "ÐĲÐŃ": 45667,
  "ÐĲÐŃÐ¡": 49259,
  "ÐĲÑĢ": 7306,
  "ÐĲÑĢÑģÐµÐ½": 31742,
  "ÐĲÑĢÑħ": 43750,
  "ÐĲÑĤ": 24178,
  "ÐĲÑĤÐ»Ð°Ð½": 50157,
  "ÐĲÑĤÐ»ÐµÑĤ": 49256,
  "ÐĲÑħ": 24860,
  "ÐĲÑį": 28833,
  "ÐĲÑįÑĢÐ¾ÑĦ": 38654,
  "Ðĳ": 983,
  "ÐĳÐ£": 11014,
  "ÐĳÐ£ÐłÐĵ": 49598,
  "ÐĳÐ°": 12003,
  "ÐĳÐ°Ð±": 49092,
  "ÐĳÐ°Ð¹": 38617,
  "ÐĳÐ°Ð»": 29156,
  "ÐĳÐ°Ð½Ðº": 47776,
  "ÐĳÐ°ÑĢ": 15383,
  "ÐĳÐ°ÑĢÑģÐµÐ»Ð¾": 39227,
  "ÐĳÐµ": 22709,
  "ÐĳÐµÐ·": 19479,
  "ÐĳÐµÐ»": 15664,
  "ÐĳÐµÐ½": 36578,
  "ÐĳÐµÑĢ": 31542,
  "ÐĳÐ¸": 26627,
  "ÐĳÐ¸ÑĤ": 44595,
  "ÐĳÐ¾": 20181,
  "ÐĳÐ¾Ð³": 32673,
  "ÐĳÐ¾Ð¶Ðµ": 39317,
  "ÐĳÐ¾Ð»": 49988,
  "ÐĳÐ¾Ð»ÐµÐµ": 48048,
  "ÐĳÐ¾Ð»ÑĮ": 28211,
  "ÐĳÐ¾Ð»ÑĮÑĪ": 35485,
  "ÐĳÐ¾Ð»ÑĮÑĪÐ°Ñı": 40423,
  "ÐĳÐ¾Ð»ÑĮÑĪÐµ": 37631,
  "ÐĳÐ¾Ð»ÑĮÑĪÐ¾Ð¹": 40747,
  "ÐĳÐ¾ÑĢ": 41192,
  "ÐĳÐĲ": 20069,
  "ÐĳÐķ": 39351,
  "ÐĳÐĺ": 43701,
  "ÐĳÐļ": 15362,
  "ÐĳÐŀ": 12124,
  "ÐĳÐŀÐ£": 46433,
  "ÐĳÐł": 14796,
  "ÐĳÑĢÐ¸": 40736,
  "ÐĳÑĥ": 31649,
  "ÐĳÑĥÐ´": 30145,
  "ÐĳÑĭ": 12134,
  "ÐĳÑĭÐ²ÑĪÐ¸Ð¹": 45433,
  "ÐĳÑĭÐ»": 46873,
  "ÐĳÑĭÐ»Ð¾": 30761,
  "ÐĴ": 677,
  "ÐĴÐ¡": 29340,
  "ÐĴÐ«": 27824,
  "ÐĴÐ°": 11008,
  "ÐĴÐ°Ð»": 49017,
  "ÐĴÐ°Ð¼": 40746,
  "ÐĴÐ°ÑĢ": 42282,
  "ÐĴÐ°Ñģ": 47911,
  "ÐĴÐ°ÑģÑı": 37265,
  "ÐĴÐ°ÑģÑıÐĶÑĥÑģÑı": 42746,
  "ÐĴÐ°ÑĪ": 34275,
  "ÐĴÐ´ÑĢÑĥÐ³": 36399,
  "ÐĴÐµ": 12616,
  "ÐĴÐµÐ´": 48564,
  "ÐĴÐµÐ´Ð¾Ð¼": 43948,
  "ÐĴÐµÐ´Ð¾Ð¼Ð¾ÑģÑĤÐ¸": 45382,
  "ÐĴÐµÐ´ÑĮ": 36677,
  "ÐĴÐµÐ»Ð¸": 20314,
  "ÐĴÐµÑĢ": 15309,
  "ÐĴÐµÑģ": 28977,
  "ÐĴÐµÑģÑĤ": 41731,
  "ÐĴÐµÑģÑĮ": 40096,
  "ÐĴÐµÑĤ": 48463,
  "ÐĴÐµÑĩÐµÑĢ": 49999,
  "ÐĴÐµÑĩÐµÑĢÐ¾Ð¼": 46326,
  "ÐĴÐ·": 20710,
  "ÐĴÐ¸": 21116,
  "ÐĴÐ¸Ð´": 28526,
  "ÐĴÐ¸Ðº": 28259,
  "ÐĴÐ¸Ð½": 40480,
  "ÐĴÐ¸ÑĤ": 38900,
  "ÐĴÐ»Ð°": 45907,
  "ÐĴÐ»Ð°Ð´Ð¸": 25852,
  "ÐĴÐ»Ð°Ð´Ð¸Ð¼Ð¸ÑĢ": 33408,
  "ÐĴÐ¼ÐµÑģÑĤÐ¾": 43139,
  "ÐĴÐ½Ðµ": 26668,
  "ÐĴÐ½ÐµÐ·Ð°Ð¿Ð½Ð¾": 37394,
  "ÐĴÐ¾": 6706,
  "ÐĴÐ¾Ð´": 37165,
  "ÐĴÐ¾Ð·": 12105,
  "ÐĴÐ¾Ð·Ð²ÑĢÐ°": 47045,
  "ÐĴÐ¾Ð·Ð¼Ð¾Ð¶Ð½Ð¾": 35172,
  "ÐĴÐ¾Ð¹": 32258,
  "ÐĴÐ¾Ð»": 15821,
  "ÐĴÐ¾Ð¾Ð±ÑīÐµ": 40806,
  "ÐĴÐ¾Ð¿ÑĢÐ¾Ñģ": 29160,
  "ÐĴÐ¾ÑĢÐ¾": 47917,
  "ÐĴÐ¾Ñģ": 46583,
  "ÐĴÐ¾ÑģÑĤÐ¾": 24091,
  "ÐĴÐ¾ÑģÑĤÐ¾ÑĩÐ½Ð¾Ð¹": 46974,
  "ÐĴÐ¾ÑĤ": 7494,
  "ÐĴÐ¿ÑĢÐ¾ÑĩÐµÐ¼": 27042,
  "ÐĴÐĲ": 6030,
  "ÐĴÐĲÐĿ": 29613,
  "ÐĴÐĶ": 5246,
  "ÐĴÐķ": 22532,
  "ÐĴÐķÐł": 46673,
  "ÐĴÐĺ": 16639,
  "ÐĴÐļ": 47966,
  "ÐĴÐļÐ¾Ð½ÑĤÐ°ÐºÑĤÐµ": 24073,
  "ÐĴÐľ": 47834,
  "ÐĴÐŀ": 7498,
  "ÐĴÑĢÐµÐ¼Ñı": 30381,
  "ÐĴÑģÐµ": 6039,
  "ÐĴÑģÐµÐ¼": 39764,
  "ÐĴÑģÐºÐ¾ÑĢÐµ": 31447,
  "ÐĴÑģÑĤÑĢÐµ": 49762,
  "ÐĴÑģÑı": 37629,
  "ÐĴÑģÑĳ": 31686,
  "ÐĴÑĤÐ¾ÑĢÐ¾Ð¹": 41481,
  "ÐĴÑĩÐµÑĢÐ°": 46366,
  "ÐĴÑĭ": 5786,
  "Ðĵ": 1009,
  "ÐĵÐ¡": 35391,
  "ÐĵÐ£": 9693,
  "ÐĵÐ°": 31368,
  "ÐĵÐ°Ð·": 7128,
  "ÐĵÐ°Ð·ÐµÑĤÐ°": 18386,
  "ÐĵÐ°Ð·ÐµÑĤÐµ": 46088,
  "ÐĵÐ°Ð·ÐµÑĤÑĭ": 32485,
  "ÐĵÐ°Ð·Ð¿ÑĢÐ¾Ð¼": 18306,
  "ÐĵÐ°Ð·Ð¿ÑĢÐ¾Ð¼Ð°": 37075,
  "ÐĵÐ°Ð»": 43624,
  "ÐĵÐ°ÑĢ": 31711,
  "ÐĵÐ´Ðµ": 20731,
  "ÐĵÐµ": 33237,
  "ÐĵÐµÐ½": 40887,
  "ÐĵÐµÐ½ÐµÑĢÐ°": 33740,
  "ÐĵÐµÑĢ": 20124,
  "ÐĵÐµÑĢÐ¼Ð°Ð½Ð¸Ñı": 44495,
  "ÐĵÐ¸": 28735,
  "ÐĵÐ»Ð°": 32564,
  "ÐĵÐ»Ð°Ð²": 16969,
  "ÐĵÐ»Ð°Ð²Ð°": 8215,
  "ÐĵÐ»Ð°Ð²Ð½Ð¾Ðµ": 45605,
  "ÐĵÐ»Ð°Ð²Ð½ÑĭÐ¹": 32263,
  "ÐĵÐ»Ð°Ð·Ð°": 39615,
  "ÐĵÐ¾Ð²Ð¾ÑĢ": 50206,
  "ÐĵÐ¾Ð»": 21837,
  "ÐĵÐ¾Ð»Ð¾Ñģ": 27874,
  "ÐĵÐ¾ÑĢ": 22766,
  "ÐĵÐ¾ÑĢÐ¾Ð´": 26145,
  "ÐĵÐ¾Ñģ": 30197,
  "ÐĵÐ¾ÑģÐ¿Ð¾Ð´": 25559,
  "ÐĵÐ¾ÑģÐ¿Ð¾Ð´Ð¸": 39169,
  "ÐĵÐ¾ÑģÑĥÐ´Ð°ÑĢ": 45534,
  "ÐĵÐĲ": 15843,
  "ÐĵÐĳ": 15997,
  "ÐĵÐĺ": 12039,
  "ÐĵÐĺÐĽ": 29382,
  "ÐĵÐļ": 40364,
  "ÐĵÐĽÐĲÐĴÐĲ": 39451,
  "ÐĵÐŀ": 8163,
  "ÐĵÑĢÐ°": 25239,
  "ÐĵÑĢÐµ": 45938,
  "ÐĵÑĢÐ¸": 40299,
  "ÐĵÑĢÑĥÐ¿": 38960,
  "ÐĵÑĥ": 43665,
  "ÐĶ": 822,
  "ÐĶÐ¡": 19268,
  "ÐĶÐ£": 28478,
  "ÐĶÐ¤": 38240,
  "ÐĶÐ°": 4529,
  "ÐĶÐ°Ð¶Ðµ": 27717,
  "ÐĶÐ°Ð»ÐµÐµ": 38831,
  "ÐĶÐ°Ð»ÑĮ": 45200,
  "ÐĶÐ²Ð°": 25821,
  "ÐĶÐ²ÐµÑĢÑĮ": 40188,
  "ÐĶÐµ": 17394,
  "ÐĶÐµÐ²": 17327,
  "ÐĶÐµÐ²ÑĥÑĪÐºÐ°": 24289,
  "ÐĶÐµÐ¹ÑģÑĤÐ²": 34134,
  "ÐĶÐµÐ¹ÑģÑĤÐ²Ð¸ÑĤÐµÐ»ÑĮÐ½Ð¾": 49774,
  "ÐĶÐµÐ»Ð¾": 36865,
  "ÐĶÐµÐ¼": 42666,
  "ÐĶÐµÐ½ÑĮ": 25240,
  "ÐĶÐµÑĢ": 48179,
  "ÐĶÐµÑĤ": 29392,
  "ÐĶÐµÑĤÐ¸": 45949,
  "ÐĶÐ¶": 10594,
  "ÐĶÐ¶Ðµ": 42275,
  "ÐĶÐ¶ÐµÐ¹": 35594,
  "ÐĶÐ¶Ð¾Ð½": 41245,
  "ÐĶÐ¸": 15035,
  "ÐĶÐ¸Ð½Ð°Ð¼Ð¾": 13781,
  "ÐĶÐ»Ñı": 11227,
  "ÐĶÐ¼Ð¸ÑĤ": 44499,
  "ÐĶÐ¾": 13571,
  "ÐĶÐ¾Ð±": 23355,
  "ÐĶÐ¾Ðº": 26846,
  "ÐĶÐ¾ÐºÑĤÐ¾ÑĢ": 34647,
  "ÐĶÐ¾Ð»": 33089,
  "ÐĶÐ¾Ð¼": 18169,
  "ÐĶÐ¾Ð¼Ð°": 46574,
  "ÐĶÐ¾Ð½": 26181,
  "ÐĶÐ¾Ð½Ñĥ": 26148,
  "ÐĶÐ¾ÑĢÐ¾Ð³": 37864,
  "ÐĶÐĲ": 13276,
  "ÐĶÐĶ": 14376,
  "ÐĶÐķ": 19254,
  "ÐĶÐĺ": 23809,
  "ÐĶÐļ": 34649,
  "ÐĶÐĿÐł": 44910,
  "ÐĶÐŀ": 14112,
  "ÐĶÐŁ": 17482,
  "ÐĶÐŁÐł": 26378,
  "ÐĶÐł": 16601,
  "ÐĶÑĢÑĥÐ³": 31779,
  "ÐĶÑĥ": 19115,
  "ÐĶÑĥÐ¼Ð°Ñİ": 46937,
  "ÐĶÑĥÑģÑı": 28006,
  "ÐĶÑį": 38535,
  "Ðķ": 992,
  "ÐķÐ¢": 8223,
  "ÐķÐ¤ÐĲ": 27493,
  "ÐķÐ²": 13762,
  "ÐķÐ³Ð¾": 15609,
  "ÐķÐ´Ð²Ð°": 46808,
  "ÐķÐ´Ð¸Ð½": 19563,
  "ÐķÐ´Ð¸Ð½Ð°Ñı": 29971,
  "ÐķÐ´Ð¸Ð½Ð¾Ð¹": 30635,
  "ÐķÐµ": 25978,
  "ÐķÐ¹": 42907,
  "ÐķÐ¼Ñĥ": 34289,
  "ÐķÐĴ": 31650,
  "ÐķÐĶ": 36012,
  "ÐķÐĻ": 27298,
  "ÐķÐļ": 20718,
  "ÐķÐĽÐ¬": 25693,
  "ÐķÐľ": 26207,
  "ÐķÐĿ": 5437,
  "ÐķÐĿÐ¬": 35603,
  "ÐķÐĿÐĺÐ¯": 41185,
  "ÐķÐĿÐĺÐķ": 23612,
  "ÐķÐł": 6199,
  "ÐķÐłÐĲ": 48141,
  "ÐķÑģÐ»Ð¸": 6161,
  "ÐķÑģÑĤÑĮ": 21393,
  "ÐķÑīÐµ": 15308,
  "Ðĸ": 2997,
  "ÐĸÐ°Ð½": 36637,
  "ÐĸÐµÐ»": 38877,
  "ÐĸÐµÐ½": 23944,
  "ÐĸÐµÐ½ÑīÐ¸Ð½Ð°": 35768,
  "ÐĸÐ¸": 33051,
  "ÐĸÐ¸Ð·Ð½ÑĮ": 33522,
  "ÐĸÐĶ": 20360,
  "ÐĸÐķ": 42447,
  "ÐĹ": 1295,
  "ÐĹÐ¡": 46386,
  "ÐĹÐ£": 49931,
  "ÐĹÐ°": 3693,
  "ÐĹÐ°Ðº": 27091,
  "ÐĹÐ°ÐºÐ¾Ð½": 39007,
  "ÐĹÐ°Ð¼": 31143,
  "ÐĹÐ°Ð¿Ð°Ð´": 18876,
  "ÐĹÐ°ÑĤÐµÐ¼": 26273,
  "ÐĹÐ°ÑĩÐµÐ¼": 32003,
  "ÐĹÐ²": 20659,
  "ÐĹÐ´ÐµÑģÑĮ": 22235,
  "ÐĹÐµÐ»ÐµÐ½": 44723,
  "ÐĹÐµÐ¼": 31770,
  "ÐĹÐµÐ½Ð¸": 20028,
  "ÐĹÐµÐ½Ð¸ÑĤ": 22262,
  "ÐĹÐµÐ½Ð¸ÑĤÐ°": 25626,
  "ÐĹÐ½Ð°": 15767,
  "ÐĹÐ½Ð°ÑĩÐ¸ÑĤ": 37579,
  "ÐĹÐ¾Ð»Ð¾": 36070,
  "ÐĹÐ¾Ð»Ð¾ÑĤ": 49932,
  "ÐĹÐ¾Ð»Ð¾ÑĤÐ°Ñı": 47054,
  "ÐĹÐ¾Ð»Ð¾ÑĤÐ¾Ð¹": 35959,
  "ÐĹÐĲ": 24059,
  "ÐĹÐĺ": 29962,
  "ÐĹÐŀ": 17657,
  "Ðĺ": 732,
  "ÐĺÐ¡": 20101,
  "ÐĺÐ¢": 9088,
  "ÐĺÐ¢Ð¬": 39069,
  "ÐĺÐ¯": 12505,
  "ÐĺÐ²Ð°Ð½": 32467,
  "ÐĺÐ³": 36330,
  "ÐĺÐ·": 6014,
  "ÐĺÐ·Ð²ÐµÑģÑĤÐ¸": 27890,
  "ÐĺÐ·Ð²ÐµÑģÑĤÐ¸Ñı": 36625,
  "ÐĺÐ»Ð¸": 31118,
  "ÐĺÐ¼": 27086,
  "ÐĺÐ¼ÐµÐ½Ð½Ð¾": 34906,
  "ÐĺÐ½": 4580,
  "ÐĺÐ½Ð¾Ð³Ð´Ð°": 43612,
  "ÐĺÐ½ÑĤÐµÑĢ": 9284,
  "ÐĺÐ½ÑĤÐµÑĢÐµÑģÐ½Ð¾": 35008,
  "ÐĺÐ½ÑĤÐµÑĢÑĦÐ°Ðº": 29025,
  "ÐĺÐ½ÑĤÐµÑĢÑĦÐ°ÐºÑģ": 15210,
  "ÐĺÐ½ÑĤÐµÑĢÑĦÐ°ÐºÑģÑĥ": 34010,
  "ÐĺÐ½ÑĦÐ¾ÑĢÐ¼Ð°": 46383,
  "ÐĺÐĲ": 5124,
  "ÐĺÐĳ": 17426,
  "ÐĺÐĶ": 8283,
  "ÐĺÐķ": 11199,
  "ÐĺÐĹ": 35301,
  "ÐĺÐĺ": 14803,
  "ÐĺÐĻ": 20380,
  "ÐĺÐļ": 14174,
  "ÐĺÐľ": 36154,
  "ÐĺÐĿ": 7484,
  "ÐĺÐĿÐĲ": 27102,
  "ÐĺÐŀ": 28899,
  "ÐĺÑĢ": 47690,
  "ÐĺÑģ": 33982,
  "ÐĺÑģÐº": 32356,
  "ÐĺÑģÐ»Ð°Ð¼": 16376,
  "ÐĺÑģÐ»Ð°Ð¼ÑģÐºÐ¾Ð³Ð¾": 37239,
  "ÐĺÑģÐ»Ð°Ð¼ÑģÐºÐ¾Ðµ": 26994,
  "ÐĺÑģÐ¿": 30348,
  "ÐĺÑģÑĤÐ¾": 16802,
  "ÐĺÑģÑĤÐ¾ÑĢÐ¸Ñı": 28919,
  "ÐĺÑĤÐ°Ðº": 23241,
  "ÐĺÑħ": 37812,
  "ÐĻ": 3383,
  "ÐĻÐ¾ÑĢ": 8415,
  "ÐĻÐ¾ÑĢÐº": 15900,
  "ÐĻÐ¾ÑĢÐºÐ°": 29596,
  "ÐĻÐ¾ÑĢÐºÐµ": 17553,
  "Ðļ": 684,
  "ÐļÐ¡": 9827,
  "ÐļÐ¢": 31431,
  "ÐļÐ£": 25405,
  "ÐļÐ°": 6207,
  "ÐļÐ°Ð²ÐºÐ°Ð·": 38166,
  "ÐļÐ°Ð¶Ð´ÑĭÐ¹": 37660,
  "ÐļÐ°Ð·": 24062,
  "ÐļÐ°Ð·Ð°Ñħ": 43570,
  "ÐļÐ°Ð·Ð°ÑħÑģÑĤÐ°Ð½": 47810,
  "ÐļÐ°Ðº": 4182,
  "ÐļÐ°ÐºÐ°Ñı": 46928,
  "ÐļÐ°ÐºÐ¾Ð¹": 38560,
  "ÐļÐ°Ð»": 45618,
  "ÐļÐ°Ð¼": 21805,
  "ÐļÐ°Ð½": 47223,
  "ÐļÐ°Ð¿Ð¸ÑĤÐ°Ð½": 33116,
  "ÐļÐ°ÑĢ": 13802,
  "ÐļÐ°ÑĢÐ°": 36553,
  "ÐļÐ°ÑĤ": 31496,
  "ÐļÐ¸": 22388,
  "ÐļÐ¸ÐµÐ²": 36430,
  "ÐļÐ¸ÑĤÐ°Ð¹": 40050,
  "ÐļÐ»Ð°": 46546,
  "ÐļÐ½Ð¸": 28061,
  "ÐļÐ½Ð¸Ð³Ð°": 46217,
  "ÐļÐ½Ñı": 44578,
  "ÐļÐ¾": 18989,
  "ÐļÐ¾Ð³Ð´Ð°": 5798,
  "ÐļÐ¾Ð»": 21664,
  "ÐļÐ¾Ð¼": 7530,
  "ÐļÐ¾Ð¼Ð¼ÐµÑĢ": 25916,
  "ÐļÐ¾Ð¼Ð¼ÐµÑĢÑģÐ°Ð½ÑĤ": 31318,
  "ÐļÐ¾Ð¼Ð¼ÐµÑĢÑģÐ°Ð½ÑĤÑĬ": 48417,
  "ÐļÐ¾Ð¼Ð¿": 41878,
  "ÐļÐ¾Ð¼Ð¿Ð°Ð½Ð¸Ñı": 48165,
  "ÐļÐ¾Ð¼ÑģÐ¾Ð¼Ð¾Ð»ÑĮ": 47693,
  "ÐļÐ¾Ð½": 8871,
  "ÐļÐ¾Ð½ÐµÑĩÐ½Ð¾": 18229,
  "ÐļÐ¾Ð½ÑĤÐ°ÐºÑĤÐµ": 19512,
  "ÐļÐ¾ÑĢ": 9865,
  "ÐļÐ¾ÑĢÑĢ": 23858,
  "ÐļÐ¾Ñģ": 44722,
  "ÐļÐĲ": 6308,
  "ÐļÐĺ": 17709,
  "ÐļÐŀ": 6596,
  "ÐļÐŀÐĴ": 39526,
  "ÐļÐŀÐĻ": 49180,
  "ÐļÐŁ": 15503,
  "ÐļÑĢÐ°": 34932,
  "ÐļÑĢÐ°Ñģ": 13555,
  "ÐļÑĢÐ°ÑģÐ½Ð¾Ð´Ð°ÑĢ": 44316,
  "ÐļÑĢÐµ": 47885,
  "ÐļÑĢÐ¸": 26960,
  "ÐļÑĢÐ¾Ð¼Ðµ": 30674,
  "ÐļÑĢÑĭ": 35546,
  "ÐļÑĢÑĭÐ¼": 41619,
  "ÐļÑģÑĤÐ°ÑĤÐ¸": 36250,
  "ÐļÑĤÐ¾": 14180,
  "ÐļÑĥ": 25785,
  "ÐļÑĥÐ±": 26431,
  "ÐļÑĥÐ´Ð°": 44015,
  "ÐļÑĥÑĢ": 32711,
  "ÐĽ": 1098,
  "ÐĽÐ¡": 43785,
  "ÐĽÐ£": 27280,
  "ÐĽÐ¬": 8513,
  "ÐĽÐ®": 38569,
  "ÐĽÐ¯": 21136,
  "ÐĽÐ°": 17007,
  "ÐĽÐ°Ð´Ð½Ð¾": 41136,
  "ÐĽÐµ": 12145,
  "ÐĽÐµÐ¹": 40176,
  "ÐĽÐµÐ½": 47318,
  "ÐĽÐµÐ½Ð¸Ð½": 36898,
  "ÐĽÐµÑĤ": 45250,
  "ÐĽÐ¸": 10393,
  "ÐĽÐ¸Ð²ÐµÑĢ": 49431,
  "ÐĽÐ¸ÑĤ": 33376,
  "ÐĽÐ¸ÑĨÐ¾": 42658,
  "ÐĽÐ¾": 49498,
  "ÐĽÐ¾Ðº": 19622,
  "ÐĽÐ¾ÐºÐ¾Ð¼Ð¾": 21320,
  "ÐĽÐ¾ÐºÐ¾Ð¼Ð¾ÑĤÐ¸Ð²": 29428,
  "ÐĽÐ¾ÐºÐ¾Ð¼Ð¾ÑĤÐ¸Ð²Ð°": 49065,
  "ÐĽÐĲ": 8222,
  "ÐĽÐĲÐĴÐĲ": 31525,
  "ÐĽÐķ": 14164,
  "ÐĽÐķÐĿ": 33137,
  "ÐĽÐĺ": 10694,
  "ÐĽÐĺÐĿ": 48248,
  "ÐĽÐŀ": 8682,
  "ÐĽÐŀÐĴ": 37053,
  "ÐĽÐŀÐĿ": 48349,
  "ÐĽÑĥ": 20327,
  "ÐĽÑĥÑĩ": 17616,
  "ÐĽÑĥÑĩÑĪÐ¸Ð¹": 40593,
  "ÐĽÑİ": 10150,
  "ÐĽÑİÐ±": 37653,
  "ÐĽÑİÐ±Ð¾Ð²ÑĮ": 46541,
  "ÐĽÑİÐ´Ð¸": 29579,
  "Ðľ": 780,
  "ÐľÐ¡": 13164,
  "ÐľÐ£": 22153,
  "ÐľÐ¤": 29261,
  "ÐľÐ°": 8510,
  "ÐľÐ°Ð³": 40846,
  "ÐľÐ°Ð¹": 21357,
  "ÐľÐ°Ðº": 18635,
  "ÐľÐ°ÐºÐ´Ð¾Ð½": 44791,
  "ÐľÐ°ÐºÐ´Ð¾Ð½Ð°Ð»Ð´": 49145,
  "ÐľÐ°ÐºÑģÐ¸Ð¼": 48444,
  "ÐľÐ°Ð»": 24705,
  "ÐľÐ°Ð»ÑĮ": 46410,
  "ÐľÐ°Ð¼Ð°": 35695,
  "ÐľÐ°Ð½": 15229,
  "ÐľÐ°Ð½ÑģÐ¸Ð¹": 40412,
  "ÐľÐ°Ð½ÑĩÐµÑģÑĤÐµÑĢ": 31538,
  "ÐľÐ°ÑĢ": 11108,
  "ÐľÐ°ÑĢÐ¸": 24332,
  "ÐľÐ°ÑĢÐ¸Ñı": 43589,
  "ÐľÐ°ÑģÑĤÐµÑĢ": 43090,
  "ÐľÐ°ÑĤ": 27064,
  "ÐľÐ°ÑĤÑĮ": 43658,
  "ÐľÐµ": 10880,
  "ÐľÐµÐ³Ð°": 47067,
  "ÐľÐµÐ´": 28594,
  "ÐľÐµÐ´Ð¸": 39170,
  "ÐľÐµÐ¶Ð´Ñĥ": 21589,
  "ÐľÐµÐ¶Ð´ÑĥÐ½Ð°ÑĢÐ¾Ð´": 43072,
  "ÐľÐµÐ½Ñı": 26174,
  "ÐľÐµÑĢ": 32959,
  "ÐľÐµÑĤ": 19059,
  "ÐľÐµÑĤÐ°Ð»Ð»ÑĥÑĢ": 47604,
  "ÐľÐ¸": 12936,
  "ÐľÐ¸Ð½": 25769,
  "ÐľÐ¸Ð½Ð¸": 31971,
  "ÐľÐ¸ÑĢ": 24735,
  "ÐľÐ¸Ñģ": 44485,
  "ÐľÐ¸ÑģÑģ": 50013,
  "ÐľÐ¸ÑģÑĤÐµÑĢ": 46352,
  "ÐľÐ¸ÑħÐ°": 42150,
  "ÐľÐ¸ÑħÐ°Ð¸Ð»": 46691,
  "ÐľÐ½Ðµ": 11233,
  "ÐľÐ½Ð¾Ð³Ð¸Ðµ": 45066,
  "ÐľÐ½Ð¾Ð³Ð¾": 40722,
  "ÐľÐ¾": 6890,
  "ÐľÐ¾Ð¶ÐµÑĤ": 21366,
  "ÐľÐ¾Ð¶Ð½Ð¾": 30461,
  "ÐľÐ¾Ð¸": 41084,
  "ÐľÐ¾Ð¹": 22012,
  "ÐľÐ¾Ð»": 29477,
  "ÐľÐ¾Ð»Ð¾Ð´": 21695,
  "ÐľÐ¾Ð»Ð¾Ð´Ð¾Ð¹": 48930,
  "ÐľÐ¾Ð½": 29521,
  "ÐľÐ¾ÑĢ": 21117,
  "ÐľÐ¾Ñģ": 46255,
  "ÐľÐ¾ÑģÐº": 13741,
  "ÐľÐ¾ÑģÐºÐ²Ð°": 16226,
  "ÐľÐ¾ÑģÐºÐ¾Ð²": 24775,
  "ÐľÐ¾Ñı": 30008,
  "ÐľÐĲ": 12868,
  "ÐľÐĲÐĿ": 34684,
  "ÐľÐĴ": 29731,
  "ÐľÐĴÐĶ": 26383,
  "ÐľÐķ": 30287,
  "ÐľÐķÐĿ": 29505,
  "ÐľÐĺ": 4649,
  "ÐľÐļ": 26843,
  "ÐľÐľ": 40567,
  "ÐľÐŀ": 7641,
  "ÐľÐŀÐ¡ÐļÐĴÐĲ": 17286,
  "ÐľÐŁ": 23661,
  "ÐľÑĥ": 25575,
  "ÐľÑĥÐ¶": 23045,
  "ÐľÑĥÐ¶ÑĩÐ¸Ð½Ð°": 41585,
  "ÐľÑĭ": 4348,
  "ÐĿ": 682,
  "ÐĿÐ¡": 29209,
  "ÐĿÐ¢": 49571,
  "ÐĿÐ£": 35399,
  "ÐĿÐ«": 12308,
  "ÐĿÐ«Ð¥": 43682,
  "ÐĿÐ«Ðķ": 33448,
  "ÐĿÐ«ÐĻ": 26678,
  "ÐĿÐ¯": 44242,
  "ÐĿÐ°": 2176,
  "ÐĿÐ°Ð²ÐµÑĢÐ½Ð¾Ðµ": 40954,
  "ÐĿÐ°Ð´": 30266,
  "ÐĿÐ°Ð´Ðµ": 49821,
  "ÐĿÐ°Ð´Ð¾": 23662,
  "ÐĿÐ°Ð·": 49639,
  "ÐĿÐ°Ð¹": 46804,
  "ÐĿÐ°Ðº": 16585,
  "ÐĿÐ°ÐºÐ¾Ð½ÐµÑĨ": 19835,
  "ÐĿÐ°Ð¼": 26451,
  "ÐĿÐ°ÑĢÐ¾Ð´": 25479,
  "ÐĿÐ°Ñģ": 34865,
  "ÐĿÐ°ÑĦÑĤ": 46625,
  "ÐĿÐ°ÑĨÐ¸Ð¾Ð½": 33573,
  "ÐĿÐ°ÑĪ": 35367,
  "ÐĿÐ°ÑĪÐ°": 39009,
  "ÐĿÐ°ÑĪÐ¸": 42415,
  "ÐĿÐµ": 3096,
  "ÐĿÐµÐ²": 35086,
  "ÐĿÐµÐ´": 36928,
  "ÐĿÐµÐ·": 47642,
  "ÐĿÐµÐºÐ¾ÑĤÐ¾ÑĢÑĭÐµ": 47033,
  "ÐĿÐµÐ¼": 26577,
  "ÐĿÐµÐ¿": 48428,
  "ÐĿÐµÑģ": 23332,
  "ÐĿÐµÑģÐºÐ¾Ð»ÑĮÐºÐ¾": 30180,
  "ÐĿÐµÑģÐ¼Ð¾ÑĤÑĢÑı": 30787,
  "ÐĿÐµÑĤ": 9256,
  "ÐĿÐµÑĥÐ¶ÐµÐ»Ð¸": 39386,
  "ÐĿÐ¸": 11459,
  "ÐĿÐ¸Ðº": 10430,
  "ÐĿÐ¸ÐºÐ°Ðº": 44894,
  "ÐĿÐ¸ÐºÐ¾Ð»Ð°Ð¹": 44921,
  "ÐĿÐ¸ÐºÑĤÐ¾": 35434,
  "ÐĿÐ¸ÑĩÐµÐ³Ð¾": 28655,
  "ÐĿÐ¾": 3743,
  "ÐĿÐ¾Ð²": 25719,
  "ÐĿÐ¾Ð²Ð°Ñı": 34803,
  "ÐĿÐ¾Ð²Ð¾": 11609,
  "ÐĿÐ¾Ð²Ð¾ÑģÑĤÐ¸": 13261,
  "ÐĿÐ¾Ð²ÑĭÐ¹": 28243,
  "ÐĿÐ¾ÑĢ": 40855,
  "ÐĿÐĲ": 10768,
  "ÐĿÐĲÐ¯": 33187,
  "ÐĿÐķ": 15387,
  "ÐĿÐķÐ¡ÐļÐŀ": 45320,
  "ÐĿÐĺ": 8473,
  "ÐĿÐĺÐĺ": 48806,
  "ÐĿÐĺÐļ": 45209,
  "ÐĿÐļ": 13628,
  "ÐĿÐŀ": 6223,
  "ÐĿÐŀÐĴ": 47928,
  "ÐĿÐŀÐĵÐŀ": 37567,
  "ÐĿÐŀÐķ": 41545,
  "ÐĿÐŀÐĻ": 35372,
  "ÐĿÐŁ": 45212,
  "ÐĿÐł": 6969,
  "ÐĿÑĥ": 7448,
  "ÐĿÑĥÐ¶Ð½Ð¾": 44087,
  "ÐĿÑĮÑİ": 27296,
  "Ðŀ": 630,
  "ÐŀÐ¡": 43122,
  "ÐŀÐ±": 6115,
  "ÐŀÐ±ÑĬ": 42314,
  "ÐŀÐ±Ñĭ": 45211,
  "ÐŀÐ³": 40881,
  "ÐŀÐ´": 7798,
  "ÐŀÐ´Ð¸Ð½": 21126,
  "ÐŀÐ´Ð½Ð°": 21885,
  "ÐŀÐ´Ð½Ð°Ð¶Ð´Ñĭ": 29973,
  "ÐŀÐ´Ð½Ð°ÐºÐ¾": 12856,
  "ÐŀÐ¹": 44110,
  "ÐŀÐº": 21286,
  "ÐŀÐ»ÑĮ": 37668,
  "ÐŀÐ½": 3001,
  "ÐŀÐ½Ð°": 4592,
  "ÐŀÐ½Ð¸": 8244,
  "ÐŀÐ¿": 18780,
  "ÐŀÐ¿ÑıÑĤÑĮ": 48409,
  "ÐŀÐļ": 43488,
  "ÐŀÐĿ": 41670,
  "ÐŀÐŀ": 20856,
  "ÐŀÐł": 37445,
  "ÐŀÑĢ": 17810,
  "ÐŀÑģ": 12204,
  "ÐŀÑģÐºÐ°ÑĢ": 49287,
  "ÐŀÑģÐ½Ð¾Ð²": 31019,
  "ÐŀÑģÐ¾Ð±": 35416,
  "ÐŀÑģÑĤ": 33894,
  "ÐŀÑģÑĤÐ°Ð²": 50012,
  "ÐŀÑĤ": 4925,
  "ÐŀÑĤÐ²ÐµÑĤ": 29153,
  "ÐŀÑĤÐµÑĨ": 32915,
  "ÐŀÑĤÐºÑĢÑĭ": 27481,
  "ÐŀÑĩÐµ": 43712,
  "ÐŀÑĩÐµÐ½ÑĮ": 25855,
  "ÐŁ": 672,
  "ÐŁÐ¡": 18819,
  "ÐŁÐ£": 17766,
  "ÐŁÐ°": 12775,
  "ÐŁÐ°Ð²": 41059,
  "ÐŁÐ°ÑĢ": 16846,
  "ÐŁÐ°ÑĢÐ°": 43420,
  "ÐŁÐ°ÑĤ": 35940,
  "ÐŁÐµ": 14842,
  "ÐŁÐµÑĢ": 8936,
  "ÐŁÐµÑĢÐ²Ð°Ñı": 46929,
  "ÐŁÐµÑĢÐ²ÑĭÐ¹": 27059,
  "ÐŁÐµÑĢÐµ": 13931,
  "ÐŁÐµÑĢÐµÐ´": 24868,
  "ÐŁÐµÑģ": 36382,
  "ÐŁÐµÑĤ": 21521,
  "ÐŁÐµÑĤÐµÑĢÐ±ÑĥÑĢ": 5147,
  "ÐŁÐµÑĤÐµÑĢÐ±ÑĥÑĢÐ³": 9400,
  "ÐŁÐµÑĤÐµÑĢÐ±ÑĥÑĢÐ³Ð°": 14723,
  "ÐŁÐµÑĤÐµÑĢÐ±ÑĥÑĢÐ³Ðµ": 13825,
  "ÐŁÐ¸": 17568,
  "ÐŁÐ¸ÑģÑĮ": 40130,
  "ÐŁÐ¸ÑĤ": 37984,
  "ÐŁÐ»Ð°": 29948,
  "ÐŁÐ¾": 4408,
  "ÐŁÐ¾Ð²": 26595,
  "ÐŁÐ¾Ð³": 46713,
  "ÐŁÐ¾Ð´": 7148,
  "ÐŁÐ¾Ð·": 30978,
  "ÐŁÐ¾Ðº": 33716,
  "ÐŁÐ¾ÐºÐ°": 16385,
  "ÐŁÐ¾Ð»": 11648,
  "ÐŁÐ¾Ð»Ð¸": 36764,
  "ÐŁÐ¾Ð»ÑĮ": 48680,
  "ÐŁÐ¾Ð¼": 19572,
  "ÐŁÐ¾Ð½": 34502,
  "ÐŁÐ¾ÑĢÑĤ": 45065,
  "ÐŁÐ¾Ñģ": 6904,
  "ÐŁÐ¾ÑģÐºÐ¾Ð»ÑĮÐºÑĥ": 47387,
  "ÐŁÐ¾ÑģÐ»Ðµ": 9489,
  "ÐŁÐ¾ÑģÐ»ÐµÐ´": 20186,
  "ÐŁÐ¾ÑĤÐ¾Ð¼": 18644,
  "ÐŁÐ¾ÑĤÐ¾Ð¼Ñĥ": 37148,
  "ÐŁÐ¾ÑħÐ¾Ð¶Ðµ": 48390,
  "ÐŁÐ¾Ñĩ": 28322,
  "ÐŁÐ¾ÑĩÐµÐ¼Ñĥ": 16676,
  "ÐŁÐ¾ÑįÑĤÐ¾Ð¼Ñĥ": 30991,
  "ÐŁÐĲ": 25074,
  "ÐŁÐĺ": 32309,
  "ÐŁÐļ": 15163,
  "ÐŁÐĽ": 26817,
  "ÐŁÐŀ": 11920,
  "ÐŁÐŁ": 20170,
  "ÐŁÐłÐŀ": 34100,
  "ÐŁÑĢÐ°Ð²": 11162,
  "ÐŁÑĢÐ°Ð²Ð´Ð°": 28863,
  "ÐŁÑĢÐµ": 20354,
  "ÐŁÑĢÐµÐ´": 14102,
  "ÐŁÑĢÐµÐ´ÑģÑĤÐ°Ð²": 44101,
  "ÐŁÑĢÐµÐ¶Ð´Ðµ": 39647,
  "ÐŁÑĢÐµÐ·Ð¸Ð´ÐµÐ½ÑĤ": 22681,
  "ÐŁÑĢÐ¸": 4670,
  "ÐŁÑĢÐ¸Ð²ÐµÑĤ": 37954,
  "ÐŁÑĢÐ¸Ð¼": 42433,
  "ÐŁÑĢÐ¸Ð½": 39088,
  "ÐŁÑĢÐ¾": 6889,
  "ÐŁÑĢÐ¾Ð±": 35241,
  "ÐŁÑĢÐ¾Ð³": 48532,
  "ÐŁÑĢÐ¾Ð³ÑĢÐ°Ð¼": 50098,
  "ÐŁÑĢÐ¾Ð´": 36468,
  "ÐŁÑĢÐ¾Ðº": 39331,
  "ÐŁÑĢÐ¾Ñģ": 46672,
  "ÐŁÑĢÐ¾ÑģÑĤÐ¾": 43588,
  "ÐŁÑĢÐ¾ÑĪÐ»Ð¾": 48052,
  "ÐŁÑĥ": 13002,
  "ÐŁÑĥÑģÑĤÑĮ": 32897,
  "ÐŁÑĥÑĤÐ¸Ð½": 46920,
  "Ðł": 730,
  "ÐłÂµ": 15436,
  "ÐłÂµÐł": 46690,
  "ÐłÐ": 14082,
  "ÐłÐ¡": 25948,
  "ÐłÐ¢": 29803,
  "ÐłÐ£": 10603,
  "ÐłÐ¤": 13929,
  "ÐłÐ«": 33681,
  "ÐłÐ°": 8572,
  "ÐłÐ°Ð±Ð¾ÑĤÐ°": 45182,
  "ÐłÐ°Ð·": 8407,
  "ÐłÐ°Ð¹": 43972,
  "ÐłÐ°Ñģ": 22392,
  "ÐłÐ°ÑģÐ¿": 46249,
  "ÐłÐ°ÑģÑģ": 46438,
  "ÐłÐµ": 8706,
  "ÐłÐµÐ°Ð»": 44563,
  "ÐłÐµÐ´": 37293,
  "ÐłÐµÐ·": 38869,
  "ÐłÐµÐ¹": 41342,
  "ÐłÐ¸": 26157,
  "ÐłÐ¸Ñģ": 34507,
  "ÐłÐ¾": 17114,
  "ÐłÐ¾Ð±": 37450,
  "ÐłÐ¾Ð´": 22995,
  "ÐłÐ¾Ð¼": 32572,
  "ÐłÐ¾Ñģ": 16945,
  "ÐłÐ¾ÑģÐ½ÐµÑĦ": 28828,
  "ÐłÐ¾ÑģÐ½ÐµÑĦÑĤÐ¸": 49867,
  "ÐłÐ¾ÑģÑģÐ¸": 10789,
  "ÐłÐ¾ÑģÑģÐ¸Ð¹": 17561,
  "ÐłÐ¾ÑģÑģÐ¸Ð¹ÑģÐºÐ°Ñı": 42794,
  "ÐłÐ¾ÑģÑģÐ¸Ð¹ÑģÐºÐ¸Ð¹": 42699,
  "ÐłÐ¾ÑģÑģÐ¸Ñı": 11825,
  "ÐłÐ¾ÑģÑĤ": 36327,
  "ÐłÐ¾ÑģÑĤÐ¾Ð²": 38238,
  "ÐłÐħ": 19819,
  "ÐłÐĨ": 31996,
  "ÐłÐĲ": 6804,
  "ÐłÐĲÐĿ": 41953,
  "ÐłÐĵ": 16484,
  "ÐłÐķ": 11377,
  "ÐłÐĺ": 9883,
  "ÐłÐĺÐĲ": 49097,
  "ÐłÐļ": 27923,
  "ÐłÐŀ": 5125,
  "ÐłÐŀÐĴ": 39624,
  "ÐłÐŀÐĶ": 46345,
  "ÐłÐŁ": 43022,
  "ÐłÑ": 9644,
  "ÐłÑĥ": 19021,
  "ÐłÑĥÐ±": 26732,
  "ÐłÑĥÑģ": 10520,
  "ÐłÑĥÑģÑģÐºÐ°Ñı": 39362,
  "ÐłÑĥÑģÑģÐºÐ¸Ð¹": 34873,
  "ÐłÑĥÑģÑģÐºÐ¾Ð¹": 44402,
  "ÐłÑĭ": 26635,
  "ÐłÑı": 49763,
  "ÐłÑĳ": 17466,
  "ÐłÑĶ": 35821,
  "ÐłÑķ": 13682,
  "ÐłÑķÐł": 33342,
  "ÐłÑĺ": 35098,
  "ÐŃ": 1605,
  "ÐŃÐ¡": 11169,
  "ÐŃÐ´": 42137,
  "ÐŃÐ¹": 30559,
  "ÐŃÐº": 13610,
  "ÐŃÐºÐ¾Ð½Ð¾Ð¼": 47566,
  "ÐŃÐºÑģÐ¿": 25974,
  "ÐŃÐ»ÐµÐºÑĤ": 41259,
  "ÐŃÐ»ÑĮ": 35978,
  "ÐŃÐ¼": 44621,
  "ÐŃÐ½": 29405,
  "ÐŃÐ½ÐµÑĢ": 32292,
  "ÐŃÐļ": 28249,
  "ÐŃÐŁ": 44020,
  "ÐŃÑĢ": 43859,
  "ÐŃÑĤÐ°": 24124,
  "ÐŃÑĤÐ¸": 26760,
  "ÐŃÑĤÐ¾": 4441,
  "ÐŃÑĤÐ¾ÑĤ": 21111,
  "Ñ": 146,
  "Ñ£": 7381,
  "ÑĢ": 269,
  "ÑĢÐ°": 287,
  "ÑĢÐ°Ð±": 2143,
  "ÑĢÐ°Ð±Ð°ÑĤÑĭ": 4754,
  "ÑĢÐ°Ð±Ð¾": 17863,
  "ÑĢÐ°Ð±Ð¾ÑĤ": 2050,
  "ÑĢÐ°Ð±Ð¾ÑĤÐ°": 3290,
  "ÑĢÐ°Ð±Ð¾ÑĤÐ°ÐµÑĤ": 28545,
  "ÑĢÐ°Ð±Ð¾ÑĤÐ°Ð»": 20211,
  "ÑĢÐ°Ð±Ð¾ÑĤÐ°Ð»Ð°": 49224,
  "ÑĢÐ°Ð±Ð¾ÑĤÐ°Ð»Ð¸": 35385,
  "ÑĢÐ°Ð±Ð¾ÑĤÐ°Ð½": 13808,
  "ÑĢÐ°Ð±Ð¾ÑĤÐ°ÑĤÑĮ": 8807,
  "ÑĢÐ°Ð±Ð¾ÑĤÐ¸": 27771,
  "ÑĢÐ°Ð±Ð¾ÑĤÐºÐ°": 14949,
  "ÑĢÐ°Ð±Ð¾ÑĤÐºÐµ": 27131,
  "ÑĢÐ°Ð±Ð¾ÑĤÐºÐ¸": 14178,
  "ÑĢÐ°Ð±Ð¾ÑĤÐºÑĥ": 31822,
  "ÑĢÐ°Ð²": 489,
  "ÑĢÐ°Ð²Ð°": 6514,
  "ÑĢÐ°Ð²Ð¸": 1668,
  "ÑĢÐ°Ð²Ð¸Ð²": 36854,
  "ÑĢÐ°Ð²Ð¸Ð²ÑĪÐ¸ÑģÑĮ": 45029,
  "ÑĢÐ°Ð²Ð¸Ð»Ð°": 13293,
  "ÑĢÐ°Ð²Ð¸Ð»Ð°ÑģÑĮ": 8360,
  "ÑĢÐ°Ð²Ð¸Ð»Ð¸": 19664,
  "ÑĢÐ°Ð²Ð¸Ð»Ð¸ÑģÑĮ": 10461,
  "ÑĢÐ°Ð²Ð¸ÑĤÑĮ": 7163,
  "ÑĢÐ°Ð²Ð¸ÑĤÑĮÑģÑı": 7787,
  "ÑĢÐ°Ð²Ð¸ÑĪÑĮÑģÑı": 39150,
  "ÑĢÐ°Ð²Ð»Ð¸": 22750,
  "ÑĢÐ°Ð²Ð½Ðµ": 40288,
  "ÑĢÐ°Ð²Ð½Ð¸": 19864,
  "ÑĢÐ°Ð²Ð¾": 4571,
  "ÑĢÐ°Ð²ÑĪÐ¸ÑģÑĮ": 18542,
  "ÑĢÐ°Ð³": 48867,
  "ÑĢÐ°Ð³Ð¸": 44194,
  "ÑĢÐ°Ð´": 9861,
  "ÑĢÐ°Ð´Ð¸": 12072,
  "ÑĢÐ°Ð´Ð¾": 28414,
  "ÑĢÐ°ÐµÑĤ": 36247,
  "ÑĢÐ°ÐµÑĤÑģÑı": 24189,
  "ÑĢÐ°Ð¶": 894,
  "ÑĢÐ°Ð¶Ð°": 3784,
  "ÑĢÐ°Ð¶Ð°ÑĤÑĮ": 37471,
  "ÑĢÐ°Ð¶Ð´Ð°Ð½": 13381,
  "ÑĢÐ°Ð¶ÐµÐ½Ð¸Ðµ": 25234,
  "ÑĢÐ°Ð¶Ð¸": 18384,
  "ÑĢÐ°Ð·": 598,
  "ÑĢÐ°Ð·Ð°": 38760,
  "ÑĢÐ°Ð·Ð²ÐµÐ´": 20226,
  "ÑĢÐ°Ð·Ð²Ð¸ÑĤ": 19458,
  "ÑĢÐ°Ð·Ð²Ð¸ÑĤÐ¸Ñı": 27527,
  "ÑĢÐ°Ð·Ð´": 2729,
  "ÑĢÐ°Ð·Ð´ÐµÐ»": 5965,
  "ÑĢÐ°Ð·Ð´Ð¾": 4467,
  "ÑĢÐ°Ð·Ð¸Ð¹": 26737,
  "ÑĢÐ°Ð·Ð¼ÐµÑĢ": 33680,
  "ÑĢÐ°Ð·Ð½Ð¾Ð¼Ñĥ": 21599,
  "ÑĢÐ°Ð·ÑĢÑĥ": 40339,
  "ÑĢÐ°Ð·Ñĥ": 1553,
  "ÑĢÐ°Ð·ÑĥÐ¼": 14133,
  "ÑĢÐ°Ð·ÑĥÐ¼Ðµ": 12787,
  "ÑĢÐ°Ð¸Ð»ÑĮ": 13031,
  "ÑĢÐ°Ð¹": 4790,
  "ÑĢÐ°Ð¹ÑģÑı": 37747,
  "ÑĢÐ°Ð¹ÑĤÐµÑģÑĮ": 36238,
  "ÑĢÐ°Ðº": 947,
  "ÑĢÐ°ÐºÐ°": 49316,
  "ÑĢÐ°ÐºÐµ": 44640,
  "ÑĢÐ°ÐºÐµÑĤ": 48471,
  "ÑĢÐ°ÐºÑĤÐµÑĢÐ¸": 33572,
  "ÑĢÐ°Ð»": 5342,
  "ÑĢÐ°Ð»Ð°": 11987,
  "ÑĢÐ°Ð»Ð°ÑģÑĮ": 27083,
  "ÑĢÐ°Ð»Ð¸": 8898,
  "ÑĢÐ°Ð»Ð¸ÑģÑĮ": 24958,
  "ÑĢÐ°Ð»ÑģÑı": 16800,
  "ÑĢÐ°Ð»ÑĮ": 1940,
  "ÑĢÐ°Ð»ÑĮÐ½Ð°Ñı": 39689,
  "ÑĢÐ°Ð»ÑĮÐ½Ð¾": 45554,
  "ÑĢÐ°Ð»ÑĮÐ½Ð¾Ð³Ð¾": 45737,
  "ÑĢÐ°Ð»ÑĮÐ½Ð¾Ð¹": 35284,
  "ÑĢÐ°Ð»ÑĮÐ½ÑĭÐ¹": 34002,
  "ÑĢÐ°Ð¼": 2381,
  "ÑĢÐ°Ð¼Ð°": 39521,
  "ÑĢÐ°Ð¼Ð¸": 2661,
  "ÑĢÐ°Ð¼Ð¾ÑĢ": 19313,
  "ÑĢÐ°Ð½": 616,
  "ÑĢÐ°Ð½Ð°": 36605,
  "ÑĢÐ°Ð½Ð´Ð°": 13716,
  "ÑĢÐ°Ð½ÐµÐµ": 6912,
  "ÑĢÐ°Ð½ÐµÐ½Ð¸Ñı": 7795,
  "ÑĢÐ°Ð½Ð¶Ðµ": 14635,
  "ÑĢÐ°Ð½Ð¾": 39959,
  "ÑĢÐ°Ð½Ñģ": 34373,
  "ÑĢÐ°Ð½ÑĤ": 13389,
  "ÑĢÐ°Ð½ÑĤÐ°": 33686,
  "ÑĢÐ°Ð½ÑĤÐ¾Ð²": 14100,
  "ÑĢÐ°Ð½ÑĤÑĭ": 28328,
  "ÑĢÐ°Ð½Ñĭ": 48337,
  "ÑĢÐ°Ð½ÑĮÑĪÐµ": 33993,
  "ÑĢÐ°Ñģ": 2423,
  "ÑĢÐ°ÑģÐ½Ð¾": 15399,
  "ÑĢÐ°ÑģÐ¾Ð²": 49618,
  "ÑĢÐ°ÑģÐ¿": 13077,
  "ÑĢÐ°ÑģÐ¿Ð¾Ð»Ð¾Ð¶": 32681,
  "ÑĢÐ°ÑģÑģ": 16679,
  "ÑĢÐ°ÑģÑģÑĥÐ´": 23483,
  "ÑĢÐ°ÑģÑĤ": 19001,
  "ÑĢÐ°ÑģÑĤÐ°": 19035,
  "ÑĢÐ°ÑģÑħÐ¾Ð´": 43847,
  "ÑĢÐ°ÑĤ": 1155,
  "ÑĢÐ°ÑĤÐ°": 37486,
  "ÑĢÐ°ÑĤÐ½Ð¾": 3120,
  "ÑĢÐ°ÑĤÑĮ": 4706,
  "ÑĢÐ°ÑĤÑĮÑģÑı": 13247,
  "ÑĢÐ°ÑĤÑĮÑı": 35226,
  "ÑĢÐ°Ñħ": 2244,
  "ÑĢÐ°ÑĨÐ¸Ð¸": 14844,
  "ÑĢÐ°ÑĨÐ¸Ð¾Ð½": 47362,
  "ÑĢÐ°Ñĩ": 27204,
  "ÑĢÐ°ÑĩÐ¸": 6163,
  "ÑĢÐ°ÑĪÐ¸": 3264,
  "ÑĢÐ°ÑĪÐ¸Ð²Ð°Ð»": 36684,
  "ÑĢÐ°ÑĪÐ¸Ð²Ð°ÑĤÑĮ": 22282,
  "ÑĢÐ°ÑīÐ¸": 41087,
  "ÑĢÐ°ÑİÑģÑĮ": 46489,
  "ÑĢÐ°Ñı": 1164,
  "ÑĢÐ°ÑıÑģÑĮ": 5765,
  "ÑĢÐ´": 3310,
  "ÑĢÐ´Ð°": 23248,
  "ÑĢÐ´Ð¾": 27700,
  "ÑĢÐµ": 298,
  "ÑĢÐµÐ°": 35536,
  "ÑĢÐµÐ±": 1604,
  "ÑĢÐµÐ±ÐµÐ·": 47872,
  "ÑĢÐµÐ±Ñĥ": 8642,
  "ÑĢÐµÐ²": 1740,
  "ÑĢÐµÐ²Ð°": 6318,
  "ÑĢÐµÐ²Ð°Ð»Ð°": 39365,
  "ÑĢÐµÐ²Ð°ÑĤÐµÐ»ÑĮ": 39379,
  "ÑĢÐµÐ²Ðµ": 44508,
  "ÑĢÐµÐ²ÐµÐ»": 33521,
  "ÑĢÐµÐ²Ð¸Ñĩ": 43110,
  "ÑĢÐµÐ²Ð½Ð¾Ð²Ð°": 7327,
  "ÑĢÐµÐ²Ð¾": 28758,
  "ÑĢÐµÐ²Ð¾Ð¶": 34545,
  "ÑĢÐµÐ²Ð¾Ð»Ñİ": 18663,
  "ÑĢÐµÐ²Ð¾ÑģÑħÐ¾Ð´": 44812,
  "ÑĢÐµÐ³Ð°": 12193,
  "ÑĢÐµÐ³Ð¸": 5058,
  "ÑĢÐµÐ³Ð¸Ð¾Ð½": 27144,
  "ÑĢÐµÐ³Ð¸ÑģÑĤÑĢÐ¸": 5827,
  "ÑĢÐµÐ³ÑĥÐ»Ð¸": 12956,
  "ÑĢÐµÐ´": 402,
  "ÑĢÐµÐ´Ð°": 9255,
  "ÑĢÐµÐ´Ð°Ðº": 35662,
  "ÑĢÐµÐ´ÐµÐ»": 5526,
  "ÑĢÐµÐ´ÐµÐ»ÐµÐ½": 19155,
  "ÑĢÐµÐ´ÐµÐ»ÐµÐ½Ð¸Ðµ": 23416,
  "ÑĢÐµÐ´ÐµÐ»Ñı": 19932,
  "ÑĢÐµÐ´Ð¸": 2752,
  "ÑĢÐµÐ´Ð¸Ð½Ðµ": 25598,
  "ÑĢÐµÐ´Ð¸ÑĤ": 4026,
  "ÑĢÐµÐ´Ð¸ÑĤÐ°": 14964,
  "ÑĢÐµÐ´Ð¸ÑĤÑĮ": 18978,
  "ÑĢÐµÐ´ÐºÐ°": 18140,
  "ÑĢÐµÐ´ÐºÐ¾": 10861,
  "ÑĢÐµÐ´Ð¾ÑĤÐ¾": 47203,
  "ÑĢÐµÐ´ÑĮ": 26098,
  "ÑĢÐµÐµ": 2659,
  "ÑĢÐµÐµÐ²": 45948,
  "ÑĢÐµÐµÐ¼": 47447,
  "ÑĢÐµÐ¶": 2819,
  "ÑĢÐµÐ¶Ð´": 2778,
  "ÑĢÐµÐ¶Ð´Ðµ": 9755,
  "ÑĢÐµÐ¶Ð´ÐµÐ½Ð¸Ðµ": 45171,
  "ÑĢÐµÐ¶Ð´ÐµÐ½Ð¸Ñı": 30784,
  "ÑĢÐµÐ¶ÐµÑĤ": 32116,
  "ÑĢÐµÐ·": 1636,
  "ÑĢÐµÐ·Ð°": 10637,
  "ÑĢÐµÐ·Ð°ÑĤÑĮ": 14663,
  "ÑĢÐµÐ·Ð²ÑĭÑĩÐ°Ð¹": 46702,
  "ÑĢÐµÐ·ÐµÐ½ÑĤÐ°": 32968,
  "ÑĢÐµÐ·Ð¸Ð´": 4661,
  "ÑĢÐµÐ·Ð¸Ð´ÐµÐ½ÑĤ": 12973,
  "ÑĢÐµÐ·ÑĥÐ»ÑĮÑĤÐ°": 32199,
  "ÑĢÐµÐ¸": 12602,
  "ÑĢÐµÐ¹": 1532,
  "ÑĢÐµÐº": 1866,
  "ÑĢÐµÐºÐ°": 21796,
  "ÑĢÐµÐºÐ¸": 12840,
  "ÑĢÐµÐºÐ»Ð¾Ð½": 37576,
  "ÑĢÐµÐºÑģ": 42232,
  "ÑĢÐµÐºÑĤÐ¾ÑĢ": 13361,
  "ÑĢÐµÐ»": 1549,
  "ÑĢÐµÐ»Ð°": 3514,
  "ÑĢÐµÐ»Ð¸": 3484,
  "ÑĢÐµÐ»Ð¸Ð³Ð¸Ð¾Ð·": 49888,
  "ÑĢÐµÐ»Ð¸Ð·Ðµ": 40048,
  "ÑĢÐµÐ»Ð¾": 16406,
  "ÑĢÐµÐ»ÑģÑı": 21899,
  "ÑĢÐµÐ»ÑĮ": 10190,
  "ÑĢÐµÐ¼": 628,
  "ÑĢÐµÐ¼Ð°": 45494,
  "ÑĢÐµÐ¼Ðµ": 39311,
  "ÑĢÐµÐ¼ÐµÐ»": 41415,
  "ÑĢÐµÐ¼ÐµÐ½": 1090,
  "ÑĢÐµÐ¼ÐµÐ½Ð¸": 18399,
  "ÑĢÐµÐ¼ÐµÐ½Ð½Ð¾": 3239,
  "ÑĢÐµÐ¼Ð¾Ð½": 22630,
  "ÑĢÐµÐ¼Ð¾Ð½ÑĤ": 36092,
  "ÑĢÐµÐ¼ÑĮÐµÑĢ": 12421,
  "ÑĢÐµÐ¼ÑĮÐµÑĢÐ°": 30557,
  "ÑĢÐµÐ¼Ñı": 4022,
  "ÑĢÐµÐ½": 987,
  "ÑĢÐµÐ½Ð°": 10616,
  "ÑĢÐµÐ½Ð¸": 15192,
  "ÑĢÐµÐ½Ð¸Ðµ": 4998,
  "ÑĢÐµÐ½Ð¸ÐµÐ¼": 13589,
  "ÑĢÐµÐ½Ð¸Ð¸": 15538,
  "ÑĢÐµÐ½Ð¸Ð¹": 21848,
  "ÑĢÐµÐ½Ð¸Ñİ": 12867,
  "ÑĢÐµÐ½Ð¸Ñı": 2804,
  "ÑĢÐµÐ½ÐºÐ¾": 24009,
  "ÑĢÐµÐ½Ð½Ð°Ñı": 33340,
  "ÑĢÐµÐ½Ð½Ð¾": 44655,
  "ÑĢÐµÐ½Ð½Ð¾Ð³Ð¾": 29336,
  "ÑĢÐµÐ½Ð½Ð¾Ðµ": 36412,
  "ÑĢÐµÐ½Ð½Ð¾Ð¹": 23070,
  "ÑĢÐµÐ½Ð½Ð¾Ð¼": 46465,
  "ÑĢÐµÐ½Ð½ÑĥÑİ": 44060,
  "ÑĢÐµÐ½Ð½ÑĭÐµ": 20760,
  "ÑĢÐµÐ½Ð½ÑĭÐ¹": 19345,
  "ÑĢÐµÐ½Ð½ÑĭÐ¼": 34997,
  "ÑĢÐµÐ½Ð½ÑĭÐ¼Ð¸": 39416,
  "ÑĢÐµÐ½Ð½ÑĭÑħ": 21040,
  "ÑĢÐµÐ½Ð¾": 24723,
  "ÑĢÐµÐ½ÑĤ": 32868,
  "ÑĢÐµÐ½Ñĭ": 16946,
  "ÑĢÐµÐ½ÑĮ": 33339,
  "ÑĢÐµÐ¿": 2627,
  "ÑĢÐµÐ¿Ð¸": 21610,
  "ÑĢÐµÐ¿Ð¸ÑĤÑĮ": 17749,
  "ÑĢÐµÐ¿Ð¾": 33791,
  "ÑĢÐµÐ¿Ð¾Ð´Ð°": 30511,
  "ÑĢÐµÐ¿ÑĩÐµ": 46084,
  "ÑĢÐµÐ¿ÑıÑĤ": 24089,
  "ÑĢÐµÑģ": 1396,
  "ÑĢÐµÑģÐ°": 30380,
  "ÑĢÐµÑģÐ¿": 7729,
  "ÑĢÐµÑģÐ¿Ð¾Ð½Ð´ÐµÐ½ÑĤ": 36882,
  "ÑĢÐµÑģÑģ": 6035,
  "ÑĢÐµÑģÑģÐ°": 12053,
  "ÑĢÐµÑģÑģÐµ": 34766,
  "ÑĢÐµÑģÑģÐ¸": 13213,
  "ÑĢÐµÑģÑģÐ¸Ð²": 16210,
  "ÑĢÐµÑģÑģÐ¸Ð¸": 19701,
  "ÑĢÐµÑģÑģÐ¸Ð¹": 46487,
  "ÑĢÐµÑģÑģÐ¾Ð²": 44808,
  "ÑĢÐµÑģÑģÑĭ": 49886,
  "ÑĢÐµÑģÑĤ": 6772,
  "ÑĢÐµÑģÑĤÐ¸": 6741,
  "ÑĢÐµÑģÑĥÑĢ": 21512,
  "ÑĢÐµÑģÑĥÑĢÑģÑĭ": 35732,
  "ÑĢÐµÑĤ": 1637,
  "ÑĢÐµÑĤÐ°": 2857,
  "ÑĢÐµÑĤÐµ": 24459,
  "ÑĢÐµÑĤÑĥ": 14892,
  "ÑĢÐµÑĤÑĭ": 10572,
  "ÑĢÐµÑĤÑĮ": 2094,
  "ÑĢÐµÑĤÑĮÑģÑı": 20367,
  "ÑĢÐµÑħ": 10752,
  "ÑĢÐµÑĨ": 3733,
  "ÑĢÐµÑĨÐµÐ´": 39176,
  "ÑĢÐµÑĨÐµÐ´ÐµÐ½ÑĤ": 40121,
  "ÑĢÐµÑĪ": 9210,
  "ÑĢÐµÑĪÐ¸ÑĤÐµ": 49003,
  "ÑĢÐµÑĪÑĮ": 32175,
  "ÑĢÐµÑİ": 29134,
  "ÑĢÐµÑı": 16386,
  "ÑĢÐ¸": 312,
  "ÑĢÐ¸Ð°": 35478,
  "ÑĢÐ¸Ð°Ð½": 16388,
  "ÑĢÐ¸Ð°ÑĤ": 42022,
  "ÑĢÐ¸Ð°ÑĤÐ°": 31165,
  "ÑĢÐ¸Ð²": 9429,
  "ÑĢÐ¸Ð²Ð°ÑĤÑĮ": 49009,
  "ÑĢÐ¸Ð²Ð°Ñı": 47334,
  "ÑĢÐ¸Ð²ÑĪÐ¸ÑģÑĮ": 21401,
  "ÑĢÐ¸Ð´": 6992,
  "ÑĢÐ¸Ð´Ð°": 42504,
  "ÑĢÐ¸Ð´Ð¸": 26313,
  "ÑĢÐ¸Ðµ": 15738,
  "ÑĢÐ¸ÐµÐ²": 9391,
  "ÑĢÐ¸ÐµÐ¹": 17003,
  "ÑĢÐ¸ÐµÐ¼": 16362,
  "ÑĢÐ¸ÐµÐ½ÑĤÐ¸": 42505,
  "ÑĢÐ¸Ð·": 3394,
  "ÑĢÐ¸Ð·Ð°ÑĨÐ¸Ð¸": 36580,
  "ÑĢÐ¸Ð·Ð¸Ñģ": 22139,
  "ÑĢÐ¸Ð·Ð¼": 20614,
  "ÑĢÐ¸Ð·Ð¼Ð°": 13306,
  "ÑĢÐ¸Ð¸": 950,
  "ÑĢÐ¸Ð¹": 1502,
  "ÑĢÐ¸Ð¹ÑģÐºÐ¸Ð¹": 43931,
  "ÑĢÐ¸Ð¹ÑģÐºÐ¾Ð³Ð¾": 43581,
  "ÑĢÐ¸Ð¹ÑģÐºÐ¾Ð¹": 46575,
  "ÑĢÐ¸Ðº": 2611,
  "ÑĢÐ¸ÐºÐ°": 4811,
  "ÑĢÐ¸ÐºÐ°Ð½": 13887,
  "ÑĢÐ¸ÐºÐµ": 10132,
  "ÑĢÐ¸ÐºÐ¸": 6200,
  "ÑĢÐ¸ÐºÐ½ÑĥÐ»": 20064,
  "ÑĢÐ¸ÐºÐ½ÑĥÐ»Ð°": 24271,
  "ÑĢÐ¸ÐºÐ¾": 45616,
  "ÑĢÐ¸ÐºÐ¾Ð²": 29383,
  "ÑĢÐ¸ÐºÐ¾Ð¼": 47811,
  "ÑĢÐ¸ÐºÑģ": 36020,
  "ÑĢÐ¸ÐºÑĥ": 17048,
  "ÑĢÐ¸Ð»": 2538,
  "ÑĢÐ¸Ð»Ð°": 6818,
  "ÑĢÐ¸Ð»Ð°ÑģÑĮ": 9646,
  "ÑĢÐ¸Ð»Ð¸": 7282,
  "ÑĢÐ¸Ð»Ð¸ÑģÑĮ": 15850,
  "ÑĢÐ¸Ð»Ð»Ð¸": 17579,
  "ÑĢÐ¸Ð»Ð¾": 23447,
  "ÑĢÐ¸Ð»Ð¾ÑģÑĮ": 22084,
  "ÑĢÐ¸Ð»ÑģÑı": 6593,
  "ÑĢÐ¸Ð»ÑĮ": 21749,
  "ÑĢÐ¸Ð¼": 4351,
  "ÑĢÐ¸Ð¼ÐµÑĢ": 2951,
  "ÑĢÐ¸Ð¼Ð¸Ð½Ð°": 35966,
  "ÑĢÐ¸Ð½": 2440,
  "ÑĢÐ¸Ð½Ð°": 3854,
  "ÑĢÐ¸Ð½Ð³": 21712,
  "ÑĢÐ¸Ð½Ðµ": 33386,
  "ÑĢÐ¸Ð½Ð¾Ð²": 15943,
  "ÑĢÐ¸Ð½Ñĥ": 31672,
  "ÑĢÐ¸Ð½Ñĭ": 17713,
  "ÑĢÐ¸Ð¾": 27907,
  "ÑĢÐ¸Ð¾Ð½": 35857,
  "ÑĢÐ¸Ð¿": 4237,
  "ÑĢÐ¸Ð¿ÐµÐ»": 37337,
  "ÑĢÐ¸ÑĢÐ¾Ð²Ð°ÑĤÑĮ": 27987,
  "ÑĢÐ¸Ñģ": 4807,
  "ÑĢÐ¸ÑģÐ°": 29056,
  "ÑĢÐ¸ÑģÐ´Ð¸Ðº": 36649,
  "ÑĢÐ¸ÑģÐ¾Ð²": 13007,
  "ÑĢÐ¸ÑģÐ¾Ð²Ñĭ": 34583,
  "ÑĢÐ¸ÑģÑĤ": 4178,
  "ÑĢÐ¸ÑģÑĤÐ°": 8126,
  "ÑĢÐ¸ÑģÑĤÐ°Ð¼Ð¸": 31361,
  "ÑĢÐ¸ÑģÑĤÐ¸": 2910,
  "ÑĢÐ¸ÑģÑĤÐ¸Ð°Ð½": 5381,
  "ÑĢÐ¸ÑģÑĤÐ¾Ð²": 7311,
  "ÑĢÐ¸ÑģÑĤÐ¾Ð¼": 49781,
  "ÑĢÐ¸ÑģÑĤÐ¾ÑĤ": 38581,
  "ÑĢÐ¸ÑģÑĤÑĭ": 12539,
  "ÑĢÐ¸ÑģÑĥ": 50195,
  "ÑĢÐ¸ÑĤ": 2640,
  "ÑĢÐ¸ÑĤÐ°": 5307,
  "ÑĢÐ¸ÑĤÐµ": 4565,
  "ÑĢÐ¸ÑĤÐµÐ»Ð¸": 21134,
  "ÑĢÐ¸ÑĤÐµÐ»ÑĮ": 3380,
  "ÑĢÐ¸ÑĤÐµÐ»ÑĮÐ½Ð¾": 6953,
  "ÑĢÐ¸ÑĤÑģÑı": 11109,
  "ÑĢÐ¸ÑĤÑĭ": 42730,
  "ÑĢÐ¸ÑĤÑĮ": 2869,
  "ÑĢÐ¸ÑĤÑĮÑģÑı": 11858,
  "ÑĢÐ¸ÑĥÑģ": 43593,
  "ÑĢÐ¸ÑĦ": 18605,
  "ÑĢÐ¸Ñħ": 16327,
  "ÑĢÐ¸ÑħÐ°": 35891,
  "ÑĢÐ¸ÑĨ": 18628,
  "ÑĢÐ¸ÑĨÐ°": 5330,
  "ÑĢÐ¸ÑĨÑĭ": 37769,
  "ÑĢÐ¸Ñĩ": 41819,
  "ÑĢÐ¸ÑĩÐ°Ð»": 23028,
  "ÑĢÐ¸ÑĩÐ°Ð»Ð°": 48716,
  "ÑĢÐ¸ÑĩÐµÑģÐºÐ°Ñı": 45762,
  "ÑĢÐ¸ÑĩÐµÑģÐºÐ¸Ðµ": 30411,
  "ÑĢÐ¸ÑĩÐµÑģÐºÐ¸Ð¹": 30654,
  "ÑĢÐ¸ÑĩÐµÑģÐºÐ¸Ñħ": 38135,
  "ÑĢÐ¸ÑĩÐµÑģÐºÐ¾Ð³Ð¾": 43288,
  "ÑĢÐ¸ÑĩÐµÑģÐºÐ¾Ð¹": 22661,
  "ÑĢÐ¸ÑĪÑĮ": 13042,
  "ÑĢÐ¸Ñİ": 5167,
  "ÑĢÐ¸Ñı": 1183,
  "ÑĢÐº": 24522,
  "ÑĢÐºÐ°": 24771,
  "ÑĢÐºÐ¸": 22156,
  "ÑĢÐºÑĥ": 30493,
  "ÑĢÐ½Ð°": 48880,
  "ÑĢÐ½Ð°Ñı": 29606,
  "ÑĢÐ½Ð¾": 26188,
  "ÑĢÐ½Ð¾Ð³Ð¾": 18764,
  "ÑĢÐ½Ð¾Ðµ": 36978,
  "ÑĢÐ½Ð¾Ð¹": 14667,
  "ÑĢÐ½ÑĥÑİ": 49568,
  "ÑĢÐ½ÑĭÐµ": 17474,
  "ÑĢÐ½ÑĭÐ¹": 18998,
  "ÑĢÐ½ÑĭÐ¼": 38168,
  "ÑĢÐ½ÑĭÑħ": 15100,
  "ÑĢÐ¾": 331,
  "ÑĢÐ¾Ð±": 1491,
  "ÑĢÐ¾Ð±Ð°": 48036,
  "ÑĢÐ¾Ð±Ð¸": 26921,
  "ÑĢÐ¾Ð±Ð½ÐµÐµ": 42184,
  "ÑĢÐ¾Ð²": 483,
  "ÑĢÐ¾Ð²Ð°": 756,
  "ÑĢÐ¾Ð²Ð°Ð²": 13850,
  "ÑĢÐ¾Ð²Ð°Ð»": 3064,
  "ÑĢÐ¾Ð²Ð°Ð»Ð°": 6406,
  "ÑĢÐ¾Ð²Ð°Ð»Ð°ÑģÑĮ": 17305,
  "ÑĢÐ¾Ð²Ð°Ð»Ð¸": 4110,
  "ÑĢÐ¾Ð²Ð°Ð»Ð¸ÑģÑĮ": 13656,
  "ÑĢÐ¾Ð²Ð°Ð»Ð¾": 18964,
  "ÑĢÐ¾Ð²Ð°Ð»Ð¾ÑģÑĮ": 16573,
  "ÑĢÐ¾Ð²Ð°Ð»ÑģÑı": 13049,
  "ÑĢÐ¾Ð²Ð°Ð½": 1390,
  "ÑĢÐ¾Ð²Ð°Ð½Ð°": 8087,
  "ÑĢÐ¾Ð²Ð°Ð½Ð¸Ðµ": 3271,
  "ÑĢÐ¾Ð²Ð°Ð½Ð¸ÐµÐ¼": 15273,
  "ÑĢÐ¾Ð²Ð°Ð½Ð¸Ð¸": 8292,
  "ÑĢÐ¾Ð²Ð°Ð½Ð¸Ð¹": 33401,
  "ÑĢÐ¾Ð²Ð°Ð½Ð¸Ñİ": 9781,
  "ÑĢÐ¾Ð²Ð°Ð½Ð¸Ñı": 2682,
  "ÑĢÐ¾Ð²Ð°Ð½Ð½Ð°Ñı": 11049,
  "ÑĢÐ¾Ð²Ð°Ð½Ð½Ð¾": 22085,
  "ÑĢÐ¾Ð²Ð°Ð½Ð½Ð¾Ð³Ð¾": 9104,
  "ÑĢÐ¾Ð²Ð°Ð½Ð½Ð¾Ðµ": 14570,
  "ÑĢÐ¾Ð²Ð°Ð½Ð½Ð¾Ð¹": 7733,
  "ÑĢÐ¾Ð²Ð°Ð½Ð½Ð¾Ð¼": 22439,
  "ÑĢÐ¾Ð²Ð°Ð½Ð½Ð¾Ð¼Ñĥ": 44213,
  "ÑĢÐ¾Ð²Ð°Ð½Ð½Ð¾ÑģÑĤÐ¸": 48755,
  "ÑĢÐ¾Ð²Ð°Ð½Ð½Ð¾ÑģÑĤÑĮ": 49724,
  "ÑĢÐ¾Ð²Ð°Ð½Ð½ÑĥÑİ": 15920,
  "ÑĢÐ¾Ð²Ð°Ð½Ð½ÑĭÐµ": 6728,
  "ÑĢÐ¾Ð²Ð°Ð½Ð½ÑĭÐ¹": 6965,
  "ÑĢÐ¾Ð²Ð°Ð½Ð½ÑĭÐ¼": 13059,
  "ÑĢÐ¾Ð²Ð°Ð½Ð½ÑĭÐ¼Ð¸": 18805,
  "ÑĢÐ¾Ð²Ð°Ð½Ð½ÑĭÑħ": 5856,
  "ÑĢÐ¾Ð²Ð°Ð½Ð¾": 7667,
  "ÑĢÐ¾Ð²Ð°Ð½Ñĭ": 6025,
  "ÑĢÐ¾Ð²Ð°ÑĤÑĮ": 1519,
  "ÑĢÐ¾Ð²Ð°ÑĤÑĮÑģÑı": 6149,
  "ÑĢÐ¾Ð²Ð°Ñı": 11820,
  "ÑĢÐ¾Ð²ÐµÐ½ÑĮ": 26694,
  "ÑĢÐ¾Ð²ÐµÑĢ": 7819,
  "ÑĢÐ¾Ð²Ð¸": 6324,
  "ÑĢÐ¾Ð²Ð¸Ð´": 45836,
  "ÑĢÐ¾Ð²Ð¸Ð·Ð¸": 38931,
  "ÑĢÐ¾Ð²Ð¸Ñĩ": 6522,
  "ÑĢÐ¾Ð²ÐºÐ°": 7434,
  "ÑĢÐ¾Ð²ÐºÐµ": 13770,
  "ÑĢÐ¾Ð²ÐºÐ¸": 4767,
  "ÑĢÐ¾Ð²ÐºÐ¾Ð¹": 19906,
  "ÑĢÐ¾Ð²ÐºÑĥ": 10145,
  "ÑĢÐ¾Ð²Ð¾": 16163,
  "ÑĢÐ¾Ð²Ð¾Ð³Ð¾": 24183,
  "ÑĢÐ¾Ð²Ð¾Ð´": 7086,
  "ÑĢÐ¾Ð²Ð¾Ðµ": 29426,
  "ÑĢÐ¾Ð²Ð¾Ð¹": 6964,
  "ÑĢÐ¾Ð²Ð¾Ðº": 17534,
  "ÑĢÐ¾Ð²Ð¾ÑĨÐ¸": 21769,
  "ÑĢÐ¾Ð²ÑģÐºÐ¸Ð¹": 21515,
  "ÑĢÐ¾Ð²ÑģÐºÐ¾Ð³Ð¾": 30126,
  "ÑĢÐ¾Ð²Ñĥ": 48773,
  "ÑĢÐ¾Ð²ÑĥÑİ": 35636,
  "ÑĢÐ¾Ð²ÑĭÐµ": 18336,
  "ÑĢÐ¾Ð²ÑĭÐ¹": 23079,
  "ÑĢÐ¾Ð²ÑĭÐ¼": 22495,
  "ÑĢÐ¾Ð²ÑĭÑħ": 19120,
  "ÑĢÐ¾Ð²ÑĮ": 14633,
  "ÑĢÐ¾Ð³": 3323,
  "ÑĢÐ¾Ð³Ð°": 21210,
  "ÑĢÐ¾Ð³Ð¾": 1536,
  "ÑĢÐ¾Ð³ÑĢÐ°Ð¼": 7740,
  "ÑĢÐ¾Ð³ÑĢÐ°Ð¼Ð¼Ð¸": 43653,
  "ÑĢÐ¾Ð´": 679,
  "ÑĢÐ¾Ð´Ð°": 5467,
  "ÑĢÐ¾Ð´Ðµ": 3009,
  "ÑĢÐ¾Ð´ÑĥÐº": 12109,
  "ÑĢÐ¾Ð´ÑĥÐºÑĤÐ¾Ð²": 35973,
  "ÑĢÐ¾Ð´Ñĭ": 23029,
  "ÑĢÐ¾Ðµ": 1526,
  "ÑĢÐ¾ÐµÑĤ": 35630,
  "ÑĢÐ¾ÐµÑĤÑģÑı": 44013,
  "ÑĢÐ¾Ð¶": 2546,
  "ÑĢÐ¾Ð¶Ð°Ð¹": 44190,
  "ÑĢÐ¾Ð¶Ð´": 14921,
  "ÑĢÐ¾Ð¶Ð´ÐµÐ½Ð¸Ðµ": 50194,
  "ÑĢÐ¾Ð¶Ð´ÐµÐ½Ð¸Ñı": 44741,
  "ÑĢÐ¾Ð¶ÐµÐ»Ð°": 19414,
  "ÑĢÐ¾Ð·": 2105,
  "ÑĢÐ¾Ð·Ð°": 20070,
  "ÑĢÐ¾Ð·Ð°Ð²Ð¾Ð´": 40998,
  "ÑĢÐ¾Ð·ÑĢÐ°": 21665,
  "ÑĢÐ¾Ð·Ñĭ": 45486,
  "ÑĢÐ¾Ð¸Ð´": 39230,
  "ÑĢÐ¾Ð¹": 932,
  "ÑĢÐ¾Ð¹ÑĤÐµ": 25621,
  "ÑĢÐ¾Ðº": 1020,
  "ÑĢÐ¾ÐºÐ°": 15541,
  "ÑĢÐ¾ÐºÐ¸": 19015,
  "ÑĢÐ¾ÐºÐ¾Ð´": 26810,
  "ÑĢÐ¾ÐºÐ¾Ð¼": 22407,
  "ÑĢÐ¾ÐºÐ¾Ð¼Ð¸Ñģ": 33940,
  "ÑĢÐ¾ÐºÑĢÐ°": 22524,
  "ÑĢÐ¾Ð»": 8646,
  "ÑĢÐ¾Ð»Ð¸": 13295,
  "ÑĢÐ¾Ð»Ð¸ÑĤ": 33899,
  "ÑĢÐ¾Ð¼": 620,
  "ÑĢÐ¾Ð¼Ð°": 6871,
  "ÑĢÐ¾Ð¼Ðµ": 1725,
  "ÑĢÐ¾Ð¼ÐµÑĤ": 26075,
  "ÑĢÐ¾Ð¼Ñĥ": 14192,
  "ÑĢÐ¾Ð¼ÑĭÑĪÐ»ÐµÐ½": 34980,
  "ÑĢÐ¾Ð½": 1368,
  "ÑĢÐ¾Ð½Ð°": 10084,
  "ÑĢÐ¾Ð½Ð°Ð¼Ð¸": 46068,
  "ÑĢÐ¾Ð½Ðµ": 43429,
  "ÑĢÐ¾Ð½Ð¸": 7543,
  "ÑĢÐ¾Ð½Ð¸ÐºÐ°": 46959,
  "ÑĢÐ¾Ð½Ð¾Ð²": 12038,
  "ÑĢÐ¾Ð½Ð¾Ð¼": 33880,
  "ÑĢÐ¾Ð½Ñĥ": 37132,
  "ÑĢÐ¾Ð½Ñĭ": 14789,
  "ÑĢÐ¾Ð¿": 1136,
  "ÑĢÐ¾Ð¿Ð°": 20000,
  "ÑĢÐ¾Ð¿Ð°Ð²Ð»Ð¾Ð²": 33949,
  "ÑĢÐ¾Ð¿ÐµÐ¹": 4174,
  "ÑĢÐ¾Ð¿ÐµÑĤÑĢÐ¾Ð²": 22938,
  "ÑĢÐ¾Ð¿Ð¾Ð»Ð¸ÑĤ": 24197,
  "ÑĢÐ¾Ð¿Ð¾Ð»ÑĮ": 21180,
  "ÑĢÐ¾Ð¿Ð¾ÑĤ": 31419,
  "ÑĢÐ¾Ð¿ÑĢÐ¾": 44940,
  "ÑĢÐ¾ÑĢ": 10010,
  "ÑĢÐ¾ÑĢÐ°": 47112,
  "ÑĢÐ¾ÑĢÐ¸ÑģÑĤÐ¸": 25860,
  "ÑĢÐ¾Ñģ": 648,
  "ÑĢÐ¾ÑģÐ°": 3080,
  "ÑĢÐ¾ÑģÐ°Ð¼Ð¸": 46376,
  "ÑĢÐ¾ÑģÐµ": 12862,
  "ÑĢÐ¾ÑģÐ¸": 1626,
  "ÑĢÐ¾ÑģÐ¸Ð²": 18402,
  "ÑĢÐ¾ÑģÐ¸Ð»": 1652,
  "ÑĢÐ¾ÑģÐ¸Ð»Ð°": 3156,
  "ÑĢÐ¾ÑģÐ¸Ð»Ð¸": 9973,
  "ÑĢÐ¾ÑģÐ¸ÑĤ": 41267,
  "ÑĢÐ¾ÑģÐ¸ÑĤÐµ": 31157,
  "ÑĢÐ¾ÑģÐ¸ÑĤÑĮ": 4475,
  "ÑĢÐ¾ÑģÐ»": 4877,
  "ÑĢÐ¾ÑģÐ»Ð°": 34256,
  "ÑĢÐ¾ÑģÐ»Ð°Ð²": 10123,
  "ÑĢÐ¾ÑģÐ»Ð°Ð²Ð°": 44203,
  "ÑĢÐ¾ÑģÐ»Ð¸": 11873,
  "ÑĢÐ¾ÑģÐ¾": 13041,
  "ÑĢÐ¾ÑģÐ¾Ð²": 8783,
  "ÑĢÐ¾ÑģÐ¾Ð²ÐµÑģÑĤ": 25230,
  "ÑĢÐ¾ÑģÑģ": 18573,
  "ÑĢÐ¾ÑģÑģÐ¸": 1584,
  "ÑĢÐ¾ÑģÑģÐ¸Ð¹": 13776,
  "ÑĢÐ¾ÑģÑĤ": 5050,
  "ÑĢÐ¾ÑģÑĤÐ°": 20821,
  "ÑĢÐ¾ÑģÑĤÐ¸": 6620,
  "ÑĢÐ¾ÑģÑĤÐ¸ÑĤÐµ": 33214,
  "ÑĢÐ¾ÑģÑĤÐ¾Ðº": 29195,
  "ÑĢÐ¾ÑģÑĤÑĢÐ°Ð½": 37820,
  "ÑĢÐ¾ÑģÑĤÑĮ": 7630,
  "ÑĢÐ¾ÑģÑĤÑĮÑİ": 41045,
  "ÑĢÐ¾ÑģÑĭ": 15437,
  "ÑĢÐ¾ÑĤ": 1630,
  "ÑĢÐ¾ÑĤÐ°": 11572,
  "ÑĢÐ¾ÑĤÐ²Ð¾ÑĢ": 18448,
  "ÑĢÐ¾ÑĤÐ¸Ð²": 3849,
  "ÑĢÐ¾Ñĥ": 34780,
  "ÑĢÐ¾ÑĦ": 13727,
  "ÑĢÐ¾ÑĩÐºÐ°": 23064,
  "ÑĢÐ¾ÑĩÐºÐ¸": 28642,
  "ÑĢÐ¾ÑĩÐºÑĥ": 29502,
  "ÑĢÐ¾ÑĩÐ½Ð¾": 7681,
  "ÑĢÐ¾ÑĩÐ½ÑĭÐµ": 49868,
  "ÑĢÐ¾ÑĩÐ½ÑĭÐ¹": 43803,
  "ÑĢÐ¾ÑĪÐµÐ½": 10142,
  "ÑĢÐ¾Ñİ": 27320,
  "ÑĢÐ¾ÑİÑĤ": 45882,
  "ÑĢÐ¾Ñı": 47964,
  "ÑĢÑĢ": 37259,
  "ÑĢÑģÐº": 45249,
  "ÑĢÑģÐºÐ¸Ð¹": 22009,
  "ÑĢÑģÐºÐ¸Ñħ": 46595,
  "ÑĢÑģÐºÐ¾Ð³Ð¾": 21363,
  "ÑĢÑģÐºÐ¾Ð¹": 35395,
  "ÑĢÑĤ": 25419,
  "ÑĢÑĤÑĥ": 10894,
  "ÑĢÑĥ": 344,
  "ÑĢÑĥÐ°": 50120,
  "ÑĢÑĥÐ±": 7371,
  "ÑĢÑĥÐ³": 570,
  "ÑĢÑĥÐ³Ð°": 6625,
  "ÑĢÑĥÐ³Ð°Ñı": 26212,
  "ÑĢÑĥÐ³Ð¸": 39845,
  "ÑĢÑĥÐ´": 945,
  "ÑĢÑĥÐ´Ð°": 46392,
  "ÑĢÑĥÐ´Ð¸": 44629,
  "ÑĢÑĥÐ´Ð½Ð¾": 13110,
  "ÑĢÑĥÐµÐ¼": 7964,
  "ÑĢÑĥÐµÐ¼Ð°Ñı": 35774,
  "ÑĢÑĥÐµÐ¼Ð¾Ð³Ð¾": 31334,
  "ÑĢÑĥÐµÐ¼Ð¾Ð¹": 26922,
  "ÑĢÑĥÐµÐ¼ÑĭÐµ": 26131,
  "ÑĢÑĥÐµÐ¼ÑĭÐ¹": 32295,
  "ÑĢÑĥÐµÐ¼ÑĭÑħ": 20728,
  "ÑĢÑĥÐµÑĤ": 2712,
  "ÑĢÑĥÐµÑĤÐµ": 23554,
  "ÑĢÑĥÐµÑĤÑģÑı": 4164,
  "ÑĢÑĥÐµÑĪÑĮ": 44842,
  "ÑĢÑĥÐ¶": 1067,
  "ÑĢÑĥÐ¶Ð°": 46446,
  "ÑĢÑĥÐ¶Ðµ": 13953,
  "ÑĢÑĥÐ¶ÐµÑģÑĤÐ²Ð°": 45277,
  "ÑĢÑĥÐ¶Ð¸": 2305,
  "ÑĢÑĥÐ¶Ð¸Ð»Ð°ÑģÑĮ": 27862,
  "ÑĢÑĥÐ¶Ð¸Ð»Ð¸": 24663,
  "ÑĢÑĥÐ¶Ð¸Ð»Ð¸ÑģÑĮ": 35834,
  "ÑĢÑĥÐ¶Ð¸ÑĤÑĮÑģÑı": 49202,
  "ÑĢÑĥÐ·": 3042,
  "ÑĢÑĥÐ·ÑĮÑı": 20681,
  "ÑĢÑĥÐ¹": 28306,
  "ÑĢÑĥÐ¹ÑĤÐµ": 20600,
  "ÑĢÑĥÐ¹ÑĤÐµÑģÑĮ": 23375,
  "ÑĢÑĥÐº": 1554,
  "ÑĢÑĥÐºÐ¾Ð²Ð¾Ð´": 42481,
  "ÑĢÑĥÐ¼": 25885,
  "ÑĢÑĥÐ½": 8466,
  "ÑĢÑĥÐ¿": 1005,
  "ÑĢÑĥÐ¿Ð¿Ð¸": 49572,
  "ÑĢÑĥÑĢ": 9119,
  "ÑĢÑĥÑģ": 2796,
  "ÑĢÑĥÑģÐ°": 17084,
  "ÑĢÑĥÑģÑģÐºÐ¸": 21362,
  "ÑĢÑĥÑĤ": 11914,
  "ÑĢÑĥÑħÐ°": 39589,
  "ÑĢÑĥÑĩÐ¸": 20899,
  "ÑĢÑĥÑĪÐºÐ°": 38404,
  "ÑĢÑĥÑĪÐºÐ¸": 35030,
  "ÑĢÑĥÑİ": 1853,
  "ÑĢÑĥÑİÑĤ": 4364,
  "ÑĢÑĥÑİÑĤÑģÑı": 8394,
  "ÑĢÑĥÑİÑīÐ°Ñı": 29374,
  "ÑĢÑĥÑİÑīÐµÐ³Ð¾": 22292,
  "ÑĢÑĥÑİÑīÐµÐµ": 28874,
  "ÑĢÑĥÑİÑīÐµÐ¹": 22366,
  "ÑĢÑĥÑİÑīÐ¸Ðµ": 14414,
  "ÑĢÑĥÑİÑīÐ¸Ð¹": 17853,
  "ÑĢÑĥÑİÑīÐ¸Ð¼": 25058,
  "ÑĢÑĥÑİÑīÐ¸Ð¼Ð¸": 38737,
  "ÑĢÑĥÑİÑīÐ¸Ñħ": 14280,
  "ÑĢÑĥÑİÑīÑĥÑİ": 42044,
  "ÑĢÑĥÑı": 6946,
  "ÑĢÑĥÑıÑģÑĮ": 40079,
  "ÑĢÑħ": 11804,
  "ÑĢÑĪÐµ": 40952,
  "ÑĢÑĭ": 394,
  "ÑĢÑĭÐ²": 2736,
  "ÑĢÑĭÐ²Ð°": 5146,
  "ÑĢÑĭÐ²Ð°Ð»Ð¸ÑģÑĮ": 31066,
  "ÑĢÑĭÐ²Ð½Ð¾": 15236,
  "ÑĢÑĭÐ³Ð½ÑĥÐ»": 17747,
  "ÑĢÑĭÐµ": 4915,
  "ÑĢÑĭÐ·": 7420,
  "ÑĢÑĭÐ¹": 3126,
  "ÑĢÑĭÐ¼": 6182,
  "ÑĢÑĭÐ¼Ð¸": 12311,
  "ÑĢÑĭÐ½": 42870,
  "ÑĢÑĭÐ½Ñı": 28903,
  "ÑĢÑĭÑħ": 6077,
  "ÑĢÑĮ": 1666,
  "ÑĢÑĮÐµ": 22313,
  "ÑĢÑĮÐ¼Ñı": 26887,
  "ÑĢÑį": 11167,
  "ÑĢÑįÐ¹": 27715,
  "ÑĢÑįÐ½": 12209,
  "ÑĢÑİ": 2243,
  "ÑĢÑı": 521,
  "ÑĢÑıÐ´": 989,
  "ÑĢÑıÐ´Ð°": 47924,
  "ÑĢÑıÐµÑĤ": 28523,
  "ÑĢÑıÐ·": 10607,
  "ÑĢÑıÐ»": 34190,
  "ÑĢÑıÐ»Ð¸": 48380,
  "ÑĢÑıÐ¼": 8703,
  "ÑĢÑıÐ¼Ð¸": 10686,
  "ÑĢÑıÐ¼Ð¾": 11591,
  "ÑĢÑıÐ½": 14444,
  "ÑĢÑıÑģ": 5393,
  "ÑĢÑıÑģÐ°": 11905,
  "ÑĢÑıÑģÑĮ": 38862,
  "ÑĢÑıÑĤ": 16538,
  "ÑĢÑıÑĤÑĮ": 24999,
  "ÑĢÑıÑħ": 12527,
  "ÑĢÑıÑı": 39598,
  "ÑĢÑĳ": 19272,
  "ÑĢÑĳÐ»": 40814,
  "ÑĢÑĳÑĤ": 50046,
  "ÑĢÑĸ": 39884,
  "Ñģ": 267,
  "ÑģÐ°": 507,
  "ÑģÐ°Ð²": 36828,
  "ÑģÐ°Ð´": 3375,
  "ÑģÐ°Ð´Ð°": 17856,
  "ÑģÐ°Ð´Ð¸Ð»": 37504,
  "ÑģÐ°Ð¶Ð¸": 16449,
  "ÑģÐ°Ð¹": 11178,
  "ÑģÐ°Ð¹ÑĤ": 34960,
  "ÑģÐ°Ð»": 11942,
  "ÑģÐ°Ð»Ð¸": 48129,
  "ÑģÐ°Ð»ÑĮ": 48550,
  "ÑģÐ°Ð¼": 7223,
  "ÑģÐ°Ð¼Ð¸": 4887,
  "ÑģÐ°Ð¼Ð¾": 48547,
  "ÑģÐ°Ð½": 14716,
  "ÑģÐ°Ð½Ð°": 17186,
  "ÑģÐ°Ð½ÑĤ": 19815,
  "ÑģÐ°Ð½Ñĭ": 43677,
  "ÑģÐ°ÑĢ": 10769,
  "ÑģÐ°ÑĢÐ°": 23218,
  "ÑģÐ°ÑĢÑĭ": 43453,
  "ÑģÐ°Ñģ": 30300,
  "ÑģÐ°ÑĤÑĮ": 20689,
  "ÑģÐ°Ñħ": 4330,
  "ÑģÐ°ÑĨÐ¸Ð¸": 24574,
  "ÑģÐ°ÑĨÐ¸Ñı": 39380,
  "ÑģÐ°ÑįÑĢÐ¾": 43881,
  "ÑģÐ±ÑĥÑĢÐ³": 46253,
  "ÑģÐ²ÐµÑĤ": 21192,
  "ÑģÐ²Ð¾": 13775,
  "ÑģÐ²Ð¾Ð±Ð¾Ð´": 44567,
  "ÑģÐ²Ð¾ÐµÐ¼Ñĥ": 21495,
  "ÑģÐµ": 409,
  "ÑģÐµÐ²": 10428,
  "ÑģÐµÐ³Ð´Ð°": 7325,
  "ÑģÐµÐ´": 10066,
  "ÑģÐµÐ´Ð°": 2684,
  "ÑģÐµÐ´Ð°ÑĤÐµÐ»ÑĮ": 38889,
  "ÑģÐµÐ´ÐµÑģ": 35380,
  "ÑģÐµÐ´Ð½ÐµÐ²": 15030,
  "ÑģÐµÐµÐ²": 48438,
  "ÑģÐµÐ·Ð¾Ð½": 43535,
  "ÑģÐµÐ¹": 17125,
  "ÑģÐµÐ¹ÑĩÐ°Ñģ": 39384,
  "ÑģÐµÐº": 5038,
  "ÑģÐµÐºÐ°": 49631,
  "ÑģÐµÐºÑĢÐµÑĤÐ°": 12206,
  "ÑģÐµÐºÑĢÐµÑĤÐ°ÑĢÑĮ": 15975,
  "ÑģÐµÐºÑĢÐµÑĤÐ°ÑĢÑı": 38402,
  "ÑģÐµÐºÑĥÐ½": 46895,
  "ÑģÐµÐ»": 9055,
  "ÑģÐµÐ»Ð¾": 28052,
  "ÑģÐµÐ»ÑĮ": 12887,
  "ÑģÐµÐ»ÑĮÑħÐ¾Ð·": 33667,
  "ÑģÐµÐ¼": 1515,
  "ÑģÐµÐ¼ÐµÐ¹": 41870,
  "ÑģÐµÐ½": 5945,
  "ÑģÐµÐ½Ð°": 41721,
  "ÑģÐµÐ½ÑĤ": 30454,
  "ÑģÐµÐ¿": 34769,
  "ÑģÐµÑĢ": 3045,
  "ÑģÐµÑĢÐ°": 16275,
  "ÑģÐµÑĢÐ²Ð°": 25200,
  "ÑģÐµÑĢÐ²Ð¸": 39918,
  "ÑģÐµÑĢÐ²Ð¸Ñģ": 35368,
  "ÑģÐµÑĢÐµ": 49570,
  "ÑģÐµÑĢÐ¸": 23224,
  "ÑģÐµÑĢÐ¾Ð²": 35223,
  "ÑģÐµÑĢÐ¾ÑģÑģÐ¸Ð¹": 15794,
  "ÑģÐµÑģÑģÑĥ": 16516,
  "ÑģÐµÑĤ": 14860,
  "ÑģÐµÑĤÐ¸": 33391,
  "ÑģÐµÑĨ": 20300,
  "ÑģÐµÑĪÑĮ": 46686,
  "ÑģÐ¸": 440,
  "ÑģÐ¸Ð±Ð¾": 3109,
  "ÑģÐ¸Ð²": 3664,
  "ÑģÐ¸Ð²Ð½Ð¾": 24226,
  "ÑģÐ¸Ð´": 12554,
  "ÑģÐ¸Ðµ": 16545,
  "ÑģÐ¸ÐµÐ¹": 14325,
  "ÑģÐ¸Ð¸": 2047,
  "ÑģÐ¸Ð¹": 6454,
  "ÑģÐ¸Ðº": 19554,
  "ÑģÐ¸ÐºÐ°": 23226,
  "ÑģÐ¸ÐºÐ¸": 22491,
  "ÑģÐ¸ÐºÐ¾Ð²": 48787,
  "ÑģÐ¸Ð»": 8610,
  "ÑģÐ¸Ð»Ð°": 7102,
  "ÑģÐ¸Ð»Ð°ÑģÑĮ": 40361,
  "ÑģÐ¸Ð»Ð¸": 2385,
  "ÑģÐ¸Ð»Ð¸ÑģÑĮ": 42136,
  "ÑģÐ¸Ð»Ð¸Ñı": 5610,
  "ÑģÐ¸Ð»Ð¾": 48879,
  "ÑģÐ¸Ð»ÑĮ": 27438,
  "ÑģÐ¸Ð¼": 15886,
  "ÑģÐ¸Ð¼Ð¸": 27579,
  "ÑģÐ¸Ð½": 7779,
  "ÑģÐ¸Ð½Ð°": 18746,
  "ÑģÐ¸Ð½Ð³": 41123,
  "ÑģÐ¸Ð½Ð¾Ð²": 43632,
  "ÑģÐ¸Ð½Ñĭ": 16312,
  "ÑģÐ¸Ð¾": 46023,
  "ÑģÐ¸Ð¾Ð½": 2324,
  "ÑģÐ¸Ð¾Ð½Ð°": 30916,
  "ÑģÐ¸ÑĢÐ¾Ð²Ð°ÑĤÑĮ": 31763,
  "ÑģÐ¸Ñģ": 12258,
  "ÑģÐ¸ÑģÐ°": 37457,
  "ÑģÐ¸ÑģÑĤ": 8966,
  "ÑģÐ¸ÑģÑĤÐµÐ¼": 35515,
  "ÑģÐ¸ÑģÑĤÐµÐ¼Ñĭ": 42965,
  "ÑģÐ¸ÑĤ": 17471,
  "ÑģÐ¸ÑĤÑĮ": 3633,
  "ÑģÐ¸Ñħ": 2527,
  "ÑģÐ¸Ñİ": 5133,
  "ÑģÐ¸Ñı": 2750,
  "ÑģÐ¸ÑıÑħ": 30567,
  "ÑģÐº": 328,
  "ÑģÐºÐ°": 820,
  "ÑģÐºÐ°Ð²Ð°": 42927,
  "ÑģÐºÐ°Ð´": 12553,
  "ÑģÐºÐ°ÐµÑĤ": 16179,
  "ÑģÐºÐ°ÐµÑĤÑģÑı": 47550,
  "ÑģÐºÐ°Ð¶Ð¸": 32608,
  "ÑģÐºÐ°Ð¶Ð¸ÑĤÐµ": 15977,
  "ÑģÐºÐ°Ð·": 1319,
  "ÑģÐºÐ°Ð·Ð°": 14246,
  "ÑģÐºÐ°Ð·Ð°Ð»": 46522,
  "ÑģÐºÐ°Ð·Ð°ÑĤÑĮ": 16187,
  "ÑģÐºÐ°Ð¹": 30222,
  "ÑģÐºÐ°Ðº": 19488,
  "ÑģÐºÐ°ÐºÐ°Ð»": 42959,
  "ÑģÐºÐ°ÐºÐ¸": 39807,
  "ÑģÐºÐ°Ð»": 11038,
  "ÑģÐºÐ°Ð»Ð°": 17871,
  "ÑģÐºÐ°Ð»Ð¸": 18215,
  "ÑģÐºÐ°Ð»ÑĮ": 43878,
  "ÑģÐºÐ°Ð¼": 30054,
  "ÑģÐºÐ°Ð¼Ð¸": 9340,
  "ÑģÐºÐ°Ð½": 43676,
  "ÑģÐºÐ°ÑĢ": 21871,
  "ÑģÐºÐ°ÑĢÐ°": 43123,
  "ÑģÐºÐ°ÑĤÑĮ": 3058,
  "ÑģÐºÐ°Ñħ": 6784,
  "ÑģÐºÐ°Ñı": 1162,
  "ÑģÐºÐ°ÑıÑģÑĮ": 39112,
  "ÑģÐºÐµ": 2557,
  "ÑģÐºÐµÑĤ": 16084,
  "ÑģÐºÐ¸": 1465,
  "ÑģÐºÐ¸Ð²Ð°ÐµÑĤ": 49609,
  "ÑģÐºÐ¸Ð²Ð°Ð»": 43439,
[...]
